unsigned char tf_lite_model_tflite[] = {
  0x1c, 0x00, 0x00, 0x00, 0x54, 0x46, 0x4c, 0x33, 0x14, 0x00, 0x20, 0x00,
  0x1c, 0x00, 0x18, 0x00, 0x14, 0x00, 0x10, 0x00, 0x0c, 0x00, 0x00, 0x00,
  0x08, 0x00, 0x04, 0x00, 0x14, 0x00, 0x00, 0x00, 0x1c, 0x00, 0x00, 0x00,
  0x88, 0x00, 0x00, 0x00, 0xe0, 0x00, 0x00, 0x00, 0x84, 0x3b, 0x00, 0x00,
  0x94, 0x3b, 0x00, 0x00, 0x54, 0x43, 0x00, 0x00, 0x03, 0x00, 0x00, 0x00,
  0x01, 0x00, 0x00, 0x00, 0x04, 0x00, 0x00, 0x00, 0xb2, 0xc3, 0xff, 0xff,
  0x0c, 0x00, 0x00, 0x00, 0x1c, 0x00, 0x00, 0x00, 0x3c, 0x00, 0x00, 0x00,
  0x0f, 0x00, 0x00, 0x00, 0x73, 0x65, 0x72, 0x76, 0x69, 0x6e, 0x67, 0x5f,
  0x64, 0x65, 0x66, 0x61, 0x75, 0x6c, 0x74, 0x00, 0x01, 0x00, 0x00, 0x00,
  0x04, 0x00, 0x00, 0x00, 0x94, 0xff, 0xff, 0xff, 0x0e, 0x00, 0x00, 0x00,
  0x04, 0x00, 0x00, 0x00, 0x08, 0x00, 0x00, 0x00, 0x6f, 0x75, 0x74, 0x70,
  0x75, 0x74, 0x5f, 0x30, 0x00, 0x00, 0x00, 0x00, 0x01, 0x00, 0x00, 0x00,
  0x04, 0x00, 0x00, 0x00, 0x0e, 0xc5, 0xff, 0xff, 0x04, 0x00, 0x00, 0x00,
  0x0b, 0x00, 0x00, 0x00, 0x69, 0x6e, 0x70, 0x75, 0x74, 0x5f, 0x6c, 0x61,
  0x79, 0x65, 0x72, 0x00, 0x02, 0x00, 0x00, 0x00, 0x34, 0x00, 0x00, 0x00,
  0x04, 0x00, 0x00, 0x00, 0xdc, 0xff, 0xff, 0xff, 0x11, 0x00, 0x00, 0x00,
  0x04, 0x00, 0x00, 0x00, 0x13, 0x00, 0x00, 0x00, 0x43, 0x4f, 0x4e, 0x56,
  0x45, 0x52, 0x53, 0x49, 0x4f, 0x4e, 0x5f, 0x4d, 0x45, 0x54, 0x41, 0x44,
  0x41, 0x54, 0x41, 0x00, 0x08, 0x00, 0x0c, 0x00, 0x08, 0x00, 0x04, 0x00,
  0x08, 0x00, 0x00, 0x00, 0x10, 0x00, 0x00, 0x00, 0x04, 0x00, 0x00, 0x00,
  0x13, 0x00, 0x00, 0x00, 0x6d, 0x69, 0x6e, 0x5f, 0x72, 0x75, 0x6e, 0x74,
  0x69, 0x6d, 0x65, 0x5f, 0x76, 0x65, 0x72, 0x73, 0x69, 0x6f, 0x6e, 0x00,
  0x12, 0x00, 0x00, 0x00, 0xa0, 0x3a, 0x00, 0x00, 0x98, 0x3a, 0x00, 0x00,
  0x78, 0x3a, 0x00, 0x00, 0xd0, 0x39, 0x00, 0x00, 0x90, 0x39, 0x00, 0x00,
  0x40, 0x01, 0x00, 0x00, 0x20, 0x01, 0x00, 0x00, 0x04, 0x01, 0x00, 0x00,
  0xec, 0x00, 0x00, 0x00, 0xd4, 0x00, 0x00, 0x00, 0xcc, 0x00, 0x00, 0x00,
  0xc4, 0x00, 0x00, 0x00, 0xbc, 0x00, 0x00, 0x00, 0xb4, 0x00, 0x00, 0x00,
  0xac, 0x00, 0x00, 0x00, 0xa4, 0x00, 0x00, 0x00, 0x84, 0x00, 0x00, 0x00,
  0x04, 0x00, 0x00, 0x00, 0xce, 0xc5, 0xff, 0xff, 0x04, 0x00, 0x00, 0x00,
  0x70, 0x00, 0x00, 0x00, 0x10, 0x00, 0x00, 0x00, 0x00, 0x00, 0x00, 0x00,
  0x08, 0x00, 0x0e, 0x00, 0x08, 0x00, 0x04, 0x00, 0x08, 0x00, 0x00, 0x00,
  0x10, 0x00, 0x00, 0x00, 0x24, 0x00, 0x00, 0x00, 0x00, 0x00, 0x06, 0x00,
  0x08, 0x00, 0x04, 0x00, 0x06, 0x00, 0x00, 0x00, 0x04, 0x00, 0x00, 0x00,
  0x00, 0x00, 0x00, 0x00, 0x0c, 0x00, 0x1c, 0x00, 0x18, 0x00, 0x14, 0x00,
  0x10, 0x00, 0x04, 0x00, 0x0c, 0x00, 0x00, 0x00, 0x19, 0x9a, 0x09, 0x41,
  0xb1, 0x41, 0xc6, 0x9f, 0x00, 0x00, 0x00, 0x00, 0x02, 0x00, 0x00, 0x00,
  0x02, 0x00, 0x00, 0x00, 0x04, 0x00, 0x00, 0x00, 0x12, 0x00, 0x00, 0x00,
  0x32, 0x2e, 0x31, 0x38, 0x2e, 0x30, 0x2d, 0x64, 0x65, 0x76, 0x32, 0x30,
  0x32, 0x34, 0x30, 0x37, 0x30, 0x39, 0x00, 0x00, 0x4a, 0xc6, 0xff, 0xff,
  0x04, 0x00, 0x00, 0x00, 0x10, 0x00, 0x00, 0x00, 0x32, 0x2e, 0x32, 0x2e,
  0x30, 0x00, 0x00, 0x00, 0x00, 0x00, 0x00, 0x00, 0x00, 0x00, 0x00, 0x00,
  0xa4, 0xbe, 0xff, 0xff, 0xa8, 0xbe, 0xff, 0xff, 0xac, 0xbe, 0xff, 0xff,
  0xb0, 0xbe, 0xff, 0xff, 0xb4, 0xbe, 0xff, 0xff, 0xb8, 0xbe, 0xff, 0xff,
  0x7e, 0xc6, 0xff, 0xff, 0x04, 0x00, 0x00, 0x00, 0x08, 0x00, 0x00, 0x00,
  0x20, 0x00, 0x00, 0x00, 0x20, 0x00, 0x00, 0x00, 0x92, 0xc6, 0xff, 0xff,
  0x04, 0x00, 0x00, 0x00, 0x08, 0x00, 0x00, 0x00, 0xff, 0xff, 0xff, 0xff,
  0x84, 0x03, 0x00, 0x00, 0xa6, 0xc6, 0xff, 0xff, 0x04, 0x00, 0x00, 0x00,
  0x0c, 0x00, 0x00, 0x00, 0x70, 0xe2, 0x55, 0xbd, 0xd1, 0x86, 0x41, 0xbd,
  0x97, 0xb5, 0x9a, 0x3d, 0xbe, 0xc6, 0xff, 0xff, 0x04, 0x00, 0x00, 0x00,
  0x10, 0x00, 0x00, 0x00, 0x55, 0x53, 0x7f, 0xbc, 0xbe, 0xdb, 0x5c, 0x3d,
  0x1e, 0xb1, 0x80, 0x3b, 0x00, 0x08, 0x9e, 0x3d, 0xda, 0xc6, 0xff, 0xff,
  0x04, 0x00, 0x00, 0x00, 0x40, 0x38, 0x00, 0x00, 0xbb, 0x99, 0xec, 0xbd,
  0xeb, 0x57, 0xe5, 0x3d, 0x2c, 0xf2, 0x3d, 0x3c, 0x63, 0xa6, 0xe0, 0xbd,
  0x50, 0x5a, 0x8b, 0xbd, 0x01, 0x40, 0x89, 0x3d, 0xc5, 0xba, 0x5e, 0xbb,
  0x95, 0x03, 0xb0, 0x3c, 0xac, 0xb7, 0x00, 0x3e, 0xf8, 0xf4, 0x58, 0xbd,
  0x2f, 0xaa, 0xba, 0x3d, 0x79, 0x2f, 0xed, 0x3d, 0xe7, 0x7a, 0x51, 0x3e,
  0xfe, 0x3e, 0xd4, 0x3d, 0x96, 0x00, 0x87, 0x3e, 0x8b, 0x73, 0x73, 0x3e,
  0xd1, 0x66, 0x75, 0x3c, 0xa3, 0x16, 0xf1, 0xbb, 0x23, 0x87, 0x03, 0x3e,
  0x3b, 0x3d, 0xbb, 0x3d, 0x3f, 0xa1, 0xaf, 0xbd, 0x0e, 0xf3, 0xc0, 0x3c,
  0x6c, 0x4c, 0x84, 0xbc, 0x9e, 0x0c, 0x06, 0xbd, 0x30, 0x90, 0x08, 0xbd,
  0xe4, 0xd3, 0x3b, 0x3d, 0xb0, 0x76, 0xf8, 0xbd, 0x4b, 0xd1, 0x87, 0xbd,
  0xe5, 0x91, 0xdc, 0x3c, 0x52, 0x58, 0x1a, 0xbb, 0x54, 0xc8, 0xa6, 0xbd,
  0x8f, 0xf1, 0x05, 0xbe, 0x42, 0x14, 0xf8, 0xbb, 0x7d, 0x2f, 0x2b, 0xbd,
  0x73, 0x56, 0x8f, 0xbd, 0xd6, 0x2c, 0xaa, 0xbc, 0xbb, 0x29, 0xfc, 0xbd,
  0xac, 0xa1, 0x7e, 0xbc, 0x0a, 0x8a, 0x00, 0xbe, 0x42, 0xef, 0x4e, 0xbc,
  0xa7, 0x16, 0xb9, 0xbd, 0xb7, 0xb7, 0x91, 0x3d, 0x2b, 0x1d, 0x85, 0xbd,
  0x1e, 0xe5, 0x38, 0x3c, 0xa4, 0x67, 0xb1, 0xbd, 0x98, 0xd9, 0x58, 0xbd,
  0x6c, 0x60, 0x23, 0x3e, 0xbb, 0x32, 0x12, 0x3e, 0x3f, 0x2f, 0xb7, 0xbd,
  0x2a, 0x57, 0xf2, 0x3a, 0x3f, 0x82, 0x03, 0x3e, 0x48, 0x8e, 0xe2, 0x3d,
  0xb6, 0x2b, 0xf9, 0x3b, 0x5d, 0xc4, 0x8d, 0x3b, 0x38, 0x96, 0x5b, 0x3e,
  0x6c, 0x04, 0xf7, 0x3d, 0xe5, 0x9f, 0x4d, 0x3d, 0xd9, 0xe9, 0x1b, 0x3d,
  0xd9, 0x43, 0x87, 0x3e, 0x69, 0xca, 0x68, 0x3e, 0xd8, 0x80, 0xda, 0x3d,
  0x57, 0x5c, 0x1b, 0x3d, 0x23, 0xc5, 0xc1, 0x3d, 0xd5, 0xce, 0xac, 0x3d,
  0xe8, 0x66, 0xc5, 0xbd, 0x34, 0xc7, 0x8c, 0xbc, 0xca, 0xcb, 0xa8, 0xbc,
  0xa5, 0x2a, 0x72, 0xbd, 0x69, 0x87, 0x40, 0x3d, 0x75, 0x5a, 0xdf, 0x3d,
  0x16, 0x9f, 0xe1, 0xbc, 0xda, 0xb7, 0xb1, 0x3d, 0xe8, 0xe8, 0x92, 0x3d,
  0x6d, 0xea, 0x80, 0x3d, 0x51, 0xf3, 0x29, 0x3e, 0xdf, 0x89, 0xaa, 0x3d,
  0x43, 0x3b, 0xfd, 0xbc, 0xf9, 0x63, 0xb1, 0x3d, 0x05, 0xfc, 0xb7, 0x3d,
  0xba, 0x90, 0x14, 0x3e, 0x0e, 0x1f, 0x81, 0xbd, 0xbd, 0xce, 0x8d, 0x3c,
  0x7d, 0xa3, 0x1f, 0x3c, 0x6b, 0x05, 0x6f, 0xbd, 0xfe, 0xcd, 0x29, 0x3c,
  0x00, 0xa1, 0x6b, 0xbd, 0xb0, 0xa1, 0xa8, 0xbd, 0x35, 0xf5, 0x2e, 0xbd,
  0xa0, 0xd2, 0x3b, 0xbc, 0x70, 0x60, 0x40, 0xbd, 0xf4, 0x03, 0xc4, 0xb9,
  0x74, 0x49, 0x89, 0x3b, 0xf6, 0xef, 0x01, 0x38, 0xf9, 0x07, 0xf9, 0x3c,
  0xbe, 0x4c, 0xc1, 0xbd, 0x67, 0x2a, 0x0f, 0xbe, 0xa5, 0x8e, 0xc8, 0x3c,
  0x4f, 0x91, 0x28, 0xbd, 0xba, 0x36, 0xbe, 0xbd, 0xca, 0x8d, 0x0d, 0xbd,
  0x59, 0x55, 0x37, 0xbd, 0x67, 0x1b, 0xc4, 0xbb, 0x77, 0x6e, 0xf2, 0xbd,
  0x2f, 0x72, 0xeb, 0xbd, 0x47, 0x0b, 0x16, 0xbe, 0x77, 0x20, 0xb8, 0xbc,
  0x07, 0x55, 0x66, 0x3d, 0xbe, 0x10, 0x8a, 0x3d, 0x15, 0xf3, 0x47, 0x3d,
  0xbd, 0x9e, 0xd8, 0xbb, 0xdd, 0xa8, 0x32, 0xbd, 0xdc, 0xc5, 0xdb, 0x3c,
  0x41, 0x70, 0x01, 0xbc, 0xe9, 0x83, 0x40, 0xbd, 0x7d, 0xf8, 0x3b, 0x3e,
  0x8e, 0x11, 0x9b, 0x3c, 0x7c, 0xe5, 0x6c, 0xbd, 0xea, 0x9b, 0x98, 0xbd,
  0xaf, 0x3f, 0xe2, 0x3d, 0x5b, 0x49, 0x06, 0xbd, 0x0d, 0x14, 0x3e, 0x3c,
  0x7e, 0xaa, 0xb4, 0xbd, 0x00, 0x8b, 0x58, 0x3d, 0x66, 0x1a, 0x16, 0x3e,
  0xdc, 0x43, 0xf6, 0xbc, 0x1e, 0xfe, 0xfb, 0x3a, 0x9d, 0xee, 0xa1, 0xbd,
  0x82, 0x74, 0x03, 0xbd, 0xfd, 0x05, 0xce, 0x3d, 0xd0, 0x66, 0x17, 0x3d,
  0x71, 0x83, 0xef, 0xba, 0xcb, 0x48, 0x02, 0xbd, 0x47, 0x0d, 0xa2, 0x3d,
  0xc9, 0x7d, 0x83, 0x3d, 0x0e, 0x34, 0xbe, 0x3d, 0x6b, 0x26, 0x18, 0x3e,
  0x4e, 0x0c, 0x5b, 0x3d, 0xeb, 0x15, 0xb1, 0x3d, 0x4b, 0x94, 0x2a, 0x3e,
  0xfd, 0xad, 0x76, 0x3d, 0xc1, 0xe2, 0x8a, 0xbc, 0x54, 0x1d, 0xa5, 0x3c,
  0x59, 0x4c, 0x5e, 0x3d, 0x2f, 0xfb, 0x94, 0x3c, 0x89, 0x3e, 0xf0, 0x3c,
  0x99, 0x9f, 0x42, 0x39, 0xcf, 0xd7, 0xae, 0xbd, 0x09, 0x2d, 0xc8, 0xbd,
  0x40, 0xcb, 0xc6, 0x3c, 0x29, 0xab, 0x64, 0x3d, 0xf4, 0x1e, 0x22, 0xbd,
  0x73, 0xe1, 0x8d, 0xbc, 0x96, 0x11, 0x8f, 0xbd, 0xe1, 0xca, 0xa0, 0x3d,
  0xda, 0x07, 0xcd, 0xbd, 0x46, 0x65, 0xbf, 0xbc, 0x68, 0x93, 0x1e, 0x3c,
  0xcd, 0x79, 0xdd, 0xbc, 0x1e, 0x39, 0x07, 0x3d, 0x16, 0x99, 0x9c, 0xbd,
  0x95, 0x4c, 0x6c, 0xbd, 0xe0, 0x63, 0x89, 0x3d, 0x60, 0x43, 0xd2, 0xbd,
  0xa4, 0x03, 0xb6, 0xbd, 0x9f, 0x86, 0x4e, 0xbd, 0x36, 0xd6, 0xb4, 0xbd,
  0x7e, 0x15, 0xd4, 0xbc, 0x9b, 0xaf, 0xcb, 0xbd, 0xa6, 0xf1, 0xc2, 0x3c,
  0xb0, 0xca, 0xa2, 0x3d, 0x82, 0x76, 0x89, 0xbd, 0x54, 0x19, 0x50, 0xbd,
  0xbf, 0x1d, 0xbe, 0xbd, 0x20, 0x6a, 0xcd, 0xbb, 0x1b, 0x14, 0x79, 0xbd,
  0xea, 0x65, 0xb4, 0xbd, 0xeb, 0x44, 0xda, 0xb9, 0x60, 0x4c, 0x61, 0xbd,
  0xb9, 0x23, 0x36, 0xbd, 0xab, 0x51, 0x5c, 0x3d, 0xc2, 0x91, 0x82, 0x3d,
  0xd5, 0x6d, 0x18, 0xbd, 0x9f, 0xee, 0x42, 0x3d, 0x3c, 0x48, 0xd9, 0x3c,
  0x97, 0x7f, 0xd6, 0xbd, 0x5b, 0x77, 0x3f, 0xbd, 0xfb, 0x97, 0xa4, 0xbd,
  0x9b, 0x4f, 0xed, 0xbb, 0x94, 0x7b, 0x57, 0xbb, 0xe7, 0xc5, 0x09, 0xbc,
  0x9d, 0x69, 0xa2, 0xbd, 0x20, 0x83, 0x76, 0x3b, 0x89, 0x19, 0x8a, 0xbc,
  0x94, 0xb8, 0x9d, 0x3d, 0xa4, 0xac, 0xff, 0x3d, 0x32, 0xe2, 0xe6, 0x3d,
  0x53, 0x86, 0x35, 0x3c, 0xcb, 0xdc, 0xfe, 0x3d, 0xd6, 0x25, 0x9e, 0x3d,
  0xeb, 0x4d, 0x17, 0x3d, 0x56, 0x5d, 0x35, 0x3d, 0x06, 0xa9, 0xa0, 0x3d,
  0x51, 0x49, 0xc0, 0x3d, 0x82, 0x3f, 0x6f, 0x3c, 0x09, 0x12, 0xe1, 0xbd,
  0xd6, 0x04, 0x0b, 0xbc, 0xd2, 0x31, 0xb1, 0xbd, 0x29, 0x73, 0xc8, 0xbc,
  0x64, 0x84, 0xae, 0xbc, 0xa5, 0x38, 0xb5, 0xbd, 0x0d, 0x55, 0x4b, 0x3c,
  0xec, 0xb2, 0x26, 0xbd, 0x16, 0xc9, 0x53, 0x3d, 0x27, 0x63, 0x5f, 0x3d,
  0x73, 0x7c, 0xc1, 0xbd, 0x4a, 0xf0, 0x2b, 0x3c, 0x36, 0xa3, 0xa5, 0xbd,
  0x1e, 0xde, 0xb7, 0xbc, 0x9e, 0x66, 0xab, 0xbd, 0x4f, 0x72, 0xdf, 0xbb,
  0x58, 0xf5, 0xd0, 0x3a, 0x58, 0x79, 0x8b, 0x3c, 0xe6, 0xfd, 0xb4, 0x3c,
  0x08, 0xda, 0xb3, 0xbd, 0xd3, 0x02, 0xb9, 0xbd, 0xb3, 0xd0, 0x40, 0x3d,
  0x17, 0xe6, 0x3f, 0x3c, 0xda, 0x41, 0x4c, 0xbd, 0xc5, 0x97, 0x7f, 0xbd,
  0x7a, 0x13, 0x51, 0xbd, 0xaf, 0xa3, 0x7d, 0xbd, 0xbc, 0x83, 0x0a, 0xbd,
  0x6e, 0xda, 0x82, 0xbd, 0xf4, 0x15, 0x39, 0xbd, 0x5b, 0x18, 0xf0, 0xbd,
  0xb1, 0xf1, 0xd9, 0xbd, 0x38, 0xf7, 0xb1, 0xbc, 0x1d, 0xe0, 0x46, 0x3d,
  0x16, 0x3a, 0xa2, 0xbd, 0x2e, 0x06, 0xc3, 0x3c, 0x3c, 0x70, 0x26, 0x3d,
  0xdf, 0xbe, 0x86, 0xbc, 0x3f, 0xdb, 0xf0, 0x3c, 0x27, 0xe0, 0x2b, 0x3d,
  0xf9, 0x47, 0xe7, 0xbd, 0x90, 0xcc, 0x90, 0x3c, 0xde, 0xf6, 0x4a, 0xbd,
  0x4e, 0xa5, 0x00, 0xbe, 0x1c, 0xce, 0x0c, 0xbc, 0x05, 0x0d, 0x16, 0x3c,
  0xcf, 0xeb, 0xa7, 0x3c, 0x96, 0x15, 0xc1, 0xbc, 0x79, 0x91, 0xbe, 0x3d,
  0x52, 0x67, 0xca, 0x3d, 0xfd, 0xb6, 0x90, 0x3d, 0x42, 0x9e, 0x05, 0x3e,
  0xa8, 0xa4, 0xf5, 0x3d, 0x52, 0xed, 0x33, 0xbd, 0x4b, 0x72, 0xe0, 0x3d,
  0x94, 0xa1, 0xdd, 0x3c, 0x9a, 0x44, 0x9c, 0x3c, 0xd2, 0x57, 0xb0, 0x3b,
  0xa2, 0x5d, 0xe6, 0x3d, 0xf2, 0xc7, 0x23, 0x3d, 0xd3, 0x9f, 0xc5, 0x3c,
  0xf1, 0x55, 0x00, 0xbd, 0x7f, 0x20, 0xaa, 0xbd, 0x93, 0x77, 0x57, 0xbd,
  0x79, 0x37, 0x40, 0xbb, 0x65, 0x09, 0x00, 0xbd, 0x07, 0x66, 0x6f, 0xbc,
  0x62, 0x09, 0x68, 0xbc, 0xbb, 0xd7, 0xb3, 0x3c, 0x08, 0xfc, 0x95, 0x3d,
  0x42, 0x3c, 0x29, 0xbe, 0x81, 0x83, 0x4c, 0xbd, 0xf4, 0x86, 0xa4, 0xbd,
  0x14, 0x24, 0x9a, 0xbc, 0xdb, 0xd9, 0x3e, 0xbd, 0xd6, 0x79, 0xc5, 0xbd,
  0xfe, 0x6f, 0x69, 0xbd, 0x21, 0x19, 0x1e, 0x3d, 0x0f, 0x04, 0x8b, 0xbd,
  0x35, 0x2c, 0xbd, 0xbd, 0xf2, 0x58, 0x93, 0xbd, 0xc9, 0x10, 0x70, 0x3d,
  0xbe, 0x17, 0xa6, 0xbd, 0x9a, 0x7c, 0xb9, 0x3c, 0xaf, 0xaa, 0x3e, 0xbb,
  0x6f, 0xd9, 0x23, 0x3d, 0xdf, 0x0f, 0xb3, 0x3b, 0xa8, 0xc9, 0xaa, 0xbd,
  0x56, 0xa1, 0x42, 0xbd, 0x43, 0x2a, 0x9f, 0xbd, 0xed, 0xdc, 0x30, 0xbc,
  0xb1, 0xc2, 0xb5, 0xbd, 0x75, 0x38, 0xe8, 0xbd, 0x3e, 0x48, 0x87, 0x3b,
  0x6e, 0xaa, 0x10, 0xbd, 0x4b, 0xef, 0xff, 0xbd, 0xa1, 0xd6, 0x1f, 0xbd,
  0xd9, 0xd6, 0x74, 0x3c, 0x1e, 0x22, 0x45, 0x3c, 0x16, 0xa7, 0x26, 0x3e,
  0xe3, 0xb4, 0x90, 0xbd, 0xf1, 0xb2, 0x51, 0x3d, 0x1b, 0x3d, 0xf0, 0xbd,
  0x93, 0xfd, 0xba, 0xbc, 0xde, 0x82, 0xed, 0x3c, 0x2f, 0x5f, 0x79, 0x3d,
  0x39, 0x2a, 0xc4, 0xbd, 0xb1, 0x93, 0xe2, 0x3c, 0x8a, 0x33, 0x29, 0xbd,
  0xed, 0xa6, 0xc8, 0xbc, 0x39, 0x1e, 0x14, 0x3d, 0x10, 0xbf, 0xcb, 0xbc,
  0x59, 0xdc, 0x39, 0xbc, 0x02, 0xe1, 0x31, 0x3d, 0x7b, 0x3e, 0xb1, 0x3d,
  0xb7, 0xec, 0xd1, 0xbb, 0x2e, 0x5e, 0xe6, 0xbc, 0x4f, 0x94, 0x21, 0x3c,
  0x56, 0xb4, 0x55, 0xbc, 0x4d, 0x5a, 0x8a, 0x3d, 0xdb, 0xd7, 0x61, 0xbb,
  0x29, 0x6a, 0x3a, 0x3d, 0xf6, 0x01, 0x1f, 0x3c, 0x42, 0xed, 0x57, 0xbd,
  0xbe, 0x44, 0x8f, 0x3b, 0x92, 0x1e, 0x62, 0x3a, 0x74, 0xc5, 0x7b, 0xbd,
  0xc8, 0x01, 0xbb, 0xbd, 0xfe, 0x13, 0x5f, 0xbd, 0x93, 0x13, 0x1c, 0x3d,
  0xde, 0xde, 0x46, 0xbc, 0xd6, 0x48, 0x37, 0xbd, 0x12, 0x69, 0x73, 0xbd,
  0x1f, 0x6a, 0x8b, 0xbc, 0xe6, 0x9b, 0x2b, 0xbd, 0x2c, 0x8b, 0x37, 0xbd,
  0xb5, 0x8e, 0xef, 0x3c, 0x24, 0xc2, 0xd8, 0xbc, 0x3b, 0x84, 0x94, 0xbc,
  0x00, 0x8e, 0xe2, 0xbd, 0xd3, 0x6b, 0xdb, 0xbd, 0x8d, 0xc4, 0x8a, 0x3d,
  0x6a, 0xb2, 0x46, 0xbc, 0x7e, 0xf6, 0x14, 0xbc, 0x4c, 0x8c, 0xc7, 0x3c,
  0x19, 0xaf, 0xf4, 0xbc, 0x08, 0xec, 0x38, 0xbd, 0x1b, 0x50, 0x0e, 0xbd,
  0xff, 0x9d, 0xa8, 0xbc, 0xb7, 0x94, 0x47, 0xbb, 0x4e, 0xde, 0xcf, 0xbc,
  0xd0, 0xf1, 0xdd, 0x3c, 0x86, 0xfd, 0x75, 0xbb, 0x98, 0xd5, 0xa1, 0x3d,
  0xaf, 0xd7, 0x36, 0xbc, 0x15, 0x43, 0x10, 0x3d, 0xb1, 0x61, 0xb2, 0xbc,
  0xfc, 0x76, 0x5e, 0x3d, 0xbe, 0x0b, 0x29, 0x3d, 0x40, 0x27, 0xfe, 0x3c,
  0x24, 0xee, 0x27, 0xbd, 0xcd, 0xa7, 0x28, 0xbd, 0xfb, 0xd5, 0x34, 0x3c,
  0xcd, 0x07, 0x54, 0x3c, 0x1b, 0x42, 0x0f, 0x3d, 0xfe, 0xec, 0x33, 0xbc,
  0x7c, 0xb8, 0xcd, 0xbd, 0x4c, 0x33, 0x07, 0xbd, 0x7d, 0x10, 0xe2, 0xbc,
  0x85, 0x27, 0x04, 0xbd, 0x3b, 0x86, 0xc6, 0xbc, 0xd1, 0xf0, 0xa1, 0xbc,
  0xe8, 0x78, 0x7f, 0x3c, 0x3e, 0x1b, 0x75, 0x3d, 0x6d, 0xe9, 0x9e, 0xbc,
  0x84, 0x3e, 0x82, 0x3d, 0xe0, 0x37, 0x35, 0x3d, 0xdc, 0x44, 0xb9, 0x3d,
  0x04, 0x7d, 0xbc, 0x3c, 0x93, 0x84, 0xb8, 0x3d, 0xb4, 0x02, 0x07, 0xbd,
  0xd4, 0x61, 0xa8, 0x3d, 0x8f, 0x43, 0x3e, 0x3d, 0x9d, 0x50, 0xd9, 0xbd,
  0x88, 0x9e, 0xb6, 0xbc, 0x59, 0x48, 0x12, 0x3d, 0x7a, 0x7b, 0x32, 0xbd,
  0xe6, 0x7e, 0x03, 0x3d, 0xcf, 0x61, 0xcb, 0x3c, 0xd1, 0xee, 0x08, 0xbc,
  0xec, 0xcf, 0x08, 0x3c, 0x45, 0x08, 0x2f, 0xbd, 0xf3, 0x2a, 0x92, 0xbd,
  0xdd, 0x45, 0xb1, 0x3c, 0x68, 0x0c, 0x2e, 0x3d, 0xfa, 0x81, 0x8c, 0xbd,
  0x7d, 0xef, 0xd8, 0xbd, 0x21, 0x66, 0xb3, 0x3d, 0x55, 0xc2, 0x93, 0xbd,
  0x59, 0xd0, 0xb7, 0x3c, 0x43, 0x44, 0xde, 0xbc, 0x8a, 0x5f, 0x99, 0x39,
  0x2f, 0xaf, 0x28, 0xbd, 0x3c, 0x56, 0xbb, 0xbb, 0xa5, 0x44, 0x28, 0xbd,
  0xd0, 0x09, 0x82, 0xbd, 0x8c, 0x92, 0xfc, 0xbd, 0xb9, 0xa3, 0xd4, 0xbc,
  0x03, 0xd0, 0xa4, 0xbd, 0xf9, 0x71, 0xbf, 0xbb, 0xdb, 0x46, 0x5a, 0x3d,
  0x65, 0xb5, 0x02, 0xbd, 0xdf, 0xff, 0x1a, 0xbd, 0x3e, 0xf3, 0xcf, 0x3b,
  0xc6, 0xda, 0x72, 0x3d, 0xd1, 0x2d, 0x98, 0x3d, 0x67, 0x1a, 0x33, 0x3c,
  0xe4, 0x8a, 0x1f, 0x3d, 0xeb, 0xf0, 0xb1, 0x3c, 0xe4, 0xb1, 0x04, 0x3e,
  0xdf, 0x0a, 0x33, 0x3b, 0x75, 0xf8, 0x39, 0xbd, 0x39, 0xc5, 0xd2, 0xbb,
  0x5a, 0xdb, 0x18, 0xbd, 0x63, 0xc6, 0x4d, 0xbd, 0x5e, 0x53, 0x99, 0x3d,
  0x26, 0x25, 0xcd, 0xbd, 0x7b, 0x5e, 0x04, 0xbe, 0x22, 0x09, 0xd8, 0x3d,
  0x2e, 0x00, 0x06, 0x3c, 0x49, 0xc9, 0x54, 0xbd, 0x09, 0xa2, 0xa3, 0x3d,
  0x7a, 0xc7, 0x87, 0x3d, 0x57, 0x50, 0x74, 0x3c, 0x6c, 0xd1, 0x72, 0xbb,
  0xcd, 0xe0, 0x02, 0x3c, 0x33, 0x7d, 0xdf, 0xbb, 0xdb, 0x7c, 0xd9, 0x3b,
  0xe0, 0xc4, 0x48, 0x3c, 0x01, 0xd6, 0xe8, 0x3c, 0x18, 0x1e, 0xb2, 0xbc,
  0x4f, 0xcb, 0x2e, 0xbd, 0xec, 0x9d, 0xb0, 0xbd, 0x94, 0x3e, 0x88, 0xbd,
  0x9d, 0xc6, 0x7a, 0xbc, 0x23, 0xef, 0x8f, 0xbc, 0x72, 0x9e, 0x57, 0x3d,
  0x3c, 0x58, 0x65, 0xbd, 0x48, 0x75, 0x40, 0xbc, 0x21, 0x88, 0x9c, 0x3d,
  0x6f, 0x4c, 0x62, 0xbd, 0x73, 0x8f, 0x55, 0x3d, 0xa0, 0xfd, 0x12, 0x3c,
  0x69, 0xa0, 0x25, 0xbd, 0xaa, 0x29, 0x4a, 0x3c, 0x99, 0x1e, 0x4d, 0xbd,
  0xb6, 0x58, 0x5b, 0xbd, 0x38, 0x21, 0x7d, 0x3c, 0x1d, 0xb8, 0xb9, 0xbd,
  0x51, 0xf8, 0xfa, 0x3b, 0x6c, 0xf3, 0xc2, 0xbc, 0x07, 0x2a, 0x4a, 0xbc,
  0x60, 0x72, 0xcc, 0x3c, 0x57, 0xff, 0x45, 0xbd, 0x92, 0xa8, 0x8b, 0xbc,
  0xc6, 0xd2, 0x15, 0x3d, 0x9a, 0x37, 0x45, 0xbd, 0x5f, 0x9b, 0x84, 0xbd,
  0xc0, 0x69, 0x20, 0xbd, 0xc2, 0x54, 0xb0, 0x3c, 0x7a, 0x4b, 0xa2, 0x3c,
  0x2e, 0x45, 0x8b, 0x3d, 0xde, 0x46, 0xe5, 0xbc, 0xbd, 0xe8, 0x4a, 0xbd,
  0xeb, 0x3a, 0x02, 0x3e, 0x4b, 0x6b, 0x20, 0x3e, 0x9a, 0xba, 0x72, 0xbc,
  0x6a, 0xc7, 0xce, 0xbc, 0xb9, 0x01, 0xe6, 0xbb, 0xd1, 0x58, 0x9c, 0x3d,
  0xd8, 0x23, 0x0d, 0x3d, 0xbf, 0x13, 0xce, 0x3a, 0x4c, 0x8e, 0x51, 0xbd,
  0x7c, 0xd6, 0xf6, 0x3c, 0x49, 0x38, 0xa8, 0xbd, 0x68, 0x1b, 0x3b, 0xbc,
  0x55, 0xbc, 0xf3, 0xbd, 0x0f, 0x74, 0x01, 0xbd, 0xf6, 0x30, 0xe9, 0x3d,
  0x9b, 0x5e, 0xa8, 0xbc, 0xb1, 0xd6, 0x59, 0x3d, 0xb1, 0x03, 0xda, 0x3d,
  0x32, 0xf2, 0x64, 0xbc, 0x22, 0x02, 0xa7, 0x3d, 0xcd, 0x3b, 0x9d, 0xbc,
  0xca, 0x01, 0xaa, 0x3c, 0xf5, 0x48, 0xd4, 0x3a, 0x4e, 0x3d, 0xe6, 0xbc,
  0x6b, 0x68, 0x88, 0x3c, 0x70, 0x6f, 0xb3, 0x3c, 0x73, 0xfd, 0x82, 0xbd,
  0x85, 0x4d, 0xba, 0x3c, 0xfb, 0xca, 0x52, 0xbd, 0x97, 0x3b, 0x8b, 0xbd,
  0x8e, 0xf8, 0x14, 0xbd, 0xad, 0x8a, 0x9d, 0xbd, 0xdd, 0x84, 0x86, 0xbd,
  0xcd, 0xcd, 0x20, 0xbb, 0x2c, 0x40, 0xb3, 0x3c, 0x16, 0x30, 0xae, 0x3d,
  0xbc, 0x87, 0x06, 0xbc, 0x77, 0x35, 0x2d, 0x3d, 0x53, 0xa8, 0xbb, 0xbc,
  0x2a, 0x60, 0x09, 0x3d, 0x2f, 0xde, 0xa7, 0xbc, 0x9b, 0x7d, 0x20, 0xbd,
  0x2a, 0x95, 0xaa, 0xbd, 0xf0, 0x83, 0x89, 0xbd, 0x85, 0x64, 0x1e, 0x3d,
  0x03, 0x3f, 0xa1, 0xbb, 0xa0, 0x34, 0x27, 0xbd, 0xcd, 0x77, 0x07, 0xbd,
  0xf4, 0xb5, 0x91, 0x3c, 0xd3, 0x5a, 0x27, 0xbd, 0x3d, 0x29, 0x03, 0x3d,
  0xb4, 0x38, 0xff, 0xbc, 0x01, 0xd6, 0xb2, 0xbd, 0x28, 0x19, 0xa1, 0xbb,
  0x32, 0xad, 0x27, 0xbd, 0x88, 0xbd, 0xa9, 0x3d, 0x3a, 0x3a, 0x16, 0x3c,
  0xab, 0x8a, 0x19, 0xbd, 0xd9, 0x5a, 0x7d, 0x3c, 0xb7, 0x86, 0x5f, 0x3b,
  0xf0, 0xf2, 0x82, 0x3d, 0x10, 0x6d, 0x04, 0x3d, 0x28, 0x0b, 0x43, 0x3d,
  0x3b, 0x37, 0x38, 0x3d, 0x9a, 0x4a, 0x68, 0x3d, 0x2b, 0xde, 0xfa, 0x3d,
  0xe1, 0x2c, 0xb1, 0xbd, 0x18, 0x53, 0xb1, 0x3d, 0x5c, 0x7c, 0x68, 0xbb,
  0x34, 0x2a, 0xe2, 0xbc, 0x27, 0x14, 0x99, 0x3d, 0xf8, 0xc1, 0x41, 0x3c,
  0xbb, 0x0f, 0x84, 0x3c, 0x40, 0xfe, 0x2f, 0x3d, 0xc3, 0x42, 0xb9, 0x3d,
  0x32, 0x14, 0xb3, 0x3b, 0x33, 0x2e, 0xf4, 0xbb, 0x1c, 0x96, 0x0b, 0x3e,
  0x20, 0xec, 0x83, 0xbb, 0x6a, 0xb1, 0x16, 0xbd, 0xda, 0x91, 0x0b, 0xbd,
  0xae, 0xb8, 0x47, 0xbd, 0x7f, 0xce, 0xef, 0x3c, 0xa8, 0xba, 0x48, 0xbd,
  0xb1, 0xbf, 0x1e, 0x3d, 0xec, 0xcd, 0x01, 0x3c, 0xbe, 0x60, 0x00, 0xbd,
  0x78, 0xf5, 0x1e, 0x3c, 0x3c, 0x5b, 0xe0, 0xbd, 0x8b, 0xa1, 0xac, 0xbd,
  0xd7, 0x2a, 0x56, 0xbd, 0x5f, 0x50, 0x20, 0xbd, 0x35, 0x7f, 0xa8, 0x3c,
  0xa2, 0xd6, 0xf3, 0xbd, 0x15, 0xb4, 0x23, 0xbc, 0x7d, 0xa0, 0x86, 0xbc,
  0xb2, 0x15, 0xdb, 0xbd, 0x06, 0x5d, 0xd3, 0xbc, 0xb3, 0xec, 0x6d, 0x3d,
  0x96, 0x29, 0x7f, 0x3d, 0x64, 0xc9, 0x9f, 0xbc, 0x7b, 0xf7, 0x64, 0x3c,
  0xac, 0x8a, 0xa4, 0xbc, 0x82, 0x68, 0xc7, 0x3c, 0x32, 0x49, 0xc8, 0xbd,
  0x16, 0xf7, 0xd1, 0xbb, 0xa0, 0xcd, 0x3f, 0x3c, 0xf3, 0x18, 0xea, 0x3c,
  0xad, 0xbd, 0xbf, 0xbd, 0x53, 0x00, 0x9c, 0xbc, 0xdd, 0xf3, 0xbd, 0xbd,
  0x2b, 0x2f, 0xad, 0xbd, 0x72, 0xd9, 0xbf, 0x3b, 0x78, 0xec, 0x9a, 0xbd,
  0x83, 0xd7, 0xf6, 0x3c, 0x12, 0xbf, 0x85, 0x3d, 0x15, 0xd8, 0xc6, 0xbc,
  0xf2, 0x4c, 0x57, 0x3c, 0x2c, 0xdd, 0xa1, 0x3c, 0x0b, 0xca, 0xb1, 0x3d,
  0x14, 0x45, 0xbc, 0x3b, 0x13, 0x9b, 0x76, 0xbd, 0x1d, 0x16, 0x9e, 0xbd,
  0x03, 0x4b, 0xe5, 0x3c, 0x8e, 0xa3, 0x9d, 0x3d, 0x20, 0x8e, 0x1e, 0xbd,
  0xc4, 0x31, 0x3a, 0x3d, 0x48, 0x40, 0x8f, 0x3d, 0x91, 0xab, 0xf2, 0xbc,
  0xb7, 0x05, 0x8e, 0x3d, 0xd6, 0x38, 0x24, 0xbd, 0x6a, 0xad, 0x5c, 0x3c,
  0x87, 0x71, 0x23, 0xbc, 0x96, 0xe9, 0x4f, 0xbd, 0x1d, 0xae, 0xba, 0x3d,
  0xa5, 0x0a, 0xce, 0xbc, 0xc5, 0xa5, 0xb5, 0x3d, 0x6d, 0x7b, 0xe9, 0x3c,
  0x08, 0x59, 0x6d, 0xbc, 0xb1, 0x7c, 0x90, 0xbd, 0x7d, 0xd8, 0x0e, 0xbd,
  0x4e, 0xb8, 0x82, 0x3c, 0x7c, 0x04, 0x60, 0x3d, 0x21, 0x5a, 0x39, 0xbd,
  0x38, 0x38, 0xba, 0xbd, 0x63, 0x6a, 0x0d, 0x3d, 0xda, 0xa4, 0xa7, 0xbd,
  0x87, 0x72, 0x7f, 0xbd, 0x9d, 0x48, 0xa7, 0xbc, 0xd3, 0xa2, 0xe1, 0xbd,
  0x68, 0x4d, 0xa0, 0x3a, 0x6f, 0x7e, 0x04, 0x3d, 0xfc, 0x88, 0x99, 0xbc,
  0x88, 0x54, 0xce, 0xbd, 0xfc, 0xf2, 0xa2, 0xbc, 0x05, 0x7b, 0xa1, 0xbd,
  0xa4, 0x55, 0xab, 0xbd, 0x8f, 0xa1, 0xa6, 0xbd, 0xa5, 0xba, 0xe0, 0xbc,
  0x31, 0x2a, 0x7d, 0x3d, 0xa1, 0xa6, 0xd3, 0x3c, 0x30, 0xdf, 0xa7, 0xbc,
  0x54, 0x94, 0x55, 0xbd, 0xbc, 0xe4, 0x3b, 0xbd, 0xd2, 0x64, 0xd0, 0xbc,
  0x1b, 0x00, 0x1a, 0xbd, 0x70, 0xd5, 0x1a, 0x3d, 0x96, 0xc4, 0x85, 0x3d,
  0x31, 0xe8, 0x97, 0xbd, 0x3e, 0x4c, 0xb6, 0x3c, 0x33, 0xed, 0x06, 0xbd,
  0xf7, 0x20, 0x93, 0x3d, 0x42, 0xd2, 0x80, 0xbd, 0x7a, 0x26, 0xfd, 0x3b,
  0x54, 0x36, 0x81, 0x3d, 0x96, 0x05, 0xf4, 0xba, 0x82, 0x3b, 0x17, 0xbd,
  0xdd, 0x79, 0x05, 0xbd, 0x14, 0x6f, 0x5d, 0x3c, 0xec, 0x9d, 0x17, 0xbb,
  0x28, 0xd6, 0x70, 0x3d, 0xcb, 0xa7, 0x63, 0x3d, 0x30, 0x3c, 0x4d, 0xbd,
  0x92, 0xb0, 0xe2, 0xbc, 0x0d, 0x84, 0xa7, 0x3d, 0x7c, 0x3e, 0xd1, 0x3c,
  0x3d, 0x68, 0x0b, 0x3d, 0xcc, 0x31, 0x9e, 0xbc, 0x70, 0x48, 0x86, 0xbc,
  0x10, 0x08, 0xa4, 0x3c, 0x93, 0x3b, 0x2d, 0x3d, 0x42, 0x6d, 0xba, 0x3c,
  0xaa, 0x06, 0x6f, 0xbc, 0x60, 0x38, 0x38, 0x3d, 0x6a, 0xf8, 0xcf, 0x3d,
  0x75, 0x87, 0x6f, 0x3d, 0xc0, 0xb5, 0x6a, 0xbd, 0xf7, 0x90, 0xa4, 0x3c,
  0x17, 0x05, 0x97, 0xbd, 0x7a, 0xd0, 0x9e, 0x3d, 0x07, 0x69, 0x60, 0x3d,
  0x5c, 0xd5, 0x9f, 0xbd, 0x6c, 0x9f, 0xf3, 0x3c, 0xe7, 0xac, 0x9e, 0x3d,
  0xf3, 0x5e, 0x83, 0xbd, 0x7f, 0x93, 0x90, 0xbc, 0x64, 0xc6, 0x2c, 0xbd,
  0x7a, 0xa3, 0x32, 0xbd, 0x5c, 0xbc, 0xf8, 0x3c, 0x76, 0x0a, 0x13, 0x3d,
  0x92, 0xaf, 0x9e, 0xbd, 0x8c, 0x5c, 0x02, 0xbc, 0x02, 0x74, 0xef, 0xbd,
  0x25, 0xf7, 0xb1, 0xbd, 0x2e, 0xe5, 0xe6, 0xbc, 0x34, 0x45, 0x9f, 0xbc,
  0x68, 0xa9, 0x11, 0xbe, 0x8f, 0x36, 0x5b, 0xbc, 0x9c, 0xc5, 0x81, 0xbd,
  0x10, 0xb1, 0x0b, 0x3d, 0xcc, 0xde, 0xc4, 0xbd, 0x6a, 0xe1, 0xb2, 0xbc,
  0x40, 0x33, 0x0d, 0x3d, 0x3e, 0x92, 0x80, 0xbb, 0xde, 0xa5, 0x9f, 0x3c,
  0x89, 0xdf, 0xeb, 0xbb, 0xfd, 0x98, 0xe3, 0x3c, 0x92, 0x1c, 0xb8, 0x3d,
  0x29, 0x47, 0x3a, 0xbd, 0x53, 0x39, 0x9b, 0xbd, 0x28, 0xae, 0x22, 0xbd,
  0x4b, 0x76, 0x19, 0x3c, 0xf8, 0x48, 0x6e, 0x3d, 0x07, 0xb7, 0xa2, 0xbd,
  0x0c, 0x25, 0x76, 0xbc, 0xee, 0xf3, 0xba, 0xbc, 0x6d, 0x70, 0x8b, 0x3d,
  0x04, 0x45, 0xe2, 0xbc, 0x7f, 0x38, 0xc9, 0x3b, 0xf4, 0xc1, 0xa3, 0x3d,
  0x45, 0x49, 0xa7, 0x3d, 0xc5, 0x54, 0xdb, 0x3d, 0xb2, 0xf8, 0x4d, 0xbd,
  0x17, 0x36, 0x06, 0x3d, 0xdf, 0x8c, 0x74, 0x3c, 0x47, 0xf3, 0xb6, 0x3d,
  0xcf, 0x39, 0x46, 0xbd, 0xf8, 0x14, 0xfa, 0x3c, 0x2f, 0xa3, 0x98, 0xb9,
  0x30, 0xf4, 0xa1, 0x3d, 0x73, 0x2e, 0x7f, 0xbd, 0xd6, 0x19, 0x68, 0xbc,
  0x73, 0xbd, 0x09, 0xbe, 0x96, 0x94, 0x9c, 0xbd, 0x67, 0x1d, 0x78, 0x3d,
  0x7d, 0x2b, 0x9c, 0x3d, 0x3c, 0xdc, 0x4b, 0x3d, 0x32, 0xc4, 0x32, 0x3d,
  0x8b, 0x8d, 0xe2, 0xbd, 0x6c, 0x90, 0x6e, 0xbd, 0x99, 0xf9, 0xab, 0x3d,
  0x25, 0x6e, 0x34, 0xbd, 0x7c, 0x32, 0xbf, 0x3b, 0x12, 0x05, 0x82, 0x3d,
  0x1b, 0x57, 0x2d, 0x3c, 0xea, 0x52, 0xdd, 0xbd, 0x2d, 0x41, 0x85, 0x3d,
  0xce, 0x4e, 0x5a, 0xbd, 0xa1, 0x83, 0x99, 0x3b, 0x59, 0xfb, 0x32, 0x3d,
  0x4d, 0xb3, 0xa5, 0xbd, 0x5b, 0xb5, 0x36, 0xbd, 0x8a, 0xbe, 0x88, 0x3c,
  0x29, 0x33, 0xb2, 0xbd, 0x55, 0x91, 0x60, 0x3d, 0x8f, 0x1a, 0x4f, 0x3d,
  0x7b, 0xdc, 0x6f, 0xbd, 0x49, 0x63, 0x97, 0xbd, 0x60, 0xe8, 0xfe, 0x3c,
  0xee, 0xb0, 0xc7, 0x3c, 0x46, 0x4c, 0x1a, 0xbd, 0x54, 0xad, 0xd8, 0xbc,
  0x74, 0x39, 0x70, 0x3d, 0x3e, 0x40, 0x45, 0x3d, 0x83, 0x4d, 0x6a, 0x3d,
  0xb7, 0x44, 0xe6, 0xbc, 0x9f, 0x6e, 0x90, 0xbd, 0xb4, 0x4e, 0x8d, 0xbd,
  0x48, 0x3b, 0xd1, 0x3b, 0x88, 0x02, 0xaa, 0xbd, 0x84, 0xaa, 0x8d, 0xbd,
  0x99, 0x76, 0x15, 0xbd, 0x04, 0x97, 0x0f, 0xbd, 0x24, 0x1d, 0xb6, 0x3c,
  0x1e, 0x3d, 0x9f, 0xbd, 0xa1, 0x64, 0x60, 0x3d, 0x13, 0x0d, 0xc9, 0xbc,
  0x84, 0x8a, 0xf7, 0x3d, 0xac, 0x5e, 0xc1, 0x38, 0x95, 0x81, 0x5d, 0x3c,
  0xf7, 0xba, 0x1a, 0x3e, 0x7d, 0xb0, 0x28, 0x3e, 0x0e, 0x00, 0x4e, 0x3c,
  0x31, 0xf3, 0xe1, 0xbc, 0xc6, 0x21, 0x41, 0x3c, 0x7b, 0xae, 0x8c, 0x3d,
  0x70, 0xee, 0x61, 0x3b, 0x8c, 0x31, 0xbc, 0x3c, 0x8d, 0x04, 0xaf, 0xbc,
  0xa5, 0x54, 0x77, 0x3c, 0x02, 0x92, 0xdd, 0xbc, 0x1e, 0xe8, 0x1d, 0xbd,
  0x7a, 0x64, 0x9b, 0xbd, 0xd5, 0xc2, 0x9a, 0xbd, 0xbf, 0x74, 0xfd, 0x3c,
  0xcd, 0xa3, 0x99, 0xbc, 0xd3, 0x10, 0x6f, 0x3d, 0x9c, 0xfa, 0x91, 0x3d,
  0x49, 0x09, 0x26, 0xbb, 0x09, 0xc4, 0x82, 0xbd, 0x44, 0x9c, 0x7b, 0xbd,
  0x52, 0x75, 0xdc, 0xbc, 0x73, 0x55, 0xb3, 0x3b, 0x82, 0x97, 0x4a, 0xba,
  0x1a, 0xf5, 0xa3, 0xbd, 0xce, 0x97, 0xc7, 0x3c, 0xb6, 0x27, 0x5c, 0x3d,
  0x2b, 0xf7, 0x36, 0xbd, 0xc7, 0xf6, 0xe7, 0xbc, 0x87, 0xa1, 0x48, 0x3c,
  0x69, 0xed, 0xa0, 0xbd, 0x28, 0x3b, 0xb3, 0x3c, 0xf7, 0x4b, 0xc9, 0xbd,
  0xc2, 0x80, 0x0e, 0xbd, 0x19, 0x7d, 0x94, 0xbc, 0x2c, 0xcc, 0x28, 0xbd,
  0x69, 0xef, 0xc0, 0xbd, 0x37, 0xcb, 0xc9, 0xbd, 0xbf, 0xbd, 0xc7, 0xbb,
  0x72, 0x18, 0x91, 0xbd, 0x9f, 0x50, 0xf9, 0xbb, 0xda, 0x25, 0x55, 0x3c,
  0xf4, 0x63, 0x36, 0xbb, 0x03, 0x7e, 0x43, 0xbd, 0xc2, 0x34, 0x3a, 0x3d,
  0x30, 0x66, 0xe7, 0x3c, 0xf4, 0x55, 0x5b, 0x3d, 0xb6, 0x41, 0x81, 0x3d,
  0xcc, 0x1a, 0xcb, 0xbc, 0x15, 0x0a, 0x94, 0x3c, 0x93, 0xc3, 0x16, 0xbd,
  0x58, 0x1b, 0x8f, 0xbd, 0x65, 0x85, 0x94, 0x3d, 0xdd, 0x59, 0x34, 0x3c,
  0x21, 0x11, 0x24, 0xbc, 0x53, 0x45, 0xad, 0x3d, 0x17, 0xbf, 0x03, 0xbd,
  0xee, 0x55, 0x8d, 0x3d, 0x4a, 0x24, 0xda, 0x3b, 0xb7, 0x48, 0x5a, 0xbc,
  0x1d, 0x3e, 0xf6, 0x3d, 0x89, 0xb9, 0xfd, 0x3d, 0x97, 0x30, 0x1a, 0x3d,
  0x67, 0x25, 0x6c, 0xbd, 0x0c, 0xb1, 0x59, 0xbd, 0x5b, 0xcf, 0x52, 0x3d,
  0x58, 0x02, 0xe3, 0xbc, 0x30, 0x1a, 0x1f, 0xbd, 0x47, 0xf7, 0x71, 0x3c,
  0xb5, 0x88, 0xc5, 0x3d, 0x1d, 0x95, 0x70, 0x3c, 0x17, 0x84, 0x6d, 0x3d,
  0x1d, 0x57, 0x08, 0x3c, 0x6b, 0x25, 0x6f, 0xbd, 0xbd, 0x8c, 0x5c, 0x3d,
  0x17, 0xdb, 0x5d, 0x3d, 0x20, 0xbe, 0x20, 0x3d, 0x8b, 0x94, 0xc9, 0x3d,
  0x12, 0x31, 0xa1, 0xbd, 0x6c, 0x1d, 0xcc, 0xbc, 0xc2, 0xee, 0x6f, 0x3d,
  0x33, 0x0f, 0x53, 0xbd, 0x64, 0x66, 0xc2, 0xbd, 0x83, 0x90, 0x36, 0x3d,
  0x76, 0xea, 0x3d, 0x3d, 0xeb, 0x92, 0xbb, 0xbc, 0xd7, 0x8a, 0x78, 0xbd,
  0xfc, 0x99, 0x3b, 0x3d, 0x6e, 0x93, 0x13, 0xbc, 0x8d, 0xe7, 0xfd, 0xbd,
  0xbf, 0xb1, 0x9c, 0xbd, 0x27, 0xdf, 0x29, 0x3d, 0x51, 0x02, 0x67, 0xbd,
  0x86, 0x86, 0x97, 0xbd, 0x8c, 0x68, 0x55, 0x3d, 0x67, 0x2f, 0x3c, 0x3d,
  0xd3, 0xbe, 0x44, 0x3d, 0x25, 0xbf, 0x9b, 0xbd, 0xbd, 0xb5, 0x7b, 0x3d,
  0x13, 0xb7, 0x43, 0x3d, 0x18, 0x04, 0x45, 0xbc, 0xad, 0x1b, 0x11, 0x3d,
  0x0b, 0x35, 0x63, 0x3d, 0x0f, 0x8d, 0x8c, 0xbd, 0x20, 0xc5, 0x36, 0x3c,
  0x91, 0x93, 0xbd, 0x3c, 0xfa, 0x63, 0x9a, 0xbc, 0xbb, 0x9c, 0x1b, 0xbd,
  0xb4, 0x81, 0xb7, 0xbc, 0x2d, 0x66, 0x82, 0x3d, 0x88, 0xfa, 0x0f, 0x3d,
  0x76, 0x76, 0x7c, 0x3d, 0x5e, 0x74, 0x1e, 0xbc, 0x8a, 0x0c, 0xcb, 0xbd,
  0xfa, 0x53, 0x63, 0xbd, 0xd7, 0xa5, 0x1d, 0xbd, 0x05, 0xbb, 0xb4, 0x3c,
  0xfa, 0x38, 0x28, 0x3d, 0xfa, 0xb1, 0xbb, 0xbd, 0x62, 0x86, 0x8b, 0x3d,
  0x45, 0xb4, 0x8f, 0x3d, 0x98, 0xef, 0x2d, 0x3d, 0xe6, 0x3b, 0xb1, 0x3d,
  0xfa, 0x44, 0xa5, 0x3d, 0x51, 0x9e, 0x95, 0xbc, 0x51, 0xb7, 0xd2, 0x3d,
  0x50, 0xab, 0x86, 0x3d, 0xa5, 0x98, 0x08, 0x3e, 0xda, 0xee, 0x1f, 0x3c,
  0x24, 0x4f, 0xad, 0x3c, 0x27, 0x01, 0x43, 0x3d, 0x1d, 0xfd, 0x0b, 0x3e,
  0x9a, 0xd1, 0xcf, 0x3d, 0xb1, 0xd4, 0xe4, 0x3c, 0x35, 0x3b, 0x9c, 0x3d,
  0x17, 0xe1, 0x47, 0x3d, 0x88, 0x2d, 0x65, 0x3d, 0xf0, 0x21, 0x02, 0x3d,
  0x8f, 0x03, 0x2a, 0x3d, 0x88, 0xdb, 0x84, 0x3d, 0x9f, 0x19, 0xa2, 0x3a,
  0x49, 0xe4, 0x3f, 0xbd, 0xe7, 0x4a, 0x4a, 0x3d, 0x01, 0x62, 0x9e, 0x3c,
  0xf7, 0x02, 0xf4, 0x3c, 0x16, 0x4e, 0xb2, 0xbd, 0xf6, 0x5e, 0x7b, 0x3c,
  0x85, 0x1f, 0x1a, 0x3e, 0x6d, 0xfa, 0xbb, 0x3c, 0xb6, 0xcf, 0x85, 0xba,
  0x48, 0x28, 0xa3, 0xbd, 0x1f, 0x99, 0xd2, 0x3d, 0xc9, 0x83, 0x72, 0xbd,
  0xad, 0x14, 0xc6, 0x3c, 0x11, 0x44, 0x92, 0xbd, 0xf0, 0x50, 0x8f, 0x3d,
  0xa4, 0xc6, 0xb8, 0x3c, 0xf1, 0x10, 0x40, 0x3b, 0x7e, 0xed, 0xe6, 0x3c,
  0xc4, 0x7b, 0x83, 0x3c, 0x27, 0x6a, 0x20, 0x3c, 0x23, 0x66, 0xf5, 0x3b,
  0xe4, 0x02, 0x94, 0xbd, 0x4f, 0x70, 0x36, 0x3e, 0xfd, 0xa8, 0x92, 0x3d,
  0xc9, 0x62, 0x88, 0xbd, 0x80, 0x75, 0x4f, 0x3d, 0xe1, 0x84, 0x23, 0x3e,
  0x2f, 0x97, 0x94, 0x3d, 0xcb, 0x0c, 0x85, 0x3d, 0x79, 0x9a, 0x81, 0xbd,
  0x2b, 0x79, 0x0d, 0x3e, 0xb8, 0x5c, 0x9b, 0x3d, 0x98, 0x60, 0x2d, 0x3c,
  0x58, 0xb6, 0x7a, 0xbd, 0xee, 0xa3, 0xc8, 0x3d, 0x5a, 0xb5, 0xd3, 0x3c,
  0x0f, 0xb1, 0x94, 0xbd, 0xa4, 0x35, 0x55, 0xbd, 0x9a, 0xe9, 0xb3, 0x3d,
  0x7a, 0x55, 0x60, 0x3d, 0xab, 0xda, 0x27, 0xbd, 0xbd, 0x3a, 0x05, 0xbd,
  0xf5, 0x56, 0xf8, 0xbc, 0x8b, 0x99, 0x96, 0x3c, 0xda, 0x46, 0xcf, 0x3d,
  0x0d, 0xa3, 0xc0, 0x3d, 0x58, 0xde, 0xbd, 0x3d, 0x71, 0x26, 0x43, 0xbd,
  0xf2, 0x9a, 0x03, 0x3d, 0xdf, 0x1d, 0x52, 0xbb, 0xa2, 0x93, 0x9b, 0xbc,
  0x8a, 0x9d, 0x81, 0xbb, 0xbe, 0xe8, 0xf2, 0xbc, 0x42, 0x46, 0x35, 0x3d,
  0xa3, 0xbe, 0xbc, 0xbb, 0x54, 0x57, 0x1e, 0xbd, 0xdf, 0x81, 0x16, 0x3d,
  0xa5, 0x7d, 0x5a, 0xbd, 0xd6, 0xd5, 0x79, 0x3d, 0x63, 0xa9, 0x91, 0x3b,
  0x43, 0x6c, 0x6e, 0xbc, 0x3f, 0xfe, 0x8f, 0x3d, 0x45, 0x2a, 0xb2, 0x3d,
  0xdd, 0x4f, 0x97, 0x3d, 0xe5, 0x00, 0x88, 0xbd, 0x7e, 0xd5, 0x83, 0x3b,
  0x94, 0xc3, 0x14, 0x3e, 0x6a, 0x05, 0x01, 0x3d, 0xec, 0x12, 0x63, 0xbb,
  0x1e, 0x46, 0x48, 0xbd, 0xa2, 0xfe, 0xbc, 0x3d, 0x97, 0xc2, 0x93, 0xbd,
  0x14, 0x3c, 0xbd, 0xbd, 0x43, 0x0a, 0x92, 0x3c, 0xb9, 0x5c, 0x7c, 0x3d,
  0xe7, 0x7f, 0xa6, 0xbc, 0x9d, 0x4b, 0x1f, 0xbc, 0x7f, 0x46, 0x2c, 0x3d,
  0x8d, 0x18, 0xcc, 0x3d, 0xa8, 0xcc, 0x12, 0x3d, 0x2b, 0x1e, 0x7f, 0x3c,
  0x87, 0x3d, 0xfb, 0xbc, 0x80, 0x29, 0xad, 0x3d, 0xa1, 0x0f, 0x4b, 0xbd,
  0x09, 0xf7, 0x4d, 0x3d, 0x46, 0xa6, 0xa2, 0xbd, 0xb1, 0x5b, 0x09, 0x3e,
  0xfb, 0x7c, 0x4e, 0xbc, 0x42, 0x21, 0x8c, 0xbd, 0x69, 0x28, 0x66, 0x3c,
  0x6b, 0x97, 0xaf, 0x3d, 0x67, 0x87, 0x07, 0x3d, 0x9a, 0xfb, 0xcc, 0x3b,
  0x4f, 0x77, 0x57, 0xbd, 0xd4, 0x7d, 0x11, 0x3e, 0x3f, 0x42, 0x36, 0x3d,
  0x2e, 0x53, 0x7a, 0x3d, 0x6c, 0x74, 0xba, 0xbd, 0xbf, 0x77, 0x19, 0x3e,
  0xfa, 0x54, 0x39, 0xbd, 0x56, 0xba, 0x85, 0xbd, 0x96, 0xc0, 0xa3, 0x3d,
  0x25, 0x72, 0x68, 0x3d, 0xd5, 0xa4, 0xe9, 0x3b, 0xf5, 0x65, 0xa3, 0x3d,
  0x98, 0xc2, 0xc4, 0x3d, 0x7b, 0xa8, 0xa5, 0x3d, 0x51, 0xf7, 0xb5, 0xbc,
  0xbe, 0x28, 0xb5, 0x3a, 0x40, 0xdc, 0x28, 0xbd, 0xb8, 0x9f, 0x9c, 0xbc,
  0x2c, 0x52, 0x01, 0x3d, 0xfc, 0xdf, 0x86, 0x3d, 0xbc, 0x8a, 0xe5, 0xbc,
  0xf4, 0x50, 0xac, 0xbc, 0x13, 0xa4, 0x0f, 0x3d, 0xcc, 0x19, 0x1a, 0x3d,
  0xe6, 0x1a, 0x55, 0x3d, 0x31, 0xe9, 0xec, 0x3d, 0x42, 0xb9, 0x66, 0x3d,
  0x6a, 0x61, 0x5f, 0x3d, 0x79, 0x30, 0x19, 0xbd, 0x37, 0x86, 0xff, 0x3d,
  0xb3, 0x08, 0xd9, 0x3c, 0xaf, 0xe3, 0x8e, 0xbc, 0x3f, 0x75, 0x2e, 0xbc,
  0x9b, 0xbe, 0xd7, 0x3d, 0xd4, 0x42, 0x44, 0xbb, 0x54, 0x30, 0x27, 0x3d,
  0x3a, 0xfa, 0x08, 0xbd, 0xd7, 0x3f, 0x1b, 0x3e, 0xcb, 0x9e, 0x24, 0x3d,
  0xfb, 0x95, 0x67, 0xbd, 0x9d, 0x67, 0x85, 0x3d, 0xed, 0x9f, 0x22, 0x3e,
  0xe6, 0x5f, 0x53, 0xbd, 0x32, 0x9e, 0x5d, 0xbd, 0x9f, 0x7a, 0x0e, 0xbd,
  0x3a, 0xd1, 0xd4, 0x3d, 0xfb, 0xf3, 0xcb, 0xbc, 0x5a, 0xd3, 0xa2, 0xbd,
  0x83, 0xcc, 0x11, 0xbd, 0xb5, 0x91, 0x6b, 0x3d, 0xd7, 0x0d, 0x28, 0x3d,
  0xe1, 0x91, 0x1d, 0x3d, 0xd1, 0x37, 0x3a, 0xbd, 0xe1, 0xe8, 0x9c, 0x3b,
  0xf1, 0x99, 0xe7, 0xbc, 0x30, 0xfe, 0x48, 0x3d, 0x53, 0xe2, 0x8d, 0x3d,
  0x76, 0xc3, 0x03, 0x3e, 0x9f, 0x43, 0x5e, 0xbd, 0x0e, 0x8a, 0x99, 0xbd,
  0x9c, 0x43, 0x64, 0x3c, 0x6b, 0xb6, 0x06, 0x3d, 0x6d, 0xe6, 0x7f, 0xbd,
  0x49, 0x0e, 0xb5, 0xbd, 0x4c, 0xec, 0x3c, 0x3b, 0x89, 0x0a, 0xc5, 0x3d,
  0x51, 0xe8, 0x9b, 0xbd, 0x74, 0xd8, 0xd2, 0x3c, 0xda, 0x7f, 0xc6, 0x3d,
  0x11, 0x61, 0xa1, 0x3b, 0x47, 0x64, 0x48, 0xbb, 0x00, 0x17, 0x13, 0x3d,
  0x99, 0x12, 0x3a, 0x3d, 0xc3, 0x55, 0x15, 0x3d, 0xa3, 0x52, 0xb7, 0x3d,
  0x8d, 0xef, 0xaa, 0xbc, 0x15, 0xfd, 0xbe, 0x3d, 0x66, 0x0b, 0x9e, 0xbb,
  0x4a, 0x74, 0x2f, 0x3b, 0x97, 0x19, 0xee, 0xbc, 0xd2, 0x61, 0x43, 0xbc,
  0x53, 0x68, 0xe7, 0x3d, 0x64, 0xa7, 0x56, 0x3d, 0x40, 0x5a, 0x95, 0x3d,
  0x00, 0xcd, 0xd8, 0xbc, 0xfb, 0xb3, 0xe8, 0x3d, 0xe0, 0xc3, 0xe1, 0x3d,
  0x01, 0x47, 0x71, 0xbc, 0x2a, 0x3f, 0x35, 0x3d, 0x30, 0xde, 0x44, 0x3c,
  0xcf, 0x7d, 0x28, 0xbd, 0xff, 0xab, 0x97, 0xbc, 0x7d, 0x2a, 0x87, 0x3d,
  0x59, 0x79, 0xff, 0x3d, 0xaf, 0x06, 0x21, 0x3d, 0xc7, 0x8c, 0x8a, 0x3d,
  0xfa, 0x33, 0xaa, 0xbc, 0xb8, 0x3b, 0x5a, 0x3d, 0x07, 0x19, 0x0c, 0xbc,
  0x4e, 0x26, 0x63, 0x3c, 0xc5, 0x10, 0xf4, 0xbc, 0xd0, 0xc0, 0xd5, 0x3d,
  0xdf, 0xa1, 0x4b, 0x3c, 0x55, 0xa4, 0xb3, 0x3b, 0x95, 0x33, 0x3e, 0xbd,
  0xc5, 0xf5, 0x06, 0x3e, 0x1f, 0x92, 0x43, 0x3d, 0x2c, 0x06, 0x3d, 0x3b,
  0x78, 0x87, 0x1e, 0xbd, 0x39, 0xa8, 0x40, 0x3d, 0xc6, 0xbe, 0x0b, 0xbd,
  0xef, 0x87, 0x99, 0xbd, 0x17, 0x43, 0x9f, 0xbd, 0xa2, 0xd7, 0xa2, 0x3d,
  0x5f, 0xc3, 0x9e, 0x3d, 0x7b, 0x40, 0x90, 0x3d, 0x99, 0x1c, 0x97, 0xbd,
  0xcb, 0x52, 0x96, 0x3d, 0xda, 0x0e, 0x53, 0xbd, 0x1c, 0x0f, 0xb6, 0xbc,
  0xb5, 0x00, 0x34, 0xbc, 0xf0, 0xa1, 0x66, 0x3d, 0x4e, 0x2c, 0xcc, 0xbc,
  0x04, 0x1f, 0xb3, 0xbc, 0x9a, 0x41, 0x03, 0xbb, 0x20, 0x10, 0xa4, 0x3d,
  0xd4, 0x25, 0x83, 0xbd, 0xaa, 0x02, 0xa8, 0xbc, 0xfe, 0xcd, 0x52, 0x3d,
  0x6d, 0xff, 0x7a, 0x3d, 0x6e, 0x0f, 0x9e, 0x3c, 0x95, 0x10, 0x4e, 0x3c,
  0xf7, 0xbd, 0x1d, 0xbd, 0x02, 0xb9, 0x7b, 0xba, 0xaa, 0x6d, 0x3d, 0xbc,
  0x86, 0x1e, 0x68, 0xbc, 0x56, 0x5b, 0x41, 0x3d, 0xfb, 0x64, 0xd2, 0x3d,
  0x7d, 0xa0, 0x80, 0x3a, 0x6a, 0x81, 0xd3, 0xbc, 0x8e, 0x71, 0x7b, 0x3d,
  0xfd, 0x56, 0x5f, 0xbc, 0xa9, 0xff, 0x23, 0x3d, 0x23, 0xab, 0x85, 0x3d,
  0x36, 0xc5, 0x5f, 0x3c, 0x08, 0x47, 0xc9, 0x3c, 0x08, 0x50, 0x87, 0x3d,
  0x92, 0x4c, 0x11, 0xbd, 0x79, 0x73, 0x15, 0x3c, 0xad, 0x5d, 0xa9, 0x3a,
  0xed, 0xe3, 0x33, 0xbd, 0x2b, 0x3c, 0x72, 0x3d, 0x55, 0x68, 0x61, 0x3d,
  0x9c, 0x00, 0xb7, 0x3a, 0x54, 0x28, 0x5f, 0xbd, 0x99, 0x2a, 0x9e, 0xbd,
  0x85, 0x68, 0xb3, 0xbc, 0xb2, 0x24, 0x0c, 0x3d, 0xd2, 0xfc, 0x80, 0xbd,
  0x2b, 0x29, 0x45, 0xbc, 0x7e, 0x37, 0x2b, 0xbd, 0x75, 0xc5, 0x82, 0x3b,
  0x28, 0x0f, 0x87, 0xbd, 0x91, 0x36, 0x8e, 0xbd, 0x11, 0x03, 0x43, 0xbd,
  0xaf, 0xe9, 0xdc, 0xbb, 0xc2, 0x7c, 0x1c, 0xbd, 0xa7, 0x1a, 0x31, 0x3c,
  0x91, 0xac, 0x22, 0xbd, 0xca, 0xcf, 0x07, 0x3e, 0x71, 0xe4, 0xbb, 0x3c,
  0xf3, 0x2d, 0x6d, 0x3a, 0x87, 0xca, 0x04, 0xbd, 0xea, 0x96, 0x14, 0x3e,
  0xb6, 0x4c, 0x2a, 0xbd, 0xaa, 0x6d, 0x6d, 0x3c, 0x6f, 0x24, 0x4b, 0x3d,
  0xfc, 0x2a, 0x40, 0x3e, 0xb3, 0xc9, 0xb2, 0xbc, 0x3d, 0xdd, 0x0a, 0xbc,
  0xcb, 0xf3, 0x21, 0x3c, 0x51, 0x49, 0x44, 0x3e, 0xff, 0xe3, 0xb1, 0xbd,
  0xa7, 0xfa, 0x7a, 0xbd, 0x73, 0x42, 0x1c, 0x3d, 0xa8, 0xda, 0x41, 0x3d,
  0x0f, 0xda, 0x1f, 0x3b, 0x8a, 0x8c, 0xd7, 0xbc, 0x40, 0x56, 0xc7, 0x3c,
  0xa8, 0x97, 0x30, 0xbd, 0x3b, 0xc8, 0xc5, 0x3d, 0x35, 0x23, 0x5e, 0x3d,
  0x58, 0x7f, 0x39, 0x3d, 0x6d, 0x56, 0xc4, 0x3d, 0xa8, 0x04, 0x99, 0x3d,
  0xde, 0xcd, 0xab, 0x3c, 0x1c, 0x41, 0xb6, 0x3d, 0xa8, 0xc0, 0x4d, 0x3d,
  0x82, 0xac, 0x1d, 0x3d, 0x7b, 0xaf, 0xdc, 0x3d, 0xf7, 0xef, 0xc8, 0xbb,
  0x71, 0x75, 0x9c, 0x3d, 0xb3, 0x58, 0xde, 0x3b, 0x76, 0x6e, 0x89, 0x3d,
  0x55, 0x2f, 0x88, 0x3d, 0xb0, 0xcb, 0x04, 0x3e, 0x74, 0x9a, 0x99, 0x3d,
  0x4b, 0x56, 0xa4, 0x3c, 0x6d, 0x13, 0x92, 0xbd, 0x61, 0x1f, 0x54, 0x3b,
  0xb5, 0x58, 0x84, 0x3d, 0x16, 0x11, 0xbc, 0x3d, 0x94, 0xf6, 0xa4, 0xbd,
  0x70, 0xf4, 0xd4, 0x3d, 0x07, 0x04, 0x81, 0xbd, 0x44, 0xc6, 0x93, 0xbd,
  0x27, 0x6b, 0xa6, 0xbd, 0x95, 0x93, 0xbd, 0x3d, 0x2c, 0xee, 0x53, 0x3d,
  0xf1, 0x11, 0xa8, 0xbd, 0xc8, 0x4c, 0xa7, 0xbd, 0x13, 0xbd, 0x0f, 0x3e,
  0x53, 0x48, 0x53, 0xbd, 0x80, 0x82, 0x6c, 0xbd, 0xeb, 0x12, 0xcc, 0x39,
  0x40, 0x58, 0x01, 0xbc, 0xb0, 0x59, 0x6d, 0x3d, 0x08, 0x32, 0xbb, 0x3b,
  0x1e, 0xd5, 0x24, 0x3d, 0x27, 0x96, 0x2a, 0x3e, 0x88, 0x70, 0x9b, 0xbd,
  0xdf, 0x80, 0x7b, 0x3d, 0x38, 0xd2, 0x04, 0x3d, 0x06, 0x88, 0x2d, 0x3d,
  0x08, 0x1d, 0x39, 0xbd, 0xad, 0x19, 0x4d, 0xbd, 0x42, 0xbb, 0x2d, 0x3d,
  0x4c, 0x78, 0xa7, 0x3a, 0x94, 0xc6, 0xb2, 0xbc, 0xce, 0x04, 0x2e, 0x3d,
  0x36, 0x14, 0x43, 0xbd, 0xa3, 0x4f, 0xf0, 0x3d, 0x88, 0x70, 0x4f, 0xbd,
  0x89, 0x73, 0x31, 0x3d, 0x16, 0x0c, 0xbb, 0xbd, 0x58, 0xbf, 0x00, 0x3e,
  0x5b, 0x9c, 0x76, 0xbd, 0x88, 0xa4, 0xe6, 0xbd, 0x47, 0x33, 0x3d, 0x3d,
  0x79, 0x30, 0x23, 0x3d, 0x02, 0xa2, 0xb0, 0xba, 0xa2, 0x8d, 0x9e, 0x3d,
  0x71, 0x3c, 0x01, 0x3d, 0xfb, 0x04, 0xfa, 0xbb, 0xea, 0x02, 0xa5, 0x3d,
  0xd8, 0x6f, 0x99, 0x3c, 0x1b, 0x50, 0x8a, 0x3d, 0xf0, 0x0f, 0x43, 0x3c,
  0x06, 0x08, 0x0f, 0xbc, 0x8b, 0xb7, 0x3b, 0x3d, 0xee, 0xc1, 0x1f, 0xbd,
  0x4c, 0x2e, 0xb7, 0x3d, 0xcf, 0xa2, 0x0e, 0x3d, 0x24, 0x63, 0xb9, 0xbc,
  0xfa, 0xa2, 0xb3, 0x3d, 0x20, 0x05, 0xca, 0xbc, 0x1b, 0xa7, 0xc0, 0x3d,
  0x05, 0xfb, 0xc8, 0xba, 0xb8, 0xea, 0x8d, 0x3d, 0x16, 0x3d, 0xa6, 0x3d,
  0x27, 0xc1, 0x24, 0x3d, 0x05, 0xcf, 0x62, 0xbd, 0x68, 0x97, 0xb8, 0xbd,
  0xaf, 0x41, 0xf0, 0x3c, 0xf7, 0x47, 0x85, 0xbc, 0x0d, 0x37, 0x46, 0xbc,
  0x68, 0xac, 0x54, 0xbd, 0x38, 0xbe, 0xd4, 0x3c, 0xd2, 0xcd, 0x2f, 0x3c,
  0xa4, 0x86, 0xb4, 0x3c, 0xfe, 0x96, 0xde, 0x3c, 0x95, 0xaf, 0x93, 0x3c,
  0xe0, 0x5a, 0x42, 0x3c, 0xba, 0xce, 0xe2, 0xbc, 0x3f, 0x5d, 0x85, 0xbd,
  0xd7, 0x1e, 0xb8, 0x3d, 0x2d, 0x49, 0x8b, 0xbd, 0xd8, 0x11, 0x72, 0x3c,
  0xdf, 0xfb, 0x37, 0x3b, 0x67, 0x73, 0x4e, 0x3c, 0x4b, 0xcb, 0x24, 0xbc,
  0xab, 0x5c, 0xb1, 0xbd, 0xab, 0x1f, 0x16, 0x3d, 0xc8, 0x67, 0xe8, 0x3d,
  0xdc, 0x3f, 0x39, 0xbd, 0x17, 0xa6, 0x25, 0x3d, 0x86, 0x58, 0x4e, 0xbc,
  0xf9, 0x80, 0x1b, 0x3e, 0x15, 0x90, 0x8a, 0x3d, 0x7a, 0x47, 0x64, 0x3d,
  0x77, 0xf8, 0xe2, 0x3c, 0x06, 0x35, 0x5b, 0x3d, 0x97, 0x7c, 0x9b, 0x3d,
  0x40, 0xef, 0xab, 0x3c, 0x3a, 0x9d, 0x9c, 0xbd, 0xcc, 0x1d, 0x13, 0x3e,
  0xa6, 0x71, 0x4f, 0x3d, 0x51, 0x33, 0x9f, 0x3c, 0xce, 0x41, 0x7a, 0x3c,
  0x99, 0x46, 0xbb, 0x3d, 0x59, 0x31, 0xcf, 0x3d, 0x2a, 0x3b, 0x9a, 0x3d,
  0x6f, 0x75, 0x35, 0x3d, 0xa4, 0x19, 0xfd, 0x3c, 0x52, 0x4b, 0x31, 0x3d,
  0xd5, 0x24, 0x3f, 0x3d, 0x00, 0x5a, 0x49, 0x3c, 0x08, 0x38, 0xaf, 0x3d,
  0xff, 0xe6, 0xd1, 0x3d, 0x1e, 0x36, 0x45, 0xbd, 0x28, 0x01, 0xbe, 0x3c,
  0xea, 0xe5, 0x8b, 0xbb, 0x41, 0x2a, 0x2d, 0xbd, 0x6b, 0xc9, 0x4f, 0xbc,
  0xd3, 0xa7, 0x7e, 0x3d, 0x2f, 0x0a, 0x83, 0x3d, 0x18, 0xbe, 0x2b, 0x3d,
  0xd8, 0xd1, 0xb1, 0x3d, 0xce, 0x0b, 0x59, 0xbd, 0xe0, 0x4c, 0xfc, 0x3d,
  0x8d, 0x46, 0xfc, 0x3c, 0xc8, 0x7c, 0x7c, 0xbd, 0x4e, 0x72, 0x0c, 0x3d,
  0x00, 0xda, 0xdb, 0x3c, 0x0e, 0xc2, 0x84, 0xbd, 0xa2, 0x27, 0x92, 0x3c,
  0xdc, 0x23, 0x99, 0xbd, 0x69, 0xe1, 0x94, 0x3d, 0xf6, 0x0c, 0x1c, 0xbd,
  0x1c, 0xe3, 0x2a, 0xbd, 0x70, 0x06, 0x00, 0x3c, 0x06, 0x9a, 0xe8, 0x3d,
  0x61, 0x85, 0x1e, 0xbd, 0x1c, 0xff, 0x59, 0xbc, 0x1b, 0x93, 0x9c, 0xbd,
  0xae, 0x42, 0x5c, 0x3d, 0xd9, 0xc0, 0x87, 0xbd, 0x30, 0xa1, 0x7f, 0x3d,
  0x28, 0x49, 0x3e, 0xbd, 0x89, 0xbc, 0xb0, 0x3c, 0x72, 0xc1, 0x32, 0xbd,
  0xc3, 0xdd, 0xa0, 0xbd, 0x14, 0x5a, 0xb2, 0xbd, 0xa2, 0xcb, 0xee, 0x3d,
  0xd2, 0x79, 0x10, 0x3d, 0xe0, 0x8c, 0x7b, 0xbd, 0x02, 0xaf, 0x4d, 0xbd,
  0xf8, 0x7d, 0xd8, 0x3c, 0x45, 0x49, 0xbd, 0x3b, 0xb3, 0xeb, 0x7c, 0x3d,
  0xfd, 0xc4, 0xbd, 0xbd, 0xee, 0x5d, 0x01, 0x3d, 0xb2, 0x7e, 0xa1, 0xbd,
  0x8a, 0xb8, 0xec, 0xba, 0x8e, 0xfe, 0x80, 0xbc, 0x13, 0x17, 0xaf, 0x3d,
  0x28, 0x35, 0x31, 0xbd, 0x35, 0x72, 0x82, 0xbd, 0xd0, 0xc4, 0x66, 0xbc,
  0xaf, 0x95, 0x6c, 0xbc, 0x3a, 0xcc, 0x8e, 0xba, 0x25, 0x74, 0xaa, 0x3d,
  0xf3, 0xed, 0xce, 0x3c, 0x61, 0xa2, 0xd9, 0x3c, 0xe6, 0x5a, 0xc5, 0x3d,
  0x73, 0xcb, 0x8e, 0x3d, 0x9a, 0x8c, 0xbd, 0x3d, 0xff, 0xda, 0x93, 0x3d,
  0x34, 0xac, 0xdb, 0x3d, 0x30, 0x4f, 0xf3, 0xbc, 0x9c, 0x07, 0xb9, 0x3d,
  0xf1, 0x8a, 0xe1, 0x3d, 0x38, 0xd2, 0x8d, 0x3d, 0x1c, 0x21, 0x13, 0xbd,
  0x2d, 0x2c, 0xeb, 0xbc, 0xae, 0x85, 0x3d, 0xb9, 0x9e, 0x85, 0x89, 0x3d,
  0x09, 0xa2, 0x00, 0xbd, 0x1a, 0x28, 0x2e, 0xbd, 0xb4, 0xa4, 0x0b, 0x3e,
  0x26, 0xbf, 0xb1, 0x3d, 0x49, 0xd6, 0x76, 0xbd, 0x3a, 0xca, 0x79, 0xbc,
  0xa5, 0xa8, 0x05, 0x3e, 0x64, 0xb7, 0x93, 0xbd, 0x2c, 0xb5, 0xb9, 0xbc,
  0xad, 0x15, 0x3a, 0x3d, 0x58, 0xf2, 0x10, 0x3e, 0x22, 0x27, 0x71, 0x3d,
  0x95, 0x1d, 0x61, 0x3d, 0x3c, 0x97, 0xc6, 0xbc, 0x03, 0xcf, 0x0d, 0x3e,
  0x99, 0x79, 0x1d, 0xbd, 0x85, 0xc2, 0x70, 0x3d, 0xaf, 0x99, 0x2d, 0xbc,
  0x5a, 0xf3, 0x27, 0x3e, 0xf4, 0x7a, 0xe2, 0x3c, 0x4e, 0x26, 0x96, 0xbd,
  0x62, 0x94, 0x6b, 0x3d, 0xc1, 0xcc, 0x06, 0x3e, 0xf9, 0x87, 0xf2, 0x3c,
  0xc6, 0x33, 0xa8, 0xbb, 0xb9, 0xc7, 0x9e, 0xbd, 0x8b, 0xd8, 0x21, 0x3e,
  0x2e, 0x44, 0x6e, 0x3d, 0x19, 0xf5, 0x64, 0x3d, 0xed, 0x73, 0xcc, 0xbc,
  0x17, 0xba, 0x68, 0x3d, 0x19, 0xf6, 0x8d, 0xbd, 0x3e, 0x92, 0x14, 0xbd,
  0x86, 0xaf, 0xd6, 0x3c, 0x4d, 0x4b, 0x67, 0x3d, 0xb3, 0x28, 0x1e, 0x3d,
  0x50, 0x9f, 0x59, 0x3c, 0xac, 0x7b, 0xb3, 0xbd, 0xb5, 0xd4, 0x12, 0x3e,
  0x7b, 0xee, 0xac, 0xbd, 0x16, 0x2f, 0x5d, 0x3d, 0x3c, 0xa9, 0xe4, 0x3d,
  0x34, 0x19, 0x5a, 0x3d, 0x86, 0x8d, 0x9e, 0x3d, 0x89, 0x37, 0xbe, 0x3d,
  0xb8, 0x82, 0xa5, 0xbc, 0x55, 0x37, 0xc8, 0x3d, 0x15, 0x3c, 0x80, 0x3d,
  0x94, 0x71, 0xf5, 0x3c, 0x34, 0x25, 0x66, 0x3c, 0x00, 0x8a, 0xfe, 0x3c,
  0xfd, 0x67, 0xdb, 0x3d, 0x01, 0xbc, 0x27, 0xbd, 0xd2, 0x65, 0x79, 0x3d,
  0x66, 0xfa, 0xec, 0x3d, 0x77, 0x63, 0x67, 0xbd, 0xa3, 0x3d, 0x64, 0xbd,
  0xaf, 0x6e, 0x02, 0xbd, 0x79, 0x50, 0x31, 0x3d, 0x65, 0x81, 0x42, 0x3b,
  0x4b, 0x5f, 0x72, 0x3d, 0x9b, 0x13, 0x04, 0xbd, 0xba, 0xa3, 0x01, 0x3e,
  0xf4, 0xde, 0x6b, 0xbd, 0x02, 0x6e, 0x03, 0x3d, 0xe8, 0x21, 0x4b, 0xbd,
  0x52, 0x25, 0xd0, 0x3d, 0x99, 0x8c, 0xb2, 0xbd, 0x0a, 0x51, 0x6f, 0xbd,
  0xdf, 0x45, 0x1b, 0x3c, 0xe7, 0xba, 0xb0, 0x3d, 0xd5, 0xc4, 0x99, 0xbd,
  0x83, 0x1c, 0xeb, 0x3c, 0x3b, 0x3e, 0x0e, 0x3b, 0xe8, 0x07, 0x47, 0x3e,
  0x04, 0xf1, 0xbf, 0xbd, 0x50, 0xa3, 0x36, 0x3d, 0xc1, 0x90, 0x89, 0xbc,
  0x1c, 0x13, 0xbd, 0x3d, 0xe0, 0x8e, 0x46, 0xbd, 0xf7, 0x58, 0xe1, 0x3c,
  0xbf, 0x43, 0xb2, 0xbd, 0xec, 0x13, 0x0d, 0x3e, 0x7a, 0x8e, 0xd2, 0xbd,
  0x38, 0xfe, 0xa8, 0xbd, 0x88, 0x21, 0x95, 0xbb, 0x54, 0x49, 0x12, 0x3e,
  0x24, 0xed, 0xdd, 0xb7, 0x70, 0x21, 0x43, 0x3d, 0xe3, 0x8a, 0x73, 0xbd,
  0x71, 0xa1, 0x58, 0x3d, 0xfa, 0x5e, 0x81, 0x3d, 0x80, 0x7c, 0xb2, 0xbc,
  0xd8, 0x25, 0xfd, 0xbc, 0xf0, 0x02, 0x81, 0x3d, 0x9b, 0xda, 0xcd, 0x3c,
  0x57, 0x27, 0x33, 0xbd, 0x83, 0x3e, 0x50, 0x3d, 0x63, 0x11, 0x03, 0x3d,
  0x3a, 0xbb, 0x31, 0xbd, 0xca, 0x42, 0xbe, 0xbd, 0x1c, 0xa4, 0xcb, 0x3d,
  0x7d, 0x21, 0xad, 0x3c, 0x97, 0x71, 0x70, 0x3b, 0x38, 0xa5, 0x8b, 0x3d,
  0x61, 0xb9, 0x3b, 0x3d, 0xa3, 0x1d, 0xa6, 0x3d, 0x3a, 0x50, 0x33, 0x3d,
  0xcd, 0x26, 0x5c, 0xbc, 0x24, 0xfc, 0xc1, 0x3c, 0x66, 0xe3, 0x78, 0x3d,
  0x34, 0xa4, 0xad, 0xbc, 0x9e, 0x83, 0x2a, 0xbd, 0x73, 0xd7, 0x04, 0x3d,
  0xc1, 0x8a, 0x1a, 0x3e, 0x22, 0x1d, 0x06, 0x3d, 0xaf, 0x12, 0x82, 0x3d,
  0x4d, 0x66, 0x2f, 0xbd, 0x1b, 0xa8, 0xea, 0x3c, 0x58, 0x00, 0xa3, 0xbd,
  0xf6, 0x50, 0xa6, 0x3c, 0xc2, 0x4e, 0x88, 0x3a, 0xde, 0x2d, 0x15, 0x3d,
  0x95, 0xf4, 0x8f, 0xbd, 0x6d, 0x4d, 0x0d, 0xbd, 0xba, 0x46, 0x9f, 0xbd,
  0x60, 0xbe, 0x39, 0x3e, 0xa5, 0x78, 0x92, 0xbb, 0x73, 0x52, 0xb4, 0xbc,
  0xf4, 0xa1, 0xce, 0xbd, 0x0d, 0x87, 0x1e, 0x3e, 0xbe, 0x52, 0x1c, 0x3d,
  0x50, 0x6e, 0x55, 0x3d, 0xca, 0x06, 0x99, 0xbd, 0xf2, 0x87, 0x1c, 0x3c,
  0x68, 0xe9, 0xca, 0x3c, 0x49, 0x85, 0xb3, 0xbd, 0xf0, 0xf1, 0xda, 0xbd,
  0x00, 0x78, 0x43, 0x3b, 0xa3, 0xf5, 0xe2, 0x3b, 0x6d, 0xc8, 0x98, 0x3c,
  0x7c, 0x90, 0x6b, 0xbd, 0x4c, 0x41, 0xf5, 0x3d, 0x50, 0xcc, 0x0c, 0xbc,
  0x6f, 0x38, 0xa7, 0xbd, 0xb2, 0xf6, 0xc2, 0x3c, 0xc7, 0x69, 0x26, 0x3e,
  0xdc, 0xcf, 0x53, 0x3d, 0xa9, 0x6d, 0x38, 0xbd, 0xa0, 0x17, 0x18, 0x3d,
  0x34, 0x3a, 0xfa, 0x3c, 0x61, 0x19, 0x36, 0x3d, 0xec, 0x02, 0x97, 0xbd,
  0x60, 0x22, 0x4e, 0xbd, 0xb4, 0x79, 0x1d, 0x3e, 0xc2, 0xa3, 0x2a, 0x3d,
  0xa3, 0xf7, 0x55, 0xbd, 0x88, 0xbf, 0x05, 0xbd, 0x05, 0xad, 0x22, 0x3e,
  0xa8, 0x53, 0xd7, 0xbd, 0x71, 0xa9, 0x3f, 0xbd, 0x7d, 0xab, 0xd0, 0xbc,
  0x65, 0x07, 0x4c, 0x3d, 0x86, 0x0b, 0xbf, 0x3d, 0x08, 0x22, 0x81, 0x3d,
  0xa1, 0xbd, 0xaf, 0x3d, 0x3d, 0x1f, 0xde, 0x3d, 0x7d, 0x26, 0xb2, 0xbc,
  0x40, 0xe5, 0xc2, 0xbb, 0x5f, 0x0a, 0x48, 0x3d, 0x20, 0x2d, 0x0a, 0x3e,
  0xcf, 0xbd, 0x96, 0xbc, 0x91, 0xf1, 0xe1, 0xbc, 0xd3, 0x75, 0x20, 0x3d,
  0x06, 0x16, 0x44, 0x3e, 0x4e, 0x45, 0x55, 0xbd, 0x1a, 0x0f, 0xce, 0xbc,
  0x63, 0x54, 0x89, 0xbd, 0x47, 0xf6, 0x55, 0x3e, 0xfb, 0xe6, 0xa7, 0xbd,
  0xa7, 0x22, 0xb4, 0xbc, 0xaf, 0x00, 0xaf, 0x3c, 0xd7, 0xe7, 0xf8, 0x3d,
  0x9a, 0x86, 0x63, 0xbd, 0xe6, 0x24, 0x61, 0x3c, 0x2f, 0x6d, 0x85, 0xbd,
  0x53, 0xfe, 0xb3, 0x3d, 0x80, 0xe7, 0x65, 0x3d, 0x28, 0x45, 0x55, 0xbd,
  0x5d, 0xdc, 0xf5, 0xbd, 0x48, 0x23, 0x1a, 0x3e, 0xdd, 0xce, 0x12, 0x3d,
  0x63, 0x03, 0x9d, 0xbd, 0x79, 0x02, 0x06, 0xbd, 0x21, 0x65, 0x4e, 0x3d,
  0xb1, 0x1f, 0x2b, 0xbd, 0x47, 0x0c, 0xc1, 0x3c, 0x35, 0xfc, 0x9d, 0xbc,
  0x9a, 0x9e, 0x35, 0x3e, 0x6d, 0x4e, 0xd3, 0xbc, 0x68, 0x74, 0xd0, 0xbd,
  0xbf, 0xc4, 0x02, 0xbd, 0xd3, 0x39, 0xa0, 0x3d, 0xd1, 0xed, 0xdc, 0xbd,
  0x21, 0x0a, 0x26, 0xbd, 0x1f, 0x61, 0x29, 0x3d, 0xaf, 0x9c, 0x4d, 0x3d,
  0x0e, 0x8b, 0x5d, 0xbb, 0xb4, 0x0d, 0x70, 0xbd, 0x9f, 0x11, 0x46, 0x3d,
  0xc4, 0xbb, 0x1b, 0x3e, 0x6d, 0x45, 0x9a, 0x3c, 0x95, 0xe4, 0xa1, 0xbd,
  0xa9, 0x16, 0x51, 0x3d, 0x87, 0x54, 0x31, 0x3e, 0x20, 0x2c, 0x92, 0xbd,
  0x7a, 0x29, 0xda, 0xbd, 0xc9, 0x8b, 0xce, 0xbd, 0x82, 0x9f, 0xe6, 0x3d,
  0xf0, 0x4b, 0x77, 0xbd, 0x7a, 0x46, 0xac, 0x3c, 0xa0, 0xdd, 0xb4, 0x3d,
  0xa4, 0xb6, 0xcb, 0x3d, 0xea, 0xda, 0x6f, 0x3c, 0x1a, 0xef, 0xf1, 0xbc,
  0x47, 0xd6, 0x46, 0x3d, 0x5f, 0xb3, 0x95, 0x3d, 0xb6, 0x1c, 0x85, 0x3d,
  0x51, 0x7a, 0xbc, 0x3d, 0x0f, 0xd3, 0x2b, 0xbb, 0x04, 0x94, 0x8a, 0x3d,
  0x1b, 0x66, 0xe8, 0x3c, 0x79, 0xc7, 0x5e, 0xbc, 0x7f, 0x2e, 0x3f, 0xbd,
  0x1b, 0xcd, 0x0a, 0x3d, 0x3d, 0x1f, 0xf2, 0x3c, 0xa4, 0xab, 0xc7, 0x3c,
  0x46, 0xa1, 0x9e, 0xbb, 0x93, 0xfb, 0xb5, 0x3d, 0xed, 0x8d, 0x4d, 0xbd,
  0xd5, 0x73, 0xdf, 0x3b, 0x8e, 0x5e, 0xda, 0x3c, 0x89, 0x90, 0xf8, 0x3d,
  0xf6, 0x00, 0x1d, 0x3d, 0xfb, 0x39, 0x71, 0xbd, 0x1e, 0x69, 0x2d, 0xbc,
  0x33, 0x54, 0xa2, 0x3d, 0x49, 0x39, 0xbc, 0xbd, 0xec, 0x2c, 0xc7, 0xbd,
  0x75, 0x76, 0xd1, 0xbc, 0x93, 0x38, 0x10, 0x3e, 0x97, 0x1c, 0x38, 0x3d,
  0x72, 0x58, 0x61, 0x3c, 0x43, 0x3f, 0x58, 0xbd, 0x0a, 0x41, 0x8e, 0x3d,
  0x2b, 0x2a, 0x3f, 0xbb, 0xc2, 0x86, 0x00, 0x3d, 0x75, 0x93, 0x81, 0xbd,
  0xc2, 0x3f, 0x1d, 0x3d, 0xf9, 0x8f, 0xb5, 0xbc, 0x49, 0xca, 0xc6, 0xbd,
  0x29, 0x09, 0x9f, 0xbd, 0x5b, 0x6c, 0x04, 0x3e, 0xf5, 0x93, 0x7c, 0xbc,
  0xb2, 0xd4, 0xd6, 0x3c, 0xbe, 0xf0, 0x77, 0xbd, 0x25, 0x0c, 0x0c, 0x3e,
  0xf0, 0x6f, 0xa6, 0x3b, 0x33, 0x40, 0x7b, 0x3c, 0x23, 0x5f, 0xfb, 0xbc,
  0x3b, 0x3f, 0x0a, 0x3e, 0xdc, 0x3b, 0xd4, 0xbc, 0xc4, 0xa4, 0x06, 0x3d,
  0x7a, 0xbc, 0x9f, 0xbd, 0xc2, 0xf0, 0x4d, 0x3e, 0x50, 0x2b, 0xb0, 0xbd,
  0x01, 0xc7, 0x98, 0xbd, 0xdf, 0x9e, 0x98, 0x3c, 0x2d, 0xd4, 0xc4, 0x3c,
  0x70, 0x01, 0x53, 0xbd, 0x79, 0x35, 0xbb, 0xbd, 0xfd, 0xd6, 0xd3, 0xbc,
  0x2e, 0xe6, 0x56, 0x3d, 0x34, 0x2c, 0x2b, 0xbc, 0xbd, 0x53, 0x22, 0xbb,
  0x5b, 0xbd, 0xbd, 0x3d, 0xbf, 0x4b, 0xf3, 0x3c, 0xe9, 0x2d, 0x7b, 0x3d,
  0xc5, 0x45, 0xfe, 0x3c, 0xf2, 0x75, 0x8a, 0xbd, 0x68, 0x13, 0x48, 0x3e,
  0xd0, 0x2c, 0xae, 0x3c, 0x13, 0xe7, 0xc9, 0x3c, 0x3d, 0xf8, 0x12, 0xbd,
  0xf9, 0x73, 0xd3, 0x3d, 0x39, 0xef, 0xe6, 0xbc, 0xd3, 0x9a, 0xd9, 0x3c,
  0x63, 0xf0, 0x5d, 0x3b, 0xe0, 0x50, 0x24, 0x3e, 0x0c, 0x63, 0x9b, 0xbd,
  0x57, 0x5a, 0xd2, 0xbd, 0x75, 0x93, 0x1c, 0xbd, 0xb9, 0x15, 0x2c, 0x3e,
  0xcf, 0x51, 0x82, 0xbc, 0x72, 0x88, 0x9c, 0x3c, 0xd2, 0x32, 0x0d, 0x3d,
  0xd9, 0x8c, 0xc0, 0x3d, 0xa9, 0x16, 0x42, 0x3d, 0xce, 0x30, 0x99, 0xbd,
  0x48, 0x33, 0x00, 0x3d, 0x6f, 0xa4, 0x96, 0x3d, 0xda, 0xa7, 0x8b, 0xbd,
  0x78, 0x03, 0xe1, 0x3b, 0xb4, 0x9b, 0x2d, 0xbd, 0x1e, 0x33, 0xfe, 0x3d,
  0x64, 0xe5, 0xc7, 0xbd, 0x8f, 0x0e, 0xa9, 0xbd, 0x4b, 0x27, 0x53, 0x3c,
  0x3d, 0x26, 0x76, 0x3d, 0x31, 0x69, 0x5a, 0x3d, 0x6a, 0xda, 0x96, 0xbd,
  0xdc, 0x46, 0x10, 0xbb, 0x77, 0x9d, 0x84, 0x3d, 0x12, 0xaa, 0x82, 0x3d,
  0x2d, 0x35, 0xd9, 0x3c, 0xb8, 0x0c, 0x45, 0x3d, 0x2d, 0xd9, 0xc0, 0x3d,
  0xd8, 0x8f, 0x38, 0x3a, 0x70, 0x63, 0x62, 0x3d, 0xfe, 0xc4, 0x49, 0xbd,
  0xcc, 0x1c, 0x31, 0x3e, 0x2c, 0xad, 0xa8, 0xbd, 0x8d, 0x46, 0x1e, 0xbd,
  0xf8, 0xea, 0xb5, 0x3c, 0x7b, 0x9f, 0x31, 0x3e, 0x48, 0x8d, 0x9e, 0xbd,
  0xfe, 0x9d, 0x5d, 0x3c, 0x6b, 0xea, 0x1f, 0x3b, 0xe1, 0xf6, 0x78, 0x3d,
  0x1c, 0x87, 0xfb, 0x3c, 0xe0, 0x3d, 0x8e, 0xbb, 0x7f, 0xc7, 0xac, 0x3d,
  0x0d, 0x16, 0xbe, 0x3d, 0xd9, 0x43, 0xd7, 0x3d, 0x50, 0x36, 0x1a, 0xbd,
  0xbe, 0x6d, 0x8b, 0x3d, 0x14, 0xe7, 0x55, 0x3b, 0x71, 0x67, 0x2c, 0x3d,
  0x96, 0xdd, 0x2e, 0x3b, 0x15, 0x68, 0x20, 0xbd, 0x83, 0x40, 0x06, 0x3e,
  0x82, 0xe4, 0x66, 0xbd, 0x6a, 0x4f, 0x84, 0x3d, 0xb0, 0x56, 0xcf, 0xbc,
  0xa0, 0x20, 0x18, 0x3e, 0x3f, 0x6e, 0xb6, 0xbb, 0x23, 0x0a, 0xa7, 0xbd,
  0x2a, 0x9b, 0xad, 0xbd, 0x42, 0x59, 0xd2, 0x3d, 0xdf, 0x7c, 0x76, 0xbd,
  0x6d, 0xdf, 0xee, 0xbc, 0x6e, 0xa4, 0x12, 0xbd, 0x8b, 0xa8, 0xb5, 0x3d,
  0x21, 0xc6, 0x74, 0xbd, 0x46, 0xb0, 0x55, 0x3d, 0xd4, 0xe1, 0xb2, 0xbd,
  0x89, 0x3c, 0x16, 0x3e, 0x93, 0x12, 0xf4, 0xbc, 0x18, 0x32, 0x83, 0xbc,
  0x10, 0xa2, 0xf4, 0xbc, 0x76, 0xb6, 0xc8, 0x3c, 0xac, 0x77, 0x71, 0xbc,
  0xf9, 0x02, 0x72, 0xbc, 0xd7, 0xc2, 0x4a, 0xbd, 0xa4, 0x15, 0x4e, 0x3d,
  0x60, 0xa6, 0x82, 0x3c, 0xc1, 0x10, 0xcf, 0xbd, 0x9a, 0x6e, 0x34, 0x3c,
  0xb1, 0xcb, 0x35, 0x3e, 0xa9, 0x47, 0x0a, 0xbd, 0xe0, 0xd1, 0xaf, 0xb9,
  0xf9, 0x6f, 0x17, 0xbc, 0x4d, 0x05, 0xfd, 0x3d, 0xae, 0x0c, 0x51, 0x3d,
  0x8e, 0x98, 0x77, 0xbc, 0x58, 0xa6, 0xbe, 0xbc, 0x8d, 0x28, 0x31, 0x3e,
  0x99, 0x39, 0x3c, 0x3d, 0x5f, 0xaa, 0x52, 0xbd, 0x90, 0xed, 0x2d, 0xbd,
  0xa2, 0xda, 0x2b, 0x3e, 0x15, 0x01, 0xec, 0xbb, 0xbc, 0x35, 0xa1, 0xbd,
  0x4a, 0xe1, 0xfe, 0x3b, 0x64, 0x16, 0x91, 0x3d, 0x2a, 0x78, 0x57, 0x3d,
  0x1e, 0x19, 0xc2, 0xbb, 0x39, 0x79, 0x90, 0xbc, 0xff, 0xe2, 0x08, 0x3e,
  0x5c, 0x08, 0xde, 0xbd, 0x9d, 0xed, 0x49, 0x3d, 0xee, 0xf2, 0xbf, 0x3d,
  0x85, 0x82, 0xa4, 0xbd, 0x84, 0x5e, 0xc7, 0xbd, 0x70, 0x3b, 0x9b, 0xbd,
  0x3a, 0x77, 0x6f, 0x3d, 0xfa, 0xd5, 0xbc, 0x3d, 0xaa, 0x4c, 0x11, 0x3e,
  0xc0, 0x6c, 0x05, 0xbb, 0xdd, 0xab, 0x0f, 0xbd, 0xdd, 0x5d, 0x3b, 0x3d,
  0x10, 0x82, 0x26, 0xbc, 0x04, 0x05, 0xb4, 0xbd, 0xe0, 0xa5, 0x71, 0xbd,
  0x99, 0x58, 0x50, 0x3d, 0x1b, 0xc1, 0x43, 0xbe, 0x00, 0x25, 0x2f, 0xbe,
  0x6e, 0xa6, 0x48, 0x3d, 0xfe, 0xec, 0x2b, 0xbc, 0x4d, 0xf5, 0xda, 0xbd,
  0x20, 0x76, 0xa4, 0x3c, 0x84, 0x68, 0xe0, 0x3d, 0xbc, 0xe3, 0x39, 0xbc,
  0x32, 0xae, 0x42, 0xbc, 0xc7, 0x1b, 0x63, 0x3d, 0x6b, 0x80, 0xc8, 0x3d,
  0xcf, 0x00, 0x0c, 0x3e, 0x2e, 0x63, 0xd8, 0x3d, 0xda, 0x74, 0x32, 0x3e,
  0xdf, 0x10, 0x0d, 0x3e, 0xe8, 0xdf, 0x56, 0x3d, 0x4f, 0x65, 0x04, 0x3e,
  0x5b, 0x42, 0x46, 0x3e, 0xe2, 0x2b, 0x42, 0x3d, 0xd6, 0xcb, 0x13, 0x3e,
  0x2b, 0x1b, 0x23, 0x3e, 0xea, 0x24, 0x0c, 0x3e, 0xa0, 0x42, 0xd6, 0x3d,
  0xf2, 0x4c, 0xd2, 0x3d, 0xe5, 0x94, 0x0d, 0x3e, 0x64, 0x62, 0x40, 0x3e,
  0xb3, 0xa2, 0x9c, 0x3d, 0x73, 0x3f, 0x73, 0x3d, 0x8a, 0x71, 0x1c, 0x3e,
  0x43, 0xaf, 0x0f, 0x3e, 0x63, 0x6d, 0xc2, 0x3d, 0x5e, 0x16, 0x3b, 0x3d,
  0xcb, 0xbc, 0xfc, 0xbd, 0x92, 0x97, 0xd8, 0xbd, 0xbe, 0x16, 0x60, 0x3d,
  0x08, 0x50, 0xc5, 0x3d, 0x7c, 0xd8, 0x71, 0xbd, 0x61, 0x29, 0x71, 0xbd,
  0x19, 0x0d, 0x6d, 0x3c, 0x22, 0x22, 0x0d, 0x3e, 0x73, 0x2b, 0x2f, 0xbe,
  0x95, 0x51, 0xa4, 0xbc, 0xbb, 0xcc, 0x36, 0x3d, 0x55, 0xf1, 0x9f, 0x3d,
  0x6f, 0x7a, 0x9f, 0x3c, 0x8e, 0xff, 0x7e, 0xbd, 0x7f, 0x24, 0x31, 0x3d,
  0xd5, 0x47, 0x1b, 0xbd, 0x88, 0xfd, 0xb5, 0xbc, 0x3d, 0xe2, 0xd9, 0xbd,
  0x9a, 0x3f, 0xb7, 0x3d, 0xfb, 0xb9, 0x62, 0x3c, 0x88, 0xb2, 0x47, 0x3c,
  0xec, 0xe7, 0xf7, 0x3d, 0xcf, 0x56, 0xe7, 0xbc, 0x93, 0x44, 0x37, 0xbc,
  0x8a, 0x34, 0x46, 0x3d, 0xc2, 0xb6, 0x7e, 0x3b, 0x45, 0xa4, 0x9b, 0x3c,
  0xdb, 0x7a, 0x34, 0x3d, 0xdb, 0x12, 0x09, 0xbe, 0x9a, 0x64, 0x64, 0xbd,
  0x74, 0x6f, 0x7f, 0x3a, 0x27, 0x8b, 0xa2, 0x3d, 0x58, 0x7d, 0xd4, 0xbd,
  0x8b, 0xef, 0x3c, 0xbc, 0x0c, 0xbd, 0x60, 0xbc, 0x73, 0x71, 0x04, 0x3d,
  0x7b, 0x95, 0xbe, 0x3d, 0x65, 0x3d, 0xa5, 0x3c, 0x4f, 0x31, 0x84, 0x3d,
  0xfc, 0x1a, 0x0e, 0x3d, 0x33, 0x54, 0x1f, 0x3d, 0x06, 0xce, 0x10, 0x3e,
  0x27, 0x3e, 0x26, 0x3e, 0x4b, 0x9c, 0xb7, 0x3d, 0x7c, 0x6c, 0x88, 0x3c,
  0x9c, 0xc8, 0x2b, 0x3e, 0xc9, 0xba, 0x53, 0x3d, 0xa3, 0x38, 0x92, 0x3d,
  0xb7, 0xc7, 0x5e, 0x3d, 0xe3, 0x8a, 0x00, 0x3e, 0xb9, 0xe8, 0x03, 0x3e,
  0x21, 0xbe, 0xcf, 0xbb, 0x6e, 0x44, 0xc4, 0x3c, 0x08, 0x1a, 0x4f, 0x3d,
  0x33, 0x39, 0x08, 0x3e, 0x7b, 0x76, 0xed, 0x3a, 0x2f, 0x32, 0x8d, 0x3d,
  0xed, 0x6f, 0xaf, 0x3d, 0xf0, 0x82, 0x4a, 0x3d, 0x5d, 0x7a, 0x87, 0xbc,
  0x5a, 0xc5, 0x8e, 0xbd, 0x07, 0x4f, 0x7e, 0xbd, 0x6c, 0x50, 0x1b, 0xbb,
  0x6e, 0xf7, 0xb7, 0x3d, 0x79, 0x8c, 0xae, 0x3d, 0x06, 0x62, 0xdd, 0x3c,
  0x62, 0x85, 0x2e, 0x3b, 0x72, 0x5a, 0x24, 0x3e, 0xd5, 0x48, 0x88, 0xbb,
  0x16, 0x0a, 0x69, 0xbd, 0xf7, 0x76, 0xc6, 0x3b, 0x11, 0xe6, 0xad, 0x3d,
  0x90, 0x14, 0x2a, 0xbd, 0x3b, 0x1a, 0xda, 0x3d, 0xbb, 0x8a, 0x57, 0x3c,
  0x2d, 0x10, 0x8a, 0x3d, 0x64, 0x3b, 0x00, 0xbe, 0x99, 0x6e, 0x23, 0x3c,
  0x9c, 0x8f, 0x2a, 0xbc, 0x67, 0x34, 0x4a, 0x3d, 0x7e, 0x06, 0x26, 0x3d,
  0xcb, 0x29, 0xb0, 0xbb, 0x5f, 0x9e, 0xc9, 0x39, 0xca, 0x0a, 0x82, 0x3d,
  0xc5, 0xac, 0x05, 0xbd, 0x0c, 0x37, 0xed, 0xbc, 0x55, 0x19, 0x26, 0xbd,
  0x24, 0xf6, 0x9b, 0xbb, 0xa6, 0x71, 0xc1, 0xbd, 0x79, 0x26, 0xcd, 0xbb,
  0x74, 0x34, 0x4a, 0xbd, 0xda, 0x7f, 0x96, 0xbd, 0x85, 0x19, 0xd4, 0xbd,
  0x60, 0x50, 0x35, 0xbc, 0xe0, 0xe8, 0x18, 0xbd, 0xd7, 0x58, 0x81, 0xbd,
  0xcc, 0x63, 0x17, 0x3d, 0xef, 0xd3, 0x01, 0x3d, 0x7b, 0x3c, 0xc0, 0x3d,
  0xe1, 0x76, 0xc5, 0x3d, 0xec, 0xa5, 0x4b, 0x3c, 0x89, 0x95, 0xfe, 0x3d,
  0xa9, 0xb9, 0x05, 0x3e, 0x2b, 0x5a, 0x05, 0xbd, 0x3e, 0xc7, 0x20, 0x3e,
  0x55, 0x8a, 0x4a, 0x3d, 0x0f, 0x23, 0xbf, 0x3d, 0x8f, 0xae, 0x70, 0x3d,
  0x09, 0x48, 0x19, 0x3e, 0x51, 0x66, 0x20, 0x3e, 0xc0, 0xfd, 0x82, 0x3d,
  0x0b, 0x32, 0x81, 0x3c, 0xe5, 0x55, 0xdb, 0x3d, 0xfb, 0x21, 0xf2, 0x3d,
  0xc7, 0x77, 0xff, 0x3d, 0xa3, 0x6c, 0xdb, 0x3d, 0x05, 0xdf, 0x09, 0x3e,
  0x81, 0x0e, 0xe4, 0x3d, 0xd9, 0x5a, 0xb3, 0x3d, 0x96, 0x9f, 0x0e, 0x3d,
  0x38, 0x2b, 0x3f, 0x3d, 0xb0, 0xcd, 0xb4, 0xbb, 0x8e, 0xe5, 0x21, 0x3e,
  0x6f, 0xf0, 0xb2, 0x3d, 0x65, 0x9d, 0xa8, 0x3d, 0x5c, 0x8b, 0xeb, 0x3d,
  0x92, 0x9f, 0x0a, 0x3c, 0x9c, 0x41, 0xa1, 0x3d, 0x29, 0x33, 0xbd, 0xbc,
  0xc1, 0x02, 0xbf, 0x3d, 0x41, 0x6a, 0xdc, 0x3d, 0xe8, 0x29, 0x4d, 0x3d,
  0x84, 0x1f, 0xac, 0x3d, 0xe2, 0xdb, 0x22, 0x3d, 0x48, 0x1d, 0x30, 0x3d,
  0xa3, 0xf1, 0x94, 0x3c, 0x21, 0x34, 0xad, 0x3c, 0x07, 0xab, 0xbd, 0x3c,
  0x35, 0x2c, 0x2b, 0x3d, 0xae, 0x6a, 0xe8, 0xba, 0x9a, 0x30, 0x52, 0x3d,
  0x4d, 0x68, 0xde, 0x3c, 0x49, 0xbd, 0x14, 0x3d, 0xf4, 0xe6, 0x01, 0x3c,
  0x79, 0x38, 0x8a, 0x3c, 0x7f, 0xb2, 0xd7, 0x3c, 0x3b, 0x7e, 0xac, 0xbd,
  0xc0, 0xc5, 0xa4, 0xbd, 0xde, 0xc9, 0xaf, 0xbd, 0x69, 0x88, 0x37, 0xbd,
  0x7a, 0xf1, 0x33, 0xbd, 0x8d, 0x34, 0xe4, 0xbc, 0x82, 0x3f, 0xf2, 0xbc,
  0xa0, 0x81, 0x20, 0x3c, 0x50, 0x2c, 0x92, 0xbc, 0x4a, 0x2a, 0x4b, 0xbd,
  0x41, 0x22, 0x0b, 0x3d, 0xed, 0xdb, 0xae, 0x3c, 0xca, 0x35, 0x42, 0x3d,
  0xdf, 0xcc, 0xc6, 0x3d, 0xca, 0xc9, 0x31, 0xbc, 0xc8, 0x66, 0x96, 0x3d,
  0x55, 0xfe, 0x11, 0x3d, 0xbc, 0x1c, 0x95, 0x3c, 0xc7, 0xa0, 0xfa, 0x3d,
  0x39, 0x12, 0xd9, 0x3d, 0xfc, 0x55, 0xc0, 0xbc, 0xad, 0xc6, 0x2d, 0xbd,
  0xab, 0x95, 0x0c, 0x3e, 0xc8, 0x2c, 0x2d, 0x3d, 0x77, 0xe5, 0xa7, 0xba,
  0xc8, 0xee, 0xa3, 0x3c, 0x9c, 0x9b, 0x0c, 0xbd, 0x38, 0xd2, 0xbf, 0x3c,
  0x51, 0x9f, 0x89, 0x3d, 0xac, 0x9a, 0x15, 0x3d, 0x90, 0xa9, 0xa3, 0xbc,
  0xb8, 0xe5, 0xc3, 0x3d, 0xaf, 0x4e, 0x47, 0x3d, 0xdd, 0x52, 0x8c, 0x3c,
  0xd7, 0x0d, 0xd3, 0x3b, 0x01, 0x7e, 0x9a, 0x3d, 0xe7, 0x02, 0xa4, 0x3c,
  0xbb, 0x8a, 0xe9, 0x3d, 0xc6, 0xec, 0x04, 0x3d, 0xb8, 0x5d, 0xd8, 0x3c,
  0xc4, 0xc3, 0x2f, 0x3d, 0x05, 0xfd, 0x87, 0xba, 0x70, 0xe3, 0x2a, 0xbd,
  0xe7, 0xa3, 0xe4, 0x3d, 0xe7, 0x6b, 0x92, 0x3d, 0xea, 0xb1, 0x44, 0x3d,
  0x7f, 0x3a, 0x9d, 0x3d, 0x21, 0xf4, 0x01, 0x3d, 0x5c, 0x47, 0x76, 0xbd,
  0xd1, 0x36, 0xa2, 0x3c, 0x02, 0xa9, 0xd6, 0xbc, 0xfb, 0xf5, 0x09, 0xbb,
  0x16, 0x9f, 0xa5, 0x3d, 0x99, 0x9a, 0x61, 0x3d, 0xdb, 0x39, 0xe0, 0x39,
  0xd7, 0x41, 0xaf, 0x3b, 0xf6, 0x1d, 0xe3, 0xbc, 0xd5, 0xcd, 0x41, 0xbd,
  0x8d, 0xe3, 0x4e, 0x3d, 0x86, 0x70, 0xe8, 0x3b, 0xb8, 0xae, 0x0a, 0x3d,
  0xca, 0x2a, 0xd7, 0xbc, 0x33, 0x4e, 0x02, 0xbc, 0x51, 0x97, 0xa6, 0xbd,
  0xb4, 0xfd, 0x88, 0xbd, 0xbb, 0x0a, 0x02, 0x3d, 0x31, 0x4a, 0xa6, 0xbd,
  0x8d, 0x47, 0xbe, 0xbd, 0x7c, 0x80, 0xad, 0x3d, 0x98, 0xb7, 0xa5, 0x3d,
  0xea, 0x00, 0x6b, 0xbd, 0x65, 0x79, 0xac, 0x3c, 0x34, 0x59, 0x10, 0xbc,
  0x49, 0x27, 0x9e, 0x3d, 0xf9, 0x61, 0x07, 0x3d, 0x27, 0x98, 0x86, 0xba,
  0x4c, 0x8e, 0x85, 0x3d, 0x05, 0x30, 0x0d, 0x3d, 0xea, 0x6f, 0xf8, 0xbb,
  0x75, 0x55, 0xa6, 0xba, 0xb9, 0xc1, 0x47, 0x3d, 0x11, 0xbf, 0x7e, 0x3d,
  0xb8, 0x22, 0x94, 0x3d, 0x00, 0x62, 0x3c, 0x3d, 0xbb, 0xb8, 0x27, 0xbd,
  0x98, 0x74, 0x49, 0x3d, 0x4e, 0xa8, 0x02, 0xbd, 0x33, 0xb6, 0x35, 0xbd,
  0x13, 0x5d, 0xf5, 0xbc, 0x35, 0x2e, 0x26, 0x3d, 0x44, 0xc1, 0xd8, 0x3d,
  0x18, 0x22, 0x3a, 0xbb, 0xc5, 0xf6, 0xb0, 0x3c, 0xf3, 0x60, 0x18, 0x3c,
  0x36, 0x57, 0x6d, 0xbb, 0xee, 0x82, 0x32, 0x3c, 0xdf, 0x7d, 0xd1, 0xbb,
  0x07, 0x72, 0xb8, 0x3d, 0x22, 0x86, 0x31, 0x3c, 0xdb, 0xa6, 0x80, 0xbc,
  0xae, 0xc6, 0xc6, 0x3c, 0xea, 0x40, 0x50, 0xbc, 0x90, 0x21, 0x04, 0xbc,
  0xc1, 0x9f, 0x0d, 0x3d, 0xe8, 0xd2, 0x51, 0x3d, 0x4b, 0x2f, 0xdb, 0x3d,
  0x2f, 0x10, 0x28, 0x3c, 0x98, 0xa9, 0x44, 0x3d, 0x39, 0x32, 0xf0, 0xbd,
  0x11, 0x11, 0x22, 0x3d, 0x88, 0x80, 0xef, 0xbb, 0x4e, 0x46, 0x34, 0x3c,
  0x77, 0x11, 0xec, 0x3d, 0xd3, 0xec, 0xd1, 0xbd, 0x36, 0x15, 0x76, 0x3d,
  0x10, 0x64, 0xa3, 0x3d, 0xa5, 0xd5, 0xa0, 0x3d, 0x4a, 0xc1, 0x81, 0xbd,
  0x76, 0x13, 0xc8, 0x3d, 0xf3, 0x12, 0x89, 0x3c, 0x6f, 0xac, 0x0a, 0xbd,
  0xf7, 0x5b, 0xa0, 0xbb, 0x14, 0x84, 0xe7, 0xbc, 0xd7, 0xed, 0x45, 0x3c,
  0x02, 0xae, 0x7f, 0x3d, 0x06, 0x18, 0x78, 0x3c, 0xec, 0x3e, 0x90, 0xbd,
  0xa0, 0xd8, 0x2c, 0xbd, 0x05, 0x09, 0x40, 0xbc, 0xa9, 0x84, 0x64, 0xbc,
  0xd3, 0x26, 0x49, 0xbd, 0x05, 0x9a, 0x59, 0x3d, 0x4e, 0x10, 0xf3, 0xbc,
  0x04, 0x42, 0xac, 0x3c, 0xef, 0xd8, 0x9c, 0x3d, 0x91, 0x55, 0xbc, 0x3d,
  0x56, 0xd5, 0x95, 0x3c, 0x07, 0x6c, 0x5e, 0x3d, 0xc4, 0x46, 0xe9, 0x3c,
  0x88, 0x69, 0xb8, 0x3c, 0x65, 0xd9, 0x54, 0x3c, 0x3b, 0xf3, 0x1b, 0xbd,
  0xab, 0xbf, 0xa0, 0x3a, 0xd9, 0x8c, 0x4c, 0x3d, 0xe2, 0x57, 0x76, 0xbc,
  0x36, 0x7b, 0x70, 0x3c, 0x0a, 0x16, 0x9c, 0x3d, 0x6b, 0x50, 0xa9, 0x3d,
  0x5d, 0xc3, 0x87, 0x3d, 0xa4, 0xdc, 0x8e, 0x3d, 0x15, 0x36, 0x8a, 0xbc,
  0x0d, 0x75, 0x85, 0x3d, 0xef, 0x70, 0x33, 0x3d, 0x4d, 0x71, 0xa2, 0x3d,
  0x0a, 0x2e, 0x45, 0x3b, 0x9d, 0xd3, 0xb1, 0xbc, 0x35, 0x0e, 0x02, 0x3e,
  0x25, 0x7f, 0x94, 0x3d, 0xfa, 0x27, 0x95, 0x3d, 0xd0, 0x3c, 0xf1, 0x3d,
  0x37, 0xf6, 0xbd, 0x3d, 0x6c, 0xc5, 0x94, 0x3c, 0x2f, 0xe5, 0x03, 0xbd,
  0x43, 0xe0, 0xcd, 0x3d, 0xbd, 0x5c, 0x65, 0x3c, 0x53, 0x65, 0x16, 0x3e,
  0x3f, 0x9e, 0x89, 0x3c, 0x37, 0x1d, 0x40, 0xbc, 0xc7, 0x6a, 0xda, 0xbd,
  0x8e, 0x4b, 0x52, 0xbd, 0xea, 0x03, 0xd2, 0xbd, 0x5e, 0xf9, 0xc4, 0xbd,
  0xf1, 0x83, 0xb7, 0xbd, 0x0a, 0x1c, 0x9e, 0xbc, 0x16, 0x1c, 0xb3, 0x3c,
  0x89, 0x98, 0x9e, 0xbd, 0xa7, 0x5e, 0x8b, 0x3d, 0xf6, 0x1d, 0x5d, 0x3d,
  0x71, 0xff, 0x24, 0xbd, 0x68, 0x02, 0xfe, 0xbb, 0x5f, 0xa9, 0x05, 0x3d,
  0x7c, 0x6e, 0xe6, 0x3c, 0xcc, 0xf9, 0x7b, 0xbc, 0x46, 0x75, 0xb5, 0xbd,
  0x9c, 0x6d, 0xc9, 0xbd, 0x61, 0xb1, 0x5a, 0x3d, 0x58, 0xae, 0x0e, 0xbd,
  0x8a, 0xdf, 0x4b, 0xbd, 0x4a, 0x8c, 0x56, 0xbd, 0xe2, 0x30, 0x78, 0xbd,
  0x6f, 0x83, 0xfb, 0x3c, 0x10, 0x36, 0x9a, 0xbc, 0xf4, 0xb4, 0x1e, 0xbd,
  0xf1, 0x06, 0xae, 0xbc, 0xf7, 0x0b, 0x48, 0x3d, 0xe0, 0xb5, 0x8f, 0x3d,
  0x26, 0x1b, 0x76, 0xbd, 0x6d, 0x8a, 0xea, 0xbb, 0x7b, 0xa5, 0x33, 0x3d,
  0x26, 0x27, 0x6a, 0xbc, 0xe2, 0xcb, 0xe5, 0x3c, 0x91, 0x67, 0x93, 0x3c,
  0xe2, 0xc7, 0x16, 0x3d, 0x08, 0xa0, 0x85, 0x3b, 0xc4, 0x09, 0x9e, 0x3b,
  0xe3, 0x6e, 0x5f, 0xbd, 0x29, 0x8a, 0xb9, 0xbc, 0x85, 0xd5, 0x34, 0x3d,
  0x92, 0xae, 0xee, 0xbb, 0x61, 0x01, 0xbe, 0x3d, 0xed, 0x9b, 0x90, 0x3d,
  0x34, 0x1a, 0x06, 0x3e, 0xd1, 0xba, 0x48, 0x3d, 0x48, 0x11, 0xd6, 0x3c,
  0xe2, 0x97, 0x26, 0x3d, 0x43, 0x35, 0x9b, 0x3c, 0x90, 0xb1, 0xc9, 0x3c,
  0x9e, 0x35, 0x51, 0x3d, 0x57, 0x49, 0x73, 0xbb, 0x05, 0x19, 0x95, 0x3d,
  0x50, 0xd6, 0xdc, 0x3c, 0xc4, 0xdd, 0xe1, 0x3d, 0xdd, 0x2a, 0x2a, 0xbd,
  0xd2, 0x46, 0x2e, 0x3d, 0xea, 0x17, 0x91, 0x3d, 0x9c, 0xfe, 0xc8, 0x3d,
  0x7d, 0x23, 0x60, 0xbc, 0x40, 0x0e, 0xfc, 0x3c, 0x43, 0xb3, 0xc8, 0xbd,
  0x28, 0x31, 0x9a, 0xbd, 0x4b, 0xc9, 0x30, 0x3d, 0x54, 0x1f, 0xa1, 0xbb,
  0x1e, 0x97, 0x62, 0xbd, 0x27, 0xb6, 0x7d, 0x3d, 0xee, 0xec, 0xc2, 0xbd,
  0xbf, 0xdd, 0x18, 0x3d, 0xaf, 0x4f, 0x4a, 0x3d, 0x1c, 0x54, 0x26, 0xbd,
  0x3c, 0x16, 0x76, 0x3d, 0x84, 0xd6, 0x07, 0xbc, 0x94, 0x56, 0x1a, 0x3d,
  0x82, 0x4b, 0x57, 0x3c, 0x8a, 0xa2, 0x64, 0x3c, 0xe4, 0x26, 0x65, 0x3d,
  0x21, 0x8d, 0x13, 0x3d, 0x57, 0xcd, 0x27, 0x3d, 0xba, 0xa8, 0x67, 0xbc,
  0xb9, 0xe5, 0x58, 0x3d, 0xb2, 0x6a, 0x7d, 0x3d, 0x7b, 0x15, 0x4a, 0xbd,
  0x9c, 0x62, 0xb9, 0xbd, 0x68, 0xd4, 0x0c, 0xbc, 0xf4, 0x7a, 0x83, 0xbd,
  0xed, 0xb0, 0xa0, 0x3d, 0xf6, 0x8a, 0x54, 0x3d, 0x23, 0x58, 0x3f, 0x3d,
  0xf4, 0xfc, 0x25, 0xbd, 0x3b, 0xb9, 0x16, 0x3d, 0x38, 0xdc, 0x82, 0x3c,
  0xe9, 0x59, 0x55, 0xbd, 0x1a, 0xae, 0xde, 0x3c, 0x07, 0x63, 0xcf, 0xbc,
  0x59, 0x19, 0x9f, 0xbc, 0xcd, 0xd5, 0x84, 0x3d, 0x81, 0x29, 0x03, 0x3a,
  0xf6, 0xc9, 0xa6, 0xbc, 0xcd, 0xea, 0x21, 0xbc, 0x13, 0x76, 0x17, 0x3c,
  0xad, 0x4b, 0xc5, 0xbc, 0x54, 0xc0, 0xe1, 0x3d, 0x72, 0x2f, 0x3b, 0xbd,
  0x69, 0x36, 0x00, 0x3c, 0x9a, 0x46, 0x38, 0x3d, 0x91, 0x66, 0x23, 0x3d,
  0x61, 0x97, 0xf4, 0x3c, 0x52, 0x2e, 0xbe, 0x3d, 0x09, 0x3f, 0x3a, 0x3c,
  0x4a, 0x38, 0xe7, 0x3c, 0xf9, 0xae, 0x57, 0x3d, 0xcd, 0x55, 0x5f, 0x3d,
  0xe8, 0xa7, 0xce, 0x3c, 0xcf, 0x6b, 0xbb, 0x3d, 0x60, 0x63, 0x36, 0xbd,
  0x97, 0x61, 0xba, 0x3d, 0x03, 0xf1, 0xe8, 0x3d, 0xf5, 0xda, 0xb6, 0x3d,
  0x17, 0xe1, 0x8b, 0x3d, 0xd7, 0x69, 0x31, 0xbd, 0x03, 0x52, 0xd3, 0xbc,
  0x08, 0xeb, 0x62, 0xbd, 0x3b, 0xcb, 0x25, 0xbd, 0xa9, 0x5b, 0x12, 0xbc,
  0xec, 0x63, 0x63, 0x3b, 0xd4, 0x0d, 0x4b, 0xbd, 0xc6, 0xc5, 0xad, 0xbc,
  0xaf, 0xe6, 0xc4, 0xbd, 0xbe, 0xa8, 0x42, 0x3d, 0x82, 0x0e, 0x38, 0x3d,
  0x7c, 0x70, 0x79, 0xbc, 0xb0, 0x70, 0x2c, 0x3d, 0x6c, 0xbe, 0x50, 0xbd,
  0x46, 0x02, 0xe1, 0x3b, 0xf1, 0xa4, 0x01, 0xbd, 0x3b, 0x4c, 0x33, 0xbd,
  0x72, 0x59, 0xa0, 0x3c, 0x0e, 0xb4, 0x3a, 0xbd, 0xa2, 0xa9, 0x30, 0xbc,
  0x0d, 0x1f, 0xc3, 0xbc, 0xea, 0x2b, 0xc4, 0xbb, 0x1b, 0x4f, 0x9e, 0x3b,
  0x77, 0xcd, 0x82, 0xbd, 0x1c, 0xb1, 0x94, 0xbd, 0x75, 0x2b, 0xce, 0xbc,
  0x4b, 0xf3, 0x3f, 0xbc, 0x52, 0x3a, 0xdd, 0x3d, 0x12, 0xc5, 0xdf, 0x3d,
  0x2e, 0x61, 0x8d, 0x3d, 0x3e, 0x3f, 0x39, 0x3d, 0x16, 0x46, 0xf6, 0x3a,
  0xc7, 0x7f, 0x01, 0x3d, 0x01, 0x0e, 0x23, 0x3c, 0xc7, 0x86, 0x06, 0x3e,
  0x9b, 0x69, 0xb9, 0x3d, 0xd5, 0x26, 0x6b, 0xbc, 0xaf, 0x7f, 0x10, 0xbc,
  0x56, 0x58, 0x83, 0x3c, 0x61, 0xa9, 0x0f, 0x3d, 0x4d, 0x0f, 0xcc, 0x3d,
  0xaf, 0xe4, 0x94, 0x3d, 0x9b, 0x3d, 0x14, 0x3d, 0x28, 0x23, 0x19, 0x3e,
  0x83, 0x3e, 0x24, 0x3d, 0xee, 0x6c, 0x8f, 0x3d, 0xd7, 0x3e, 0xee, 0x3d,
  0x68, 0xe8, 0x51, 0x3c, 0x24, 0xb5, 0xd8, 0x3d, 0x4b, 0x1c, 0xfe, 0x3b,
  0x44, 0xea, 0x1a, 0x3e, 0xa0, 0x06, 0xcd, 0x3d, 0x75, 0x21, 0xa8, 0xbc,
  0x06, 0xe2, 0x2e, 0xbd, 0x6a, 0x38, 0x91, 0x3d, 0x57, 0x55, 0x54, 0x3d,
  0xd5, 0xb6, 0xdd, 0x3c, 0x5e, 0x21, 0xe6, 0x3d, 0x1e, 0x91, 0xe6, 0x3d,
  0xd6, 0x08, 0xdb, 0x3d, 0xb9, 0xc2, 0xd1, 0x3d, 0x78, 0x9d, 0xd1, 0xbd,
  0x60, 0xdb, 0x68, 0xbd, 0xb9, 0xd0, 0x13, 0x3d, 0x9f, 0xf8, 0x7d, 0x3b,
  0x5a, 0xad, 0x1b, 0x3d, 0x23, 0x9c, 0x78, 0xbd, 0x0b, 0x62, 0x0b, 0x3d,
  0x23, 0x08, 0x2c, 0xbd, 0x10, 0x5d, 0xb7, 0xbc, 0xff, 0xe6, 0x72, 0x3c,
  0xfe, 0xe4, 0xdf, 0x3c, 0x68, 0x72, 0x9b, 0xbd, 0x9c, 0x5b, 0x50, 0x3d,
  0x4f, 0x3d, 0xae, 0x3d, 0x21, 0x92, 0x13, 0xbd, 0xfb, 0x35, 0x4b, 0x3a,
  0x69, 0xf9, 0x2c, 0x3d, 0x4a, 0x09, 0x2d, 0x3c, 0x66, 0x18, 0xf1, 0xbb,
  0xbb, 0x24, 0x15, 0xbb, 0x87, 0x72, 0xf2, 0x3d, 0x5c, 0x44, 0xa0, 0x3d,
  0x98, 0x1e, 0x35, 0x3c, 0xaf, 0x6f, 0x9b, 0x3c, 0x7a, 0x56, 0xa0, 0x3c,
  0xa0, 0x3f, 0x2e, 0x3d, 0x6b, 0x89, 0x4d, 0x3d, 0xf1, 0xd6, 0x0e, 0x3e,
  0x3b, 0x64, 0x85, 0x3d, 0x3d, 0x27, 0x16, 0x3e, 0x6a, 0x17, 0x3f, 0x3d,
  0x76, 0x19, 0xf5, 0x3d, 0xeb, 0x75, 0x9f, 0x3d, 0xf5, 0x18, 0x22, 0x3e,
  0xa7, 0x89, 0x19, 0x3e, 0xfb, 0xb2, 0xb1, 0x3b, 0x0e, 0x6a, 0xa3, 0xbc,
  0x0f, 0x0f, 0x28, 0x3e, 0x8a, 0x7c, 0x16, 0x3c, 0xac, 0xa8, 0x0d, 0xbc,
  0x9f, 0xb9, 0x7e, 0xbc, 0x71, 0x01, 0x14, 0x3e, 0x55, 0x65, 0xb6, 0x3d,
  0x6e, 0x60, 0x3b, 0x3d, 0x4e, 0x59, 0xd7, 0xbc, 0x99, 0x98, 0x0f, 0x3e,
  0x24, 0xea, 0x3d, 0x3d, 0xae, 0x56, 0xb1, 0xbb, 0x8c, 0x7e, 0xf8, 0x3c,
  0x94, 0xef, 0xc7, 0x3d, 0x7a, 0xf8, 0x0a, 0x3e, 0x20, 0x2a, 0x1b, 0x3e,
  0x79, 0x5e, 0x82, 0xbc, 0x38, 0xe1, 0x33, 0x3d, 0xaa, 0x4f, 0x8f, 0x3d,
  0x7a, 0x2b, 0xa1, 0x3d, 0x60, 0x9f, 0xd6, 0x3c, 0x2e, 0x5d, 0x18, 0x3e,
  0x62, 0xde, 0xa1, 0xbc, 0xca, 0xa9, 0xce, 0x3c, 0xe9, 0x9b, 0x5a, 0x3d,
  0xfc, 0xae, 0x4a, 0xbd, 0x45, 0xc6, 0x23, 0xbd, 0x83, 0x14, 0x88, 0x3c,
  0x2a, 0x83, 0x36, 0x3c, 0x26, 0xe5, 0x19, 0x3b, 0xce, 0x37, 0x7b, 0x3d,
  0xb0, 0x7b, 0x88, 0xbc, 0x85, 0x39, 0x23, 0x3c, 0x95, 0x1c, 0xa8, 0xbd,
  0x37, 0xea, 0x6b, 0x3d, 0x80, 0xd0, 0x8f, 0xbd, 0x59, 0x4b, 0x6f, 0x3c,
  0xfe, 0x1f, 0x3c, 0xbd, 0x86, 0x96, 0x48, 0x3d, 0xf4, 0xa5, 0x50, 0xbd,
  0x6e, 0x5e, 0x15, 0x3d, 0x11, 0xe2, 0x17, 0x3d, 0x21, 0x60, 0x62, 0x3c,
  0x6b, 0xda, 0x43, 0x3d, 0x58, 0xd6, 0xce, 0xbb, 0xcb, 0xe7, 0xc8, 0x3d,
  0xdb, 0x8a, 0x06, 0x3e, 0x25, 0x62, 0x15, 0x3e, 0xb7, 0x56, 0x14, 0x3e,
  0x37, 0x2c, 0x3f, 0x3e, 0x86, 0x50, 0xa4, 0xba, 0xde, 0x87, 0x9d, 0x3d,
  0x81, 0x47, 0xc8, 0x3d, 0x16, 0xb9, 0xc0, 0x3d, 0x4d, 0x3a, 0xcb, 0x3d,
  0x2b, 0xa5, 0x05, 0x3d, 0xe6, 0x6e, 0x95, 0x3d, 0x93, 0x73, 0xd1, 0x3d,
  0xca, 0xfe, 0x31, 0x3e, 0x3e, 0xe8, 0x30, 0x3e, 0x30, 0x7a, 0xe5, 0x3d,
  0x12, 0xcb, 0x19, 0x3d, 0xaa, 0xac, 0x02, 0x3e, 0xfb, 0xf5, 0xaf, 0x3d,
  0xb4, 0x17, 0xba, 0x3d, 0xbb, 0x70, 0xa7, 0x3d, 0xc8, 0xc4, 0x06, 0x3e,
  0x36, 0x14, 0x28, 0x3e, 0xe1, 0xcc, 0x31, 0x3d, 0xb2, 0x60, 0xd9, 0x3d,
  0xa7, 0xd9, 0xaa, 0x3d, 0xeb, 0x16, 0x2d, 0x3d, 0x47, 0xd2, 0xef, 0x3b,
  0xf1, 0xb7, 0x21, 0x3e, 0xd2, 0x26, 0x48, 0x3c, 0xff, 0x90, 0x1c, 0x3e,
  0x18, 0x48, 0x94, 0x3d, 0x7d, 0xc1, 0x66, 0x3d, 0x83, 0x8b, 0xaa, 0x3d,
  0x9a, 0x2a, 0x7e, 0x3c, 0x02, 0x6d, 0xe8, 0xbb, 0xa5, 0xed, 0xcf, 0x3d,
  0xa2, 0x14, 0xed, 0x3c, 0x8d, 0xfa, 0xfe, 0x3c, 0xdf, 0xea, 0x90, 0xbd,
  0x23, 0x45, 0x56, 0xbb, 0x49, 0xa9, 0xd1, 0xbd, 0x86, 0x95, 0x13, 0x3d,
  0x17, 0x4a, 0x86, 0xbd, 0xcf, 0x17, 0xfb, 0xbc, 0x97, 0x36, 0xff, 0xbc,
  0xc3, 0x39, 0x92, 0x3d, 0x89, 0xe5, 0x92, 0xbd, 0xfe, 0xc8, 0x07, 0x3d,
  0xc9, 0xe1, 0x86, 0x3d, 0x53, 0x5e, 0xbd, 0x3b, 0x27, 0x53, 0xb5, 0x3c,
  0xc0, 0xe0, 0xd8, 0x3d, 0x5b, 0x36, 0xb7, 0x3d, 0x5f, 0xe2, 0x12, 0xbd,
  0x44, 0x3e, 0x38, 0xbc, 0x16, 0xe7, 0x08, 0x3e, 0x1a, 0x5b, 0x62, 0xbc,
  0x1e, 0xef, 0x27, 0x3d, 0x46, 0x33, 0xa2, 0x3d, 0x48, 0xd0, 0xf2, 0x3c,
  0xc9, 0xae, 0x7b, 0x3d, 0x7c, 0x94, 0x0a, 0x3e, 0xe5, 0x6f, 0xa0, 0x3d,
  0xd4, 0x2b, 0x96, 0x3d, 0x7e, 0x65, 0xe8, 0x3d, 0x4f, 0x9c, 0x1e, 0x3e,
  0x8d, 0x81, 0xd8, 0x3d, 0x44, 0x38, 0xd6, 0x3d, 0x1e, 0xb5, 0x3e, 0x3d,
  0x70, 0x34, 0x45, 0x3e, 0xb9, 0x9a, 0x36, 0x3b, 0x82, 0x7c, 0x50, 0x3c,
  0x24, 0x00, 0x38, 0x3e, 0xd4, 0x44, 0x11, 0x3e, 0x75, 0x09, 0x0e, 0x3e,
  0x68, 0x5e, 0xdc, 0x3d, 0xcb, 0xa4, 0x16, 0x3e, 0xe1, 0x9c, 0x78, 0x3d,
  0x0c, 0x3f, 0x99, 0xbc, 0x67, 0x9a, 0xd3, 0x3d, 0x2e, 0x88, 0xb4, 0x3d,
  0x5b, 0x35, 0xdb, 0x3d, 0x57, 0x8c, 0xbb, 0x3d, 0x1a, 0x70, 0xf2, 0x3d,
  0x68, 0xeb, 0x14, 0x3e, 0xa9, 0x71, 0x10, 0x3e, 0x50, 0xb6, 0xed, 0x3a,
  0x2d, 0x44, 0xa5, 0x3c, 0x7a, 0xcc, 0xa4, 0x3d, 0xdd, 0xc2, 0x18, 0x3d,
  0x49, 0xa1, 0x5d, 0xbc, 0xaa, 0x39, 0xf4, 0x3d, 0x5b, 0x2c, 0xe4, 0x3d,
  0xe0, 0x3d, 0x4c, 0x3d, 0xbc, 0xa6, 0x8a, 0x3d, 0x4f, 0xeb, 0x9f, 0x3d,
  0x80, 0x1a, 0xec, 0x3d, 0x74, 0x31, 0x11, 0x3c, 0x82, 0x90, 0x6e, 0xbd,
  0xe9, 0x33, 0x28, 0xbd, 0x7c, 0x26, 0x37, 0xbd, 0xbe, 0x87, 0x83, 0xbc,
  0xd3, 0x56, 0x93, 0x3d, 0xe0, 0xa5, 0xab, 0x3d, 0xe0, 0x69, 0x54, 0x3d,
  0xcb, 0x3d, 0xce, 0xbc, 0x9b, 0x05, 0x82, 0x3d, 0x53, 0x2a, 0x17, 0xbd,
  0xe6, 0xb4, 0x12, 0x3e, 0x49, 0x34, 0xaa, 0x3d, 0xc2, 0x4a, 0xee, 0xba,
  0xce, 0xe8, 0x22, 0x3c, 0x0e, 0x9b, 0x2d, 0xbd, 0x4e, 0xc8, 0xa4, 0x3d,
  0xfc, 0xf4, 0x84, 0x3d, 0x49, 0xff, 0x0b, 0x3e, 0x77, 0x50, 0x03, 0xbd,
  0x0d, 0x35, 0x08, 0x3e, 0x9d, 0xc1, 0xee, 0x3c, 0x90, 0x6b, 0xb2, 0x3b,
  0x0e, 0xd0, 0xdc, 0x3c, 0xe2, 0xd2, 0x0b, 0x3d, 0x56, 0x90, 0x13, 0x3e,
  0x06, 0x91, 0xbd, 0x3d, 0x6e, 0xea, 0xf9, 0x3d, 0x03, 0x56, 0x31, 0x3e,
  0xcb, 0x40, 0x83, 0xbc, 0x21, 0x2c, 0xc1, 0x3d, 0xb6, 0x8d, 0xf1, 0x3d,
  0x9a, 0x02, 0x2d, 0x3d, 0x58, 0x59, 0x8e, 0xbc, 0xd1, 0x4d, 0x29, 0x3e,
  0xb4, 0xe7, 0xf3, 0x3c, 0x3b, 0x1a, 0xbe, 0x3d, 0xae, 0x35, 0x85, 0xbc,
  0x36, 0xf2, 0xb0, 0x3d, 0x54, 0x41, 0x04, 0x3e, 0xe9, 0x05, 0x7e, 0xbb,
  0xe1, 0x18, 0x47, 0xbc, 0x29, 0xdf, 0xf3, 0x3b, 0x36, 0x8f, 0x05, 0x3e,
  0xb9, 0xc7, 0x6f, 0x3d, 0xed, 0xb0, 0x06, 0x3d, 0xa6, 0x4e, 0xc8, 0x3d,
  0xeb, 0xc4, 0xcd, 0x3c, 0x0d, 0xd7, 0x8e, 0xbb, 0x36, 0x3a, 0xe3, 0x3d,
  0xc1, 0x7b, 0x2e, 0x3e, 0xaa, 0xda, 0x36, 0x3c, 0x69, 0x84, 0x85, 0x3d,
  0x42, 0x84, 0x01, 0x3e, 0x2a, 0x72, 0xd1, 0x3d, 0x4d, 0xe2, 0x81, 0x3d,
  0x60, 0x48, 0x06, 0x3d, 0xb8, 0x5e, 0x20, 0xbb, 0x14, 0xa2, 0x21, 0x3e,
  0x8c, 0xc7, 0x35, 0x3d, 0x6e, 0x14, 0xf3, 0x3d, 0xa4, 0x69, 0x31, 0xbc,
  0x73, 0x2f, 0xb9, 0x3c, 0x02, 0x49, 0xcb, 0xbd, 0x86, 0xad, 0xd5, 0xbd,
  0x91, 0x9c, 0xed, 0xbb, 0xe5, 0xc1, 0x47, 0xbd, 0x36, 0x74, 0xb1, 0x3d,
  0xb6, 0x44, 0x2a, 0x3c, 0xb8, 0x95, 0x13, 0x3e, 0x54, 0x13, 0x32, 0xbc,
  0xce, 0x1f, 0x15, 0x3d, 0xa1, 0xb2, 0x23, 0x3d, 0xb5, 0xb6, 0x8f, 0x3c,
  0xe5, 0x25, 0xc6, 0x3d, 0x45, 0xe9, 0x37, 0x3d, 0xb2, 0xb7, 0x50, 0x3d,
  0x9a, 0xc2, 0xf5, 0x3d, 0x4f, 0x3c, 0x93, 0x3d, 0xd6, 0x8c, 0xc7, 0x3d,
  0x88, 0x07, 0xdc, 0x3c, 0x83, 0xcc, 0x6e, 0x3a, 0x2e, 0xdf, 0xf0, 0x3c,
  0x4d, 0xc0, 0x58, 0x3d, 0x4e, 0x8d, 0x9a, 0x3d, 0x91, 0xf5, 0x07, 0x3e,
  0xcd, 0x15, 0x76, 0x3d, 0x86, 0xcf, 0xc4, 0x3c, 0xf8, 0xe3, 0xee, 0x3c,
  0xe0, 0x36, 0xa1, 0x3c, 0x11, 0x59, 0x86, 0x3d, 0x9a, 0x43, 0xe2, 0x3c,
  0x00, 0x17, 0x90, 0x3d, 0x63, 0xc8, 0x2e, 0x3d, 0x88, 0x3b, 0x0e, 0x3d,
  0xc0, 0xa7, 0x83, 0x3d, 0x67, 0xc4, 0x9b, 0x3d, 0xd5, 0x97, 0xcb, 0x3d,
  0x7b, 0x69, 0x72, 0x3d, 0xc8, 0xda, 0xba, 0x3c, 0x44, 0xd4, 0xf6, 0x3d,
  0xdb, 0x2c, 0x23, 0x3d, 0x56, 0xfd, 0x14, 0x3e, 0x7d, 0x72, 0x05, 0x3e,
  0xdf, 0xc0, 0x18, 0x3d, 0xb4, 0x70, 0xb1, 0x3d, 0x7e, 0x09, 0xc8, 0x3d,
  0x4b, 0x48, 0x80, 0xbc, 0x37, 0xf6, 0x31, 0x3c, 0x4c, 0x3c, 0x31, 0x3d,
  0xa7, 0xf2, 0xde, 0x3d, 0xbb, 0xb3, 0x32, 0x3d, 0xa9, 0x55, 0xda, 0x3d,
  0xe4, 0x34, 0xda, 0x3d, 0xf8, 0xd1, 0x0c, 0x3e, 0x86, 0x14, 0xe9, 0x3d,
  0x3a, 0x84, 0x39, 0x3c, 0x2c, 0xfb, 0x0a, 0x3d, 0x87, 0x26, 0x98, 0x3d,
  0xdf, 0x45, 0xc6, 0x3c, 0xa2, 0x2c, 0xe0, 0x3d, 0x08, 0x81, 0x19, 0x3d,
  0xf4, 0x8b, 0x94, 0x3c, 0x3e, 0x3f, 0x9b, 0xbd, 0x4e, 0x84, 0x81, 0xbc,
  0x6c, 0xa0, 0xae, 0x3d, 0x6f, 0x84, 0x3c, 0x3d, 0xf3, 0x5e, 0x3a, 0x3d,
  0x9b, 0x0b, 0x97, 0xbd, 0x1b, 0x1c, 0x5e, 0xbb, 0x27, 0x56, 0xb7, 0x3d,
  0xa9, 0xf2, 0x20, 0xbc, 0x51, 0xf5, 0x2d, 0x3e, 0x1d, 0x9e, 0xd1, 0x3d,
  0xfd, 0x5c, 0xa8, 0x3d, 0x8c, 0x84, 0x86, 0xbd, 0xdf, 0xe1, 0x24, 0xbd,
  0x5f, 0x07, 0x49, 0x3c, 0x59, 0x06, 0xbd, 0x3c, 0x99, 0xeb, 0x61, 0xbd,
  0x78, 0x48, 0xae, 0x3d, 0xb3, 0xb6, 0xc1, 0x3d, 0xec, 0x7c, 0x96, 0x3d,
  0x7b, 0x65, 0xfb, 0x3d, 0x6c, 0xc7, 0x0f, 0x3e, 0x4d, 0x22, 0x70, 0x3c,
  0xad, 0xbd, 0x80, 0x3d, 0xf2, 0xce, 0x1e, 0x3d, 0xf2, 0x67, 0xc8, 0x3b,
  0xed, 0xa1, 0x0a, 0x3e, 0x3b, 0xc4, 0xd5, 0x3d, 0x76, 0x03, 0x54, 0x3c,
  0x0a, 0xb2, 0x47, 0x3d, 0xf3, 0x82, 0x5d, 0x3c, 0x37, 0x77, 0xa1, 0x3d,
  0xfb, 0xfc, 0x04, 0xbc, 0xfe, 0xe3, 0x15, 0x3e, 0x11, 0x5f, 0x44, 0x3d,
  0x95, 0xf3, 0xfc, 0x3d, 0x6e, 0x97, 0x60, 0x3d, 0x92, 0x9f, 0xc8, 0xbb,
  0x9b, 0xde, 0xe2, 0x3d, 0x77, 0xef, 0x18, 0x3e, 0x07, 0xab, 0xc1, 0x3d,
  0xd3, 0x63, 0x3c, 0x3c, 0x4a, 0xef, 0x8f, 0x3d, 0x15, 0x7c, 0x42, 0x3e,
  0x55, 0x4f, 0x35, 0x3d, 0x87, 0xb6, 0x8a, 0x3d, 0xa2, 0x07, 0x41, 0x3d,
  0x37, 0x8c, 0x33, 0x3e, 0xe7, 0x5d, 0x95, 0x3d, 0xdd, 0x80, 0x48, 0xbb,
  0x5d, 0x2c, 0x7f, 0x3d, 0x21, 0x36, 0xf7, 0x3d, 0xa3, 0x0b, 0x11, 0x3d,
  0xac, 0x2c, 0xb9, 0x3d, 0xa7, 0xfb, 0xe0, 0x3d, 0xca, 0x5f, 0x0e, 0x3d,
  0xb3, 0xdd, 0x44, 0xbd, 0x66, 0x5e, 0x6c, 0x3d, 0xdb, 0xdf, 0xbf, 0x3c,
  0xdb, 0x32, 0x05, 0xbe, 0x3c, 0xed, 0x75, 0x3d, 0xdc, 0xd0, 0x79, 0xbd,
  0xd0, 0x85, 0xe2, 0xbc, 0x4a, 0xa6, 0x64, 0x3d, 0xa9, 0x9e, 0x25, 0xbc,
  0xc7, 0x45, 0x92, 0xbd, 0x77, 0x18, 0x20, 0xbe, 0xd2, 0x9b, 0xab, 0x3d,
  0xef, 0xd1, 0x23, 0xbe, 0x2b, 0xd1, 0x40, 0xbe, 0x3e, 0x09, 0x50, 0xbe,
  0x2e, 0xf7, 0x08, 0xbd, 0xa7, 0xce, 0xb3, 0xbe, 0x61, 0x70, 0x62, 0xbe,
  0xea, 0x4a, 0x04, 0xbd, 0xbc, 0xe2, 0x90, 0x3c, 0xcd, 0x29, 0x34, 0xbe,
  0xd2, 0xb8, 0x59, 0xbe, 0xe2, 0x1c, 0x3d, 0xbd, 0x2c, 0x83, 0x33, 0x3c,
  0x7f, 0xf0, 0x0f, 0xbc, 0x67, 0x8e, 0x4c, 0xbd, 0xf6, 0x4d, 0x19, 0x3d,
  0x8b, 0xe9, 0xd0, 0x3d, 0xa0, 0x19, 0x69, 0xbd, 0x60, 0x9d, 0x29, 0x3b,
  0xd6, 0x01, 0x80, 0x3d, 0xa6, 0x91, 0xb5, 0x3d, 0x36, 0xcf, 0x96, 0x3d,
  0x41, 0x21, 0x20, 0x3d, 0x41, 0xa6, 0x62, 0x38, 0x62, 0x89, 0xa0, 0x3d,
  0xa4, 0x9a, 0x1a, 0x3d, 0xb3, 0x5b, 0x21, 0x3d, 0xa8, 0x4c, 0x43, 0xbd,
  0xe5, 0x18, 0x84, 0x3d, 0xad, 0xa6, 0xaa, 0x3d, 0xc6, 0xdc, 0x0b, 0x3e,
  0xd1, 0xcd, 0x32, 0x3d, 0xcb, 0x6a, 0x2f, 0x3e, 0xb6, 0x60, 0xf0, 0x3c,
  0xce, 0x65, 0x89, 0x3c, 0x6b, 0x3b, 0x57, 0x3c, 0xd8, 0xf1, 0xb9, 0x3d,
  0xcf, 0x83, 0xcc, 0xbd, 0x7d, 0x14, 0x08, 0xbd, 0xe7, 0x8a, 0x8a, 0xbd,
  0x00, 0xd3, 0x91, 0x3d, 0x48, 0x66, 0x76, 0xbd, 0x8a, 0x51, 0x18, 0xbd,
  0xd2, 0x91, 0x75, 0xbd, 0x40, 0xb8, 0x04, 0x3e, 0xd1, 0x88, 0x93, 0xbd,
  0x2e, 0x3e, 0xee, 0xbd, 0x40, 0x77, 0x33, 0xbd, 0x91, 0x96, 0x36, 0x3e,
  0x72, 0x86, 0x46, 0xbd, 0x5a, 0x3f, 0xa5, 0xbd, 0x4c, 0xcb, 0xcb, 0xbd,
  0xbd, 0x91, 0x85, 0x3d, 0xec, 0x1a, 0x26, 0xbd, 0x64, 0x87, 0x49, 0xbd,
  0x82, 0x31, 0x5e, 0xbd, 0x1a, 0xaa, 0x00, 0xbc, 0x24, 0xfe, 0x03, 0x3d,
  0x77, 0xef, 0x0b, 0xbd, 0x5b, 0xfb, 0x47, 0xbe, 0x1c, 0x0e, 0xaf, 0xbc,
  0xc8, 0xbb, 0xc3, 0xbd, 0xa8, 0xcc, 0xfe, 0xbd, 0x8f, 0xcd, 0x10, 0xbe,
  0xe7, 0x8b, 0xce, 0x3c, 0x37, 0xd3, 0x70, 0xbe, 0x49, 0x5f, 0x1a, 0xbe,
  0xdd, 0xbd, 0x23, 0xbd, 0x96, 0x2d, 0x2b, 0xbc, 0x31, 0x8d, 0x7b, 0xbe,
  0x83, 0x64, 0x86, 0xbd, 0x3c, 0x35, 0x01, 0x3c, 0xda, 0x7a, 0x85, 0x3c,
  0x4e, 0x82, 0xc5, 0xbd, 0x55, 0xf5, 0x1a, 0x3d, 0x78, 0xdf, 0x26, 0x3d,
  0xba, 0x71, 0x62, 0x3d, 0xaf, 0xf6, 0x79, 0xbd, 0xc4, 0xdb, 0xb2, 0x3c,
  0x0b, 0x45, 0x99, 0x3d, 0x38, 0x20, 0xf1, 0x3d, 0x7a, 0x89, 0xa7, 0x3d,
  0x17, 0x84, 0x8a, 0x3d, 0x4e, 0x42, 0xd2, 0x3d, 0x45, 0x9f, 0x8f, 0x3c,
  0xb8, 0x72, 0xd0, 0x3d, 0x87, 0x6e, 0x3b, 0x3d, 0x6e, 0x86, 0x6d, 0x3d,
  0x2c, 0x53, 0xb1, 0x3c, 0xab, 0x52, 0x91, 0x3d, 0x56, 0x6e, 0x19, 0x3d,
  0x43, 0x2b, 0xcf, 0xbc, 0x7b, 0x18, 0x3d, 0x3d, 0xfd, 0xed, 0x29, 0xbd,
  0xb9, 0xf6, 0xec, 0xbb, 0xc4, 0xfb, 0x8d, 0x3c, 0x72, 0x3d, 0x2c, 0x3c,
  0x7a, 0x9c, 0x92, 0xbc, 0x31, 0x87, 0x37, 0xbd, 0xec, 0x80, 0x71, 0x3d,
  0xb1, 0xc5, 0x51, 0x3d, 0x28, 0xcd, 0x67, 0xbd, 0xff, 0xea, 0x95, 0xbb,
  0x56, 0x00, 0xc7, 0x3c, 0xe1, 0x33, 0x07, 0x3e, 0x90, 0x51, 0xb6, 0xbc,
  0x9f, 0x3d, 0x4f, 0x3d, 0x59, 0xf2, 0x54, 0x3d, 0x02, 0xc9, 0x3b, 0x3e,
  0xa5, 0x7d, 0x3e, 0x3d, 0xe2, 0x7d, 0xeb, 0xbc, 0x2e, 0x00, 0xde, 0xbd,
  0x50, 0xd2, 0xef, 0x3d, 0x4a, 0x51, 0x72, 0xbd, 0x14, 0x6f, 0xe4, 0xbc,
  0x8e, 0xf8, 0x42, 0xbd, 0x19, 0x50, 0x74, 0x3d, 0xdd, 0x57, 0xfb, 0x3c,
  0x33, 0x5e, 0xcc, 0x3d, 0x56, 0x61, 0x56, 0xbd, 0xf1, 0x32, 0x21, 0x3d,
  0x75, 0x33, 0x2b, 0x3d, 0x8b, 0xfd, 0x97, 0xbd, 0xc0, 0x52, 0x05, 0xbe,
  0xff, 0xf2, 0xe2, 0x3d, 0x2c, 0x15, 0x2a, 0xbe, 0x97, 0x25, 0x84, 0xbd,
  0x99, 0x34, 0xbc, 0xbd, 0x87, 0xec, 0x01, 0x3e, 0xa8, 0xa5, 0x66, 0xbd,
  0x7e, 0x1e, 0x08, 0xbe, 0x62, 0xa2, 0xf9, 0xbc, 0x9c, 0x62, 0xf7, 0x3d,
  0x9e, 0x49, 0xe5, 0xbd, 0x65, 0xdc, 0x00, 0xbe, 0x9b, 0xd3, 0x96, 0x3d,
  0xdb, 0xbe, 0x97, 0x3d, 0xbb, 0x01, 0xa7, 0x3d, 0xc7, 0x29, 0x34, 0x3c,
  0x47, 0xd5, 0x0b, 0x3d, 0xe8, 0xdf, 0x4a, 0x3c, 0xff, 0xbf, 0x18, 0xbd,
  0x8b, 0xa1, 0xf0, 0x3d, 0x9e, 0x51, 0x09, 0xbc, 0x4c, 0xb1, 0x9a, 0xbb,
  0x83, 0x64, 0xf5, 0x3d, 0x85, 0x9e, 0x8c, 0xbc, 0xf0, 0xdb, 0x2d, 0x3d,
  0xfb, 0x8a, 0x09, 0x3e, 0xba, 0xb4, 0x63, 0x3d, 0x5f, 0x2e, 0x1c, 0x3c,
  0xc1, 0x2e, 0x24, 0xbd, 0xe1, 0x03, 0xfd, 0x3c, 0xf8, 0x75, 0x6e, 0x3d,
  0xa4, 0xf8, 0x8a, 0x3c, 0x5f, 0xbb, 0x69, 0x3d, 0x13, 0x03, 0x99, 0x3d,
  0x8a, 0x25, 0x99, 0xbc, 0x6f, 0xb0, 0x3a, 0xbc, 0x23, 0x44, 0xae, 0xbb,
  0xeb, 0x5a, 0x6e, 0x3d, 0x9f, 0x0a, 0x86, 0x3c, 0xe0, 0x45, 0xc1, 0xbc,
  0xca, 0x4f, 0xb2, 0x3d, 0x0f, 0xd8, 0xaa, 0x3d, 0xc3, 0x4e, 0xb1, 0x3b,
  0xd2, 0x2c, 0xfa, 0x3b, 0x3c, 0xe7, 0x22, 0xbd, 0x0b, 0x83, 0x27, 0x3e,
  0x47, 0xc6, 0x0c, 0xbd, 0x71, 0x51, 0x3a, 0x3d, 0xd3, 0x4c, 0x07, 0x3d,
  0xa2, 0x03, 0xd5, 0x3d, 0x8a, 0x71, 0x32, 0x3d, 0x9d, 0x27, 0x9f, 0xbd,
  0x39, 0x8f, 0xc8, 0x3d, 0xbe, 0x58, 0xf4, 0x3d, 0x6f, 0x82, 0x9b, 0x3d,
  0xa5, 0x75, 0x74, 0x3d, 0x3d, 0xba, 0xca, 0xbc, 0x2b, 0xd6, 0x05, 0x3d,
  0x00, 0x00, 0xf3, 0xba, 0xdc, 0xee, 0x75, 0x3d, 0x17, 0xc9, 0x90, 0xbd,
  0xe0, 0x51, 0xae, 0x3d, 0x98, 0x3f, 0x3c, 0xbc, 0x97, 0x2b, 0x05, 0xbe,
  0x63, 0xd1, 0x05, 0xbd, 0xf5, 0x57, 0x60, 0x3d, 0xe9, 0x0d, 0x41, 0x3a,
  0x28, 0x82, 0x0f, 0xbd, 0xfd, 0xc8, 0x45, 0x3c, 0x2f, 0x5e, 0x06, 0x3e,
  0xdb, 0x0f, 0xa2, 0xbc, 0x1f, 0xee, 0x40, 0x3d, 0x6e, 0x2b, 0x5b, 0x3d,
  0x06, 0x8e, 0xde, 0x3d, 0x7c, 0xcd, 0xa2, 0x3d, 0x54, 0x4c, 0x4f, 0x3d,
  0x9a, 0x09, 0x16, 0xbc, 0xdc, 0xb6, 0xb5, 0x3d, 0x42, 0x43, 0xfa, 0x3c,
  0x6a, 0xd8, 0x51, 0xb9, 0xf9, 0x77, 0x19, 0x3d, 0xda, 0x07, 0x12, 0x3e,
  0xe6, 0x10, 0x83, 0xbc, 0xb1, 0x16, 0x43, 0x3c, 0x3e, 0x9c, 0xc1, 0xbc,
  0x79, 0x7c, 0x55, 0x3d, 0x17, 0xb6, 0xdf, 0x3d, 0xc6, 0x67, 0x14, 0x3d,
  0x46, 0xc9, 0xfd, 0x3c, 0x5f, 0x18, 0xea, 0x3d, 0x43, 0xb1, 0xb4, 0x3c,
  0x54, 0x33, 0x9f, 0xbc, 0x79, 0x08, 0x96, 0xbc, 0xcb, 0xe1, 0xdf, 0x3d,
  0x53, 0x1b, 0x81, 0x3d, 0x60, 0x3c, 0xd9, 0x3d, 0x9d, 0x48, 0x82, 0x3c,
  0x1b, 0xed, 0x2b, 0x3e, 0x59, 0xb8, 0x01, 0xbd, 0xed, 0x07, 0x13, 0xbc,
  0x51, 0x83, 0x0d, 0xbd, 0x48, 0x60, 0xd9, 0x3d, 0x08, 0xfa, 0xcc, 0x3d,
  0x2d, 0xd1, 0xcb, 0x3d, 0x40, 0x56, 0x7d, 0x3d, 0x63, 0x27, 0xe9, 0x3d,
  0x06, 0xc6, 0xc1, 0x3c, 0x06, 0x06, 0x94, 0x3d, 0x21, 0xcd, 0xbe, 0xbc,
  0x0f, 0x73, 0xb3, 0xbc, 0x29, 0x6b, 0xfc, 0xbc, 0x05, 0xdf, 0x93, 0xbd,
  0xce, 0x60, 0xcc, 0x3c, 0x00, 0x51, 0x00, 0x3e, 0x29, 0xe1, 0x05, 0x3e,
  0xee, 0xc1, 0x42, 0x3e, 0x35, 0xa0, 0x9d, 0x3d, 0xf5, 0xf0, 0xba, 0x3d,
  0x62, 0x02, 0x22, 0x3d, 0xb0, 0x31, 0x98, 0x3d, 0x7f, 0x61, 0xea, 0xbb,
  0xdd, 0x38, 0xf2, 0xbc, 0xf3, 0xcf, 0x48, 0x3c, 0x8b, 0x03, 0x84, 0xbd,
  0x52, 0x2b, 0xb6, 0xbd, 0xf4, 0xb4, 0x9b, 0xbb, 0x0e, 0x8d, 0x87, 0xbd,
  0x1b, 0x26, 0xb0, 0xbd, 0x5b, 0x81, 0x72, 0xbd, 0x3a, 0xf0, 0x41, 0x3d,
  0xd2, 0xa1, 0xba, 0xbd, 0x27, 0xd1, 0x55, 0xbd, 0x64, 0xc5, 0x5a, 0x3d,
  0x72, 0x0b, 0x1d, 0x3e, 0xdb, 0xac, 0x6e, 0xbb, 0xb2, 0xa9, 0x8b, 0xbc,
  0xb1, 0x88, 0x1d, 0xbc, 0x6a, 0xe6, 0xdd, 0x3d, 0xfe, 0xa7, 0x00, 0x3d,
  0x73, 0x00, 0x53, 0x3d, 0x3c, 0x72, 0x61, 0x3b, 0x54, 0x2f, 0xde, 0x3d,
  0x71, 0x9d, 0x44, 0x3c, 0x8f, 0x42, 0x65, 0x3c, 0x5d, 0x8a, 0x1f, 0x3d,
  0xbf, 0xae, 0x9c, 0x3d, 0x16, 0xac, 0x63, 0x3c, 0x28, 0x86, 0xb8, 0x3d,
  0x03, 0xc6, 0x14, 0xbd, 0x42, 0xe4, 0x87, 0x3c, 0x5d, 0x7f, 0xd7, 0xbc,
  0x12, 0x08, 0x8e, 0xbc, 0x1d, 0xc4, 0xac, 0x3c, 0x4d, 0xee, 0xff, 0x3d,
  0x6a, 0x31, 0xfa, 0x3d, 0xdc, 0xa1, 0xb4, 0x3d, 0xf3, 0x00, 0xd6, 0x3d,
  0xfb, 0x42, 0xad, 0x3d, 0x27, 0x71, 0x56, 0x3d, 0xff, 0xad, 0x9b, 0xbc,
  0x5d, 0x88, 0xc2, 0x3d, 0xde, 0xda, 0x61, 0x3d, 0x58, 0x22, 0x30, 0x3d,
  0xe5, 0xfa, 0xf9, 0x3d, 0xf0, 0x83, 0x74, 0x3d, 0x7e, 0x02, 0xb3, 0x3d,
  0xff, 0xa0, 0x24, 0x3d, 0x24, 0x9d, 0x4a, 0xbd, 0x2e, 0x98, 0xa5, 0x3d,
  0x11, 0x20, 0xc6, 0x3a, 0x75, 0x4f, 0x56, 0xbd, 0xb3, 0xb7, 0xed, 0xbc,
  0x04, 0x61, 0x1e, 0x3d, 0x6c, 0x84, 0x07, 0x3d, 0x3d, 0xc8, 0x9a, 0x3d,
  0x3b, 0x2d, 0xb3, 0x3d, 0x10, 0x83, 0xf1, 0x3d, 0xe4, 0xff, 0x0f, 0x3c,
  0x70, 0xeb, 0x33, 0x3d, 0x72, 0x25, 0x08, 0x3e, 0xd4, 0xa0, 0x44, 0xbd,
  0x7b, 0x25, 0x3e, 0x3d, 0xb4, 0x2d, 0x46, 0xbd, 0x34, 0xec, 0x14, 0xbb,
  0x25, 0x52, 0x86, 0x3d, 0xdc, 0x56, 0x4d, 0x3d, 0x4d, 0x57, 0x66, 0xbd,
  0x3a, 0x34, 0xce, 0x3c, 0xe7, 0x78, 0x7a, 0xbd, 0xd2, 0xe5, 0x08, 0x3e,
  0xb3, 0x37, 0x15, 0x3b, 0x25, 0xe3, 0xd4, 0xbb, 0xd6, 0x9b, 0x7c, 0x3d,
  0x64, 0xbc, 0x9a, 0x3d, 0x0c, 0xae, 0xfe, 0x3d, 0x69, 0x32, 0x36, 0x3b,
  0x4e, 0x8b, 0x90, 0xbc, 0xaf, 0x51, 0x03, 0x3e, 0xc2, 0xd4, 0xbe, 0x3c,
  0x18, 0xc5, 0x81, 0x3c, 0xec, 0xe5, 0x7d, 0x3d, 0x36, 0xf4, 0xa8, 0x3d,
  0xed, 0x62, 0x05, 0x3d, 0x0d, 0xb3, 0x43, 0x3d, 0x59, 0x93, 0x8b, 0x3d,
  0xdf, 0xc5, 0x74, 0xbc, 0x7f, 0x16, 0xa3, 0x3d, 0x68, 0x95, 0x12, 0x3d,
  0x0d, 0x39, 0xe8, 0x3d, 0x4b, 0xd4, 0xb9, 0x3d, 0xac, 0x98, 0x51, 0x3d,
  0x86, 0xa8, 0x08, 0xbd, 0x41, 0x24, 0x84, 0x3d, 0x50, 0x42, 0x3f, 0x3d,
  0x88, 0xf6, 0x2d, 0x3d, 0x27, 0x13, 0x81, 0x3d, 0x53, 0x4f, 0x22, 0xbd,
  0x6e, 0xc1, 0x36, 0x3d, 0x5f, 0x36, 0x8f, 0x3d, 0xd1, 0x67, 0x86, 0x3d,
  0xb7, 0xe8, 0x95, 0x3d, 0x53, 0x84, 0x18, 0x3e, 0x2f, 0xfa, 0x08, 0xbd,
  0xba, 0x8f, 0x8d, 0xbc, 0x3e, 0x4e, 0x70, 0xbb, 0x26, 0x33, 0x1d, 0x3d,
  0x9a, 0x66, 0xd9, 0xbb, 0xdf, 0x40, 0x92, 0xbd, 0x7a, 0x22, 0xd2, 0x3d,
  0xfa, 0xce, 0xaa, 0xbc, 0x8f, 0x98, 0x28, 0xbd, 0x86, 0xa9, 0xb5, 0x3d,
  0xb0, 0x09, 0x23, 0x3e, 0xc2, 0xc2, 0xed, 0x3c, 0x85, 0x39, 0x39, 0x3d,
  0x0c, 0x2b, 0x12, 0x3c, 0x36, 0xb5, 0x1b, 0xbc, 0xeb, 0xca, 0x84, 0x3c,
  0x5f, 0xe4, 0x85, 0x3c, 0x59, 0x08, 0x96, 0x3d, 0xd9, 0xc7, 0x18, 0x3d,
  0x52, 0x7e, 0xbc, 0x3c, 0x62, 0xe8, 0xad, 0xbc, 0x71, 0xe1, 0x40, 0x3d,
  0x1e, 0x85, 0x2d, 0xbd, 0xbc, 0x7b, 0x31, 0x3d, 0xa0, 0x97, 0x13, 0xbd,
  0x02, 0x77, 0xf4, 0x3c, 0x15, 0xfd, 0xbb, 0xbc, 0xc3, 0xb4, 0xc4, 0xbb,
  0x2a, 0x0d, 0x99, 0x3b, 0xdf, 0xba, 0xac, 0x3c, 0xbe, 0xbd, 0x8e, 0x3d,
  0xf6, 0xfd, 0xaf, 0x3d, 0x49, 0xe6, 0x1b, 0x3d, 0x58, 0x37, 0x25, 0x3c,
  0x69, 0x58, 0x3a, 0x3d, 0xc4, 0x01, 0x76, 0x3d, 0x94, 0xd6, 0x91, 0x3d,
  0xe5, 0x5a, 0x63, 0xbc, 0xab, 0xec, 0x2d, 0xbb, 0x8b, 0x27, 0xae, 0x3d,
  0xb9, 0xe4, 0xdd, 0xbc, 0x52, 0x5a, 0xdd, 0x3d, 0xec, 0x23, 0x50, 0xbd,
  0x3c, 0x2d, 0x7e, 0x3d, 0x0d, 0x75, 0x88, 0x3d, 0xbe, 0x56, 0x83, 0xbb,
  0xb3, 0xf9, 0x23, 0x3d, 0x74, 0xda, 0x2a, 0x3d, 0x18, 0xad, 0x55, 0xbd,
  0x0c, 0x9e, 0xee, 0x3c, 0x11, 0xf8, 0x65, 0x3d, 0xbf, 0xfa, 0x12, 0x3e,
  0xc6, 0x60, 0xa5, 0x3d, 0xef, 0xe1, 0x72, 0x3d, 0xd7, 0x51, 0x1f, 0xbd,
  0x70, 0x87, 0x8b, 0x3d, 0x9e, 0x44, 0xf6, 0xbc, 0x07, 0x1c, 0xca, 0xbc,
  0xc8, 0x33, 0xaf, 0x3d, 0xeb, 0x66, 0xb0, 0x3d, 0x42, 0xe4, 0x21, 0xbd,
  0xae, 0x04, 0x0b, 0xbd, 0x95, 0xb2, 0x6f, 0xbd, 0x02, 0xbc, 0xcf, 0x3d,
  0xa4, 0x34, 0xc9, 0x3c, 0x3f, 0x5f, 0xb3, 0x3c, 0xc9, 0xea, 0xae, 0x3d,
  0x60, 0x4b, 0xcf, 0x3c, 0xb4, 0x7b, 0x33, 0x3b, 0x85, 0x1f, 0x9b, 0x3c,
  0x9d, 0xc5, 0xe6, 0x3c, 0x82, 0xd7, 0x61, 0x3d, 0xc4, 0x7b, 0x03, 0xbd,
  0xd9, 0x47, 0xa2, 0x3d, 0xb4, 0xa6, 0x3c, 0x3d, 0x92, 0x0c, 0x80, 0x3d,
  0x02, 0x9a, 0xb6, 0x3d, 0xbc, 0x5e, 0xb7, 0x3d, 0xdb, 0xa7, 0x0b, 0x3d,
  0x5f, 0x76, 0x95, 0xbc, 0xf8, 0x64, 0x5b, 0xbd, 0x1c, 0xbd, 0x84, 0xbd,
  0x39, 0x1f, 0xfc, 0x3c, 0xc8, 0x72, 0xc9, 0x3d, 0xd1, 0x0d, 0xe5, 0xbd,
  0x25, 0xbd, 0x25, 0x3d, 0xc0, 0x7e, 0x21, 0x3d, 0x95, 0x0b, 0x8f, 0x3d,
  0xfb, 0xe8, 0x16, 0xbc, 0x40, 0x9b, 0xa9, 0xbc, 0x05, 0x66, 0x05, 0xbd,
  0xf0, 0x05, 0x92, 0x3d, 0xce, 0xd8, 0xb6, 0x39, 0xed, 0xa5, 0x05, 0x3c,
  0xc8, 0x81, 0x31, 0x3c, 0xeb, 0x81, 0xa1, 0x3d, 0xf1, 0xe6, 0x75, 0x3d,
  0x74, 0x3c, 0x86, 0x3c, 0xfb, 0x24, 0x5b, 0x3c, 0x67, 0x55, 0xb1, 0x3d,
  0x24, 0x3f, 0x83, 0xbd, 0x9e, 0xf8, 0x11, 0xbd, 0x61, 0x02, 0x9c, 0xbd,
  0x26, 0x49, 0x94, 0x3d, 0x5b, 0x68, 0x6b, 0x3d, 0x66, 0x9c, 0xb8, 0xbd,
  0x4c, 0x3e, 0x9e, 0x3d, 0x85, 0xea, 0x5d, 0x3c, 0xf5, 0x6f, 0xa9, 0x3d,
  0xd6, 0xb4, 0x0a, 0xbd, 0xf7, 0xd9, 0x93, 0x3c, 0x01, 0x3a, 0x1a, 0x3d,
  0x91, 0xb9, 0xaf, 0x3d, 0x40, 0xa8, 0xc7, 0x3d, 0x52, 0xa0, 0xbe, 0xbc,
  0x18, 0x6d, 0x03, 0x3e, 0x41, 0x02, 0x80, 0x3d, 0xea, 0x8b, 0x32, 0x3d,
  0x04, 0x42, 0xd2, 0xbc, 0xef, 0x60, 0x13, 0x3e, 0x3a, 0x95, 0x92, 0x3b,
  0xcf, 0x5e, 0x20, 0x3d, 0x92, 0xea, 0x8f, 0x3d, 0xb4, 0x25, 0x18, 0x3d,
  0x46, 0xcd, 0x38, 0xbc, 0xb1, 0x29, 0x0b, 0xbd, 0x83, 0x13, 0x8f, 0x3d,
  0xe9, 0xec, 0x17, 0x3d, 0xf2, 0x68, 0x83, 0x3d, 0x6d, 0x09, 0x02, 0xbd,
  0x27, 0x64, 0x02, 0x3e, 0xda, 0x0c, 0x23, 0x38, 0x2a, 0x24, 0xe4, 0x3d,
  0x26, 0x64, 0xd5, 0x3d, 0x4f, 0xc1, 0xa2, 0x3d, 0x1b, 0xc7, 0xaf, 0x3d,
  0xf9, 0x4f, 0x18, 0x3e, 0x63, 0x1a, 0xa4, 0x3d, 0x93, 0x74, 0x8a, 0xbd,
  0x6e, 0xa0, 0xeb, 0x3d, 0xf0, 0x99, 0x96, 0x39, 0x1c, 0xa9, 0x67, 0xbb,
  0x2d, 0x30, 0x25, 0xbd, 0x14, 0x4c, 0xbe, 0x3d, 0x3a, 0x08, 0x15, 0x3c,
  0xed, 0xef, 0x95, 0x3c, 0x44, 0x6d, 0x0f, 0xbc, 0x73, 0x04, 0x52, 0x3d,
  0x79, 0x93, 0x56, 0xbd, 0x8a, 0x6c, 0xa6, 0xbd, 0xbc, 0x86, 0x17, 0x3d,
  0xef, 0xcc, 0x39, 0x3d, 0xbf, 0xe8, 0xde, 0xbb, 0xc7, 0x85, 0x2a, 0x3d,
  0xed, 0x2b, 0x11, 0x3d, 0x0a, 0x47, 0x70, 0x3d, 0x15, 0xe1, 0xe0, 0x3b,
  0xcd, 0x23, 0xbf, 0xbc, 0x15, 0x31, 0x57, 0x3d, 0x4f, 0x61, 0x9f, 0x3d,
  0x65, 0x84, 0x10, 0xbd, 0x55, 0x74, 0xc0, 0x3d, 0x8c, 0xb7, 0x70, 0x3d,
  0xeb, 0x31, 0x27, 0x3e, 0x17, 0x2e, 0xbc, 0x3c, 0xdc, 0x6c, 0xce, 0x3c,
  0x1c, 0x75, 0xce, 0x3d, 0x03, 0x3f, 0x98, 0x3d, 0x8f, 0x8f, 0xe1, 0x3d,
  0x14, 0x9d, 0xa1, 0x3d, 0xec, 0xba, 0x26, 0xbc, 0xa1, 0x83, 0x15, 0x3d,
  0x21, 0x9e, 0xa6, 0x3c, 0x6e, 0xf6, 0x26, 0xbb, 0x49, 0x2b, 0x29, 0x3d,
  0xbb, 0x96, 0x6a, 0x3d, 0xe0, 0xfe, 0xa4, 0x3d, 0xa4, 0xc1, 0xc8, 0x3d,
  0x2c, 0x5c, 0xfb, 0xbc, 0x57, 0x72, 0x17, 0x3e, 0xf2, 0x50, 0x80, 0x3d,
  0xb4, 0x74, 0x62, 0xbd, 0xe1, 0xdc, 0x63, 0xba, 0x4e, 0x36, 0x0c, 0x3e,
  0x4d, 0xb8, 0x94, 0xbc, 0x58, 0xce, 0x56, 0xbc, 0x82, 0xd9, 0xd0, 0x3d,
  0xdf, 0x09, 0x1e, 0x3d, 0x17, 0x05, 0x5f, 0x3d, 0xf3, 0x4a, 0x76, 0x3d,
  0x10, 0x4a, 0x99, 0x3b, 0x34, 0x8c, 0x07, 0x3c, 0x86, 0xab, 0x10, 0x3d,
  0x52, 0xb5, 0x0a, 0x3e, 0x1e, 0x84, 0xdb, 0x3d, 0x49, 0x5f, 0x49, 0x3d,
  0x4a, 0xb4, 0xa3, 0x3d, 0x74, 0xea, 0x06, 0x3e, 0x5e, 0x67, 0x42, 0x3c,
  0xca, 0x5f, 0xd0, 0x3d, 0x5f, 0x4e, 0x01, 0xbc, 0xa9, 0x16, 0xac, 0xbc,
  0x37, 0xb4, 0xe3, 0x3d, 0xc7, 0x62, 0x08, 0x3e, 0xf0, 0x27, 0xaa, 0x3d,
  0xfc, 0x98, 0x6b, 0xbb, 0xbe, 0x55, 0xd8, 0x3d, 0x43, 0xda, 0x83, 0x3d,
  0xc3, 0xdc, 0xae, 0x3d, 0x61, 0xec, 0xf1, 0x3c, 0xd4, 0x8f, 0x71, 0xb8,
  0xfd, 0x93, 0x00, 0x3e, 0x1b, 0x72, 0x05, 0x3d, 0xc3, 0x14, 0x65, 0x3d,
  0x1a, 0xe0, 0x3c, 0xbd, 0xf2, 0x58, 0x16, 0x3e, 0x65, 0xc5, 0x5e, 0xbc,
  0x74, 0x98, 0xbb, 0x3d, 0x1f, 0x93, 0x36, 0xbd, 0xd0, 0x37, 0x13, 0x3e,
  0x71, 0x7d, 0xd4, 0x3d, 0x8a, 0x5b, 0xa8, 0x3d, 0xdb, 0x36, 0x1f, 0x3d,
  0x81, 0x37, 0x4e, 0x3d, 0x34, 0x4b, 0x80, 0xbc, 0x7f, 0x2c, 0xe9, 0x3d,
  0x9c, 0x6c, 0x03, 0xbd, 0x61, 0x95, 0x34, 0x3d, 0xdb, 0x8a, 0xbe, 0x3d,
  0xfc, 0xac, 0x04, 0x3d, 0x3a, 0x6a, 0xc1, 0xbb, 0xa6, 0x1b, 0xc3, 0x3d,
  0x1f, 0x7e, 0x36, 0x3d, 0xdf, 0xe9, 0x34, 0x3d, 0xc3, 0x4f, 0x02, 0xbd,
  0x69, 0x65, 0xdc, 0x3d, 0x9f, 0x93, 0x94, 0x3d, 0xe6, 0xf5, 0x83, 0x3d,
  0x30, 0xf0, 0x49, 0xbd, 0x06, 0x67, 0xdc, 0x3d, 0x2b, 0xfc, 0xec, 0xbc,
  0x2a, 0x00, 0x89, 0xba, 0x06, 0xfc, 0x22, 0xbd, 0xda, 0x1d, 0x1b, 0x3e,
  0xbb, 0x07, 0x2a, 0x3d, 0xcb, 0xc7, 0x22, 0x3d, 0x81, 0x71, 0x0f, 0x3e,
  0x3d, 0x8e, 0x12, 0x3d, 0xc7, 0xce, 0x38, 0x3d, 0x40, 0xdb, 0x19, 0xbd,
  0x9c, 0xbc, 0xf3, 0xbc, 0xf9, 0xaa, 0xa4, 0x3d, 0x51, 0xb6, 0x3a, 0x3d,
  0x0e, 0x69, 0xf7, 0x3c, 0x85, 0x1a, 0xbf, 0x3d, 0xa3, 0xa3, 0x1d, 0x3c,
  0xad, 0x9f, 0x4b, 0x3b, 0xcd, 0x12, 0x13, 0x3d, 0x3a, 0xc0, 0x61, 0xbd,
  0x23, 0x26, 0x8c, 0x3d, 0x67, 0x9c, 0x7f, 0xbc, 0x92, 0x44, 0x19, 0xbd,
  0x39, 0x04, 0x72, 0x3d, 0x5b, 0x5e, 0xe6, 0x3d, 0x39, 0x63, 0x29, 0xbd,
  0xff, 0x5e, 0xb2, 0x3c, 0x97, 0x28, 0x91, 0xbc, 0x2c, 0x27, 0x31, 0x3e,
  0x83, 0xf2, 0x0e, 0x3c, 0xd9, 0x5c, 0xd7, 0x3d, 0xe8, 0x9d, 0xbd, 0xbb,
  0xf3, 0xa9, 0x7c, 0x3d, 0xfa, 0xc4, 0xea, 0x3d, 0x26, 0xa1, 0x91, 0x3c,
  0xfc, 0x9f, 0x42, 0xbc, 0x65, 0x96, 0xbb, 0x3d, 0xf0, 0x9c, 0xbd, 0x3b,
  0xee, 0x75, 0x8a, 0xbb, 0x60, 0x3c, 0x5f, 0x3d, 0xf8, 0xd3, 0x6b, 0x3c,
  0x66, 0x3a, 0x86, 0xbc, 0x0a, 0x57, 0xf7, 0x3c, 0xc8, 0x2d, 0x46, 0x3a,
  0xc4, 0xc0, 0xb2, 0x3d, 0x2f, 0xfb, 0xab, 0x3d, 0x18, 0xdc, 0x82, 0x3d,
  0x97, 0x91, 0x7e, 0x3b, 0x4c, 0x15, 0x2a, 0x3e, 0x75, 0xb9, 0x8d, 0x3d,
  0xba, 0x2c, 0x22, 0xbd, 0x94, 0x88, 0xf3, 0x3c, 0xb6, 0x04, 0x20, 0x3e,
  0x19, 0xea, 0x53, 0x3c, 0xc8, 0x50, 0xb3, 0x3d, 0xdf, 0xb5, 0x4e, 0xbd,
  0x01, 0x8b, 0xca, 0x3d, 0xed, 0x6e, 0x33, 0x3c, 0xb3, 0x91, 0x9f, 0xbc,
  0xe5, 0x9d, 0x95, 0xbd, 0x89, 0xc2, 0xe2, 0x3d, 0x87, 0x15, 0x8f, 0x3c,
  0x73, 0x73, 0x81, 0x3d, 0x72, 0x79, 0x23, 0x3b, 0x28, 0x86, 0x0d, 0x3e,
  0xaa, 0xc0, 0x88, 0xbd, 0x95, 0x80, 0xc7, 0xbd, 0x84, 0x27, 0x7a, 0x3d,
  0x57, 0x12, 0x73, 0xbc, 0x48, 0x75, 0x44, 0x3c, 0xd3, 0x9c, 0x37, 0xbd,
  0xfc, 0x04, 0xcf, 0x3c, 0xab, 0x3c, 0x0f, 0x3d, 0x33, 0x3d, 0x16, 0x3d,
  0xf6, 0x05, 0x12, 0xbc, 0xbb, 0x5b, 0xc9, 0x3d, 0x00, 0x53, 0xa0, 0x3d,
  0x58, 0xc6, 0xd3, 0x3d, 0x6d, 0x56, 0x49, 0x3d, 0x5e, 0x4b, 0xa6, 0xbd,
  0x92, 0x6b, 0xe0, 0x3d, 0x99, 0x0f, 0x81, 0x3d, 0x13, 0x0a, 0x66, 0x3d,
  0x2c, 0xb2, 0x07, 0x3d, 0x44, 0xc3, 0x16, 0x3e, 0x03, 0xd5, 0x6d, 0x3b,
  0x25, 0xb7, 0x51, 0x3d, 0x52, 0xcc, 0xae, 0xbc, 0xd4, 0x60, 0x12, 0x3e,
  0x19, 0xef, 0xb2, 0xbc, 0x3c, 0x1b, 0x25, 0xbc, 0xd6, 0x76, 0xa7, 0x3b,
  0x90, 0x06, 0xd7, 0x3d, 0x8c, 0x82, 0x35, 0x3d, 0x9a, 0x15, 0x81, 0x3c,
  0x22, 0x38, 0x35, 0x3d, 0x46, 0x16, 0xc4, 0x3c, 0x3b, 0xb4, 0xfb, 0x3c,
  0x2e, 0x9d, 0xae, 0xbc, 0x88, 0x49, 0x52, 0xbb, 0x97, 0xdf, 0xd4, 0x3d,
  0x3d, 0x73, 0x24, 0xbc, 0x1c, 0x7e, 0x8c, 0x3d, 0xcb, 0x5a, 0xa3, 0xbd,
  0x5b, 0x1f, 0x48, 0x3d, 0x98, 0xdb, 0x35, 0x3d, 0x70, 0x17, 0x0e, 0xbd,
  0x0a, 0x28, 0xc6, 0x3c, 0xe4, 0xc8, 0xaf, 0x3d, 0x8c, 0xfa, 0x97, 0x3d,
  0xfa, 0xd6, 0x83, 0xbd, 0x79, 0x6b, 0x93, 0x3c, 0x19, 0xa7, 0x23, 0x3e,
  0x86, 0x37, 0x16, 0xbc, 0xcd, 0x7b, 0x99, 0x3d, 0xd4, 0x4d, 0x08, 0x3d,
  0x16, 0x3a, 0x51, 0x3d, 0x25, 0xc0, 0xe6, 0xbb, 0xbc, 0x6a, 0x89, 0x3d,
  0xdc, 0x23, 0xe4, 0xbb, 0xbc, 0xed, 0x0f, 0x3e, 0xcd, 0x05, 0x86, 0xbc,
  0x4a, 0x09, 0xd5, 0x3c, 0xda, 0xdc, 0xd5, 0xbd, 0x2f, 0xd1, 0xd8, 0x3c,
  0x18, 0x88, 0x98, 0xbb, 0x11, 0x1b, 0x9e, 0xbc, 0x31, 0xfb, 0x83, 0x3d,
  0x2c, 0xc5, 0xd6, 0x3d, 0xfc, 0xd7, 0x4d, 0xbd, 0xf4, 0xab, 0xab, 0xbd,
  0xca, 0xa2, 0xa3, 0xbc, 0x0f, 0x05, 0xb9, 0x3c, 0x6b, 0x00, 0x4c, 0xbc,
  0xaf, 0x23, 0xe3, 0x3b, 0x8f, 0xa6, 0xe5, 0x3b, 0x7b, 0xc1, 0x2f, 0x3d,
  0x88, 0x40, 0x39, 0x3d, 0x20, 0xfe, 0x1e, 0x3e, 0x06, 0x19, 0x94, 0xbd,
  0x81, 0x34, 0x09, 0x3c, 0xc3, 0xe3, 0x33, 0x3d, 0x10, 0x62, 0xed, 0xbc,
  0xe2, 0x44, 0xa1, 0x3d, 0x5d, 0x36, 0x95, 0x3d, 0x17, 0xda, 0x10, 0xbd,
  0x7b, 0x10, 0x63, 0x3d, 0xa1, 0x1c, 0x91, 0x3d, 0x6c, 0xbc, 0xbc, 0x3d,
  0xca, 0xad, 0x2d, 0x3d, 0xd3, 0xe4, 0xeb, 0xbb, 0x0e, 0x8c, 0x88, 0x3d,
  0xf7, 0x8a, 0x3e, 0x3d, 0x4c, 0xc3, 0x36, 0xbd, 0xbd, 0xc0, 0x50, 0x3d,
  0x2a, 0x48, 0x9f, 0xbd, 0x7d, 0x84, 0xf3, 0x3d, 0x7a, 0x02, 0x28, 0xbd,
  0x35, 0x8b, 0x87, 0xbd, 0xac, 0xe0, 0x0c, 0x3d, 0x7e, 0x67, 0x07, 0x3d,
  0x21, 0xeb, 0x8e, 0x3d, 0xb5, 0x89, 0xaf, 0x3b, 0x7d, 0x02, 0x8f, 0x3c,
  0x58, 0xf7, 0xeb, 0x3d, 0x4e, 0x74, 0xdd, 0x3c, 0x2d, 0xf7, 0xb0, 0xbd,
  0xc5, 0x40, 0x3c, 0x3d, 0xac, 0x48, 0x1a, 0x3e, 0xb5, 0xc8, 0x94, 0x3c,
  0x68, 0x2b, 0x09, 0xbd, 0x43, 0xb6, 0x56, 0x3d, 0x35, 0x8a, 0x8e, 0x3d,
  0x21, 0x75, 0x00, 0x3d, 0x4a, 0x5f, 0x58, 0xbd, 0xe4, 0x11, 0xf0, 0x3b,
  0x1b, 0xc3, 0xbb, 0x3d, 0x49, 0xa5, 0x93, 0xbd, 0xcb, 0x67, 0x79, 0x3d,
  0x70, 0x90, 0xa2, 0xbc, 0x80, 0xe6, 0xce, 0x3d, 0x97, 0xd9, 0x1f, 0xbd,
  0x97, 0xb3, 0x5e, 0xbd, 0xcc, 0x5f, 0xaf, 0xbd, 0x59, 0xb3, 0x11, 0x3e,
  0x72, 0x1f, 0xcb, 0xbd, 0x74, 0xde, 0xe5, 0x38, 0xeb, 0x61, 0x3e, 0x3d,
  0xb0, 0x4f, 0x3d, 0x3d, 0x41, 0xc0, 0xe5, 0xbd, 0x91, 0x35, 0x34, 0xbd,
  0x32, 0x7e, 0xb1, 0xbc, 0xe6, 0xad, 0x41, 0xbd, 0x59, 0x7f, 0xa2, 0xbc,
  0x4c, 0x98, 0xf8, 0xbc, 0xd9, 0x03, 0x7d, 0x3d, 0xae, 0x3e, 0xab, 0x3c,
  0x34, 0xce, 0x2d, 0x3e, 0x0d, 0x43, 0xeb, 0x3c, 0x8e, 0x32, 0x64, 0xbc,
  0x03, 0x95, 0xa0, 0x3d, 0x95, 0xa8, 0x46, 0xbd, 0xc6, 0x85, 0xed, 0x3b,
  0x3c, 0xf2, 0x26, 0xbd, 0x65, 0xeb, 0x12, 0x3e, 0xc6, 0xeb, 0x7e, 0x3c,
  0xcb, 0x86, 0x62, 0xbd, 0x11, 0xa5, 0xc8, 0xbc, 0xa0, 0x91, 0xed, 0x3d,
  0x3b, 0xa2, 0xf6, 0xbc, 0xce, 0x24, 0x9e, 0x3a, 0x5b, 0x7c, 0x3a, 0x3d,
  0xa9, 0xc6, 0xdd, 0x3d, 0xda, 0x0d, 0xa0, 0x3d, 0x03, 0x11, 0xaa, 0xbb,
  0xd5, 0x25, 0x03, 0x3d, 0x65, 0xe5, 0x0d, 0x3e, 0x67, 0x47, 0x3c, 0xbd,
  0xc4, 0x45, 0x76, 0xbd, 0xcc, 0x0f, 0x52, 0xbc, 0x1e, 0x0d, 0xc8, 0x3d,
  0x75, 0x1c, 0x71, 0x3d, 0x06, 0xe3, 0xe4, 0x3c, 0xca, 0x55, 0x52, 0x3c,
  0x72, 0x32, 0xd2, 0x3d, 0xfa, 0xfa, 0x15, 0x3c, 0x45, 0xb8, 0x41, 0xbc,
  0xca, 0x58, 0x03, 0xbd, 0xa3, 0x93, 0x95, 0x3d, 0x66, 0x6f, 0xa0, 0xbc,
  0xe0, 0x1a, 0xac, 0xbd, 0x45, 0xa0, 0x5a, 0xbd, 0xf8, 0x76, 0xe1, 0x3d,
  0xfa, 0x50, 0xbf, 0xbc, 0x88, 0x37, 0x89, 0x3c, 0xaf, 0x2b, 0xc0, 0xbd,
  0xcb, 0x47, 0x0e, 0x3e, 0x1b, 0x67, 0xbb, 0xbd, 0xae, 0x2a, 0x2a, 0x3d,
  0xd4, 0x22, 0x98, 0xbd, 0xd9, 0xa0, 0x13, 0x3e, 0x5e, 0x0f, 0xa8, 0xbd,
  0x90, 0xfc, 0x42, 0xbc, 0xd5, 0x57, 0x09, 0x3d, 0xe9, 0x55, 0x20, 0x3e,
  0x57, 0xf6, 0x07, 0xbe, 0xb7, 0xc8, 0xe5, 0x3b, 0x82, 0x7e, 0x29, 0x3d,
  0xdf, 0xde, 0x3b, 0xbc, 0x5a, 0x71, 0x30, 0x3d, 0x60, 0x56, 0x77, 0xbb,
  0xa2, 0x3f, 0xb6, 0x3d, 0x8e, 0x96, 0xaa, 0x3d, 0x12, 0xd3, 0x48, 0x3d,
  0x61, 0x25, 0x94, 0xbc, 0xb8, 0xac, 0x86, 0xbc, 0x19, 0xe9, 0x91, 0x3d,
  0x55, 0xc8, 0x06, 0xbd, 0xc3, 0x23, 0xc5, 0xbb, 0xd3, 0x88, 0x78, 0xbd,
  0x0c, 0x26, 0xc1, 0x3d, 0xb8, 0x72, 0x75, 0xbd, 0xc5, 0x1f, 0xef, 0xbd,
  0x82, 0x01, 0x5f, 0xbb, 0xc6, 0xc8, 0x8a, 0x3c, 0x8d, 0xb8, 0xef, 0xbd,
  0xe2, 0x86, 0x2e, 0x3d, 0xfd, 0x1f, 0xa8, 0xbd, 0x32, 0x9a, 0x9e, 0x3d,
  0x32, 0x46, 0xaf, 0xbd, 0x0d, 0xb9, 0x9f, 0x3d, 0x46, 0x1c, 0x89, 0xbd,
  0x37, 0xb1, 0x37, 0x3e, 0x39, 0x87, 0x2e, 0xbd, 0x7b, 0x91, 0x04, 0xbd,
  0x70, 0xc0, 0x2e, 0x3d, 0x16, 0x25, 0x11, 0x3e, 0xa2, 0xc7, 0x71, 0x3d,
  0x07, 0x14, 0xd9, 0xbd, 0x63, 0x3a, 0xff, 0xbc, 0x65, 0xf3, 0xe0, 0x3d,
  0x24, 0xc5, 0xb3, 0xbd, 0xbf, 0x5e, 0xb6, 0xbd, 0x90, 0x4a, 0xd3, 0xbd,
  0x3a, 0x7e, 0xc2, 0x3d, 0x35, 0xea, 0x1a, 0xbd, 0xd7, 0x6f, 0x07, 0xbd,
  0x58, 0x98, 0xb6, 0xbd, 0x7a, 0x5a, 0xaa, 0x3d, 0xf2, 0x5a, 0x10, 0x3d,
  0x3a, 0xad, 0x25, 0xbd, 0xae, 0x15, 0x2f, 0xbb, 0xda, 0xc4, 0xa8, 0x3d,
  0x57, 0xe5, 0x92, 0xbc, 0x3a, 0x94, 0x94, 0xbd, 0x6a, 0x69, 0x4b, 0xbc,
  0xd2, 0x83, 0x12, 0x3e, 0xff, 0xda, 0xa0, 0x3c, 0x86, 0x50, 0xca, 0xbd,
  0xe3, 0xd5, 0x50, 0xbd, 0xdf, 0xc7, 0x11, 0x3e, 0x5b, 0x21, 0xdc, 0xbd,
  0x93, 0x90, 0x22, 0xbd, 0x00, 0xf8, 0x1b, 0xbd, 0x8e, 0x01, 0x2c, 0x3e,
  0xd3, 0x34, 0x1b, 0x3c, 0x1f, 0x93, 0x71, 0x3c, 0x26, 0xff, 0xff, 0xff,
  0x04, 0x00, 0x00, 0x00, 0x30, 0x00, 0x00, 0x00, 0x57, 0x20, 0x9e, 0x3e,
  0x9c, 0xdf, 0xc5, 0xbe, 0x3a, 0xe8, 0x0a, 0x3f, 0x93, 0xbb, 0x62, 0xbf,
  0x2c, 0x6e, 0x0b, 0x3f, 0x5c, 0x50, 0xe0, 0x3e, 0x2e, 0x51, 0x13, 0xbf,
  0x3d, 0x34, 0x7f, 0xbf, 0xd7, 0xef, 0x6f, 0xbf, 0x81, 0x2f, 0xde, 0x3e,
  0x5f, 0x9b, 0xa2, 0x3e, 0x18, 0x8b, 0xd2, 0xbe, 0x62, 0xff, 0xff, 0xff,
  0x04, 0x00, 0x00, 0x00, 0x90, 0x00, 0x00, 0x00, 0x70, 0x45, 0xdc, 0x3e,
  0xb7, 0x9d, 0x45, 0xbd, 0x3a, 0xf0, 0xbf, 0x3e, 0xea, 0x6b, 0x3d, 0x3c,
  0x0d, 0xb1, 0xc5, 0x3d, 0x9f, 0x1a, 0x97, 0x3e, 0x5d, 0x15, 0xbb, 0x3b,
  0xf6, 0xd9, 0xb8, 0x3e, 0xe3, 0x4a, 0x8a, 0x3e, 0x93, 0xb2, 0x8d, 0xbe,
  0x65, 0xc8, 0xa2, 0x3d, 0x70, 0x1d, 0xc8, 0xbe, 0x63, 0x46, 0x8c, 0xbe,
  0x52, 0x15, 0xd9, 0xbe, 0x89, 0x17, 0xf2, 0x3d, 0xea, 0x93, 0xb6, 0x3d,
  0x71, 0x4f, 0x64, 0x3e, 0x88, 0x7b, 0x6e, 0x3e, 0xc5, 0x19, 0x83, 0x3e,
  0x9f, 0x02, 0x8a, 0xbd, 0x11, 0x58, 0x04, 0xbd, 0x9d, 0x8f, 0xa2, 0x3e,
  0x93, 0x54, 0xec, 0x3e, 0xd1, 0x1d, 0xa9, 0xbe, 0xcd, 0x86, 0xf9, 0x3b,
  0x56, 0x79, 0x6e, 0x3e, 0x77, 0x81, 0x8b, 0xbd, 0x3a, 0x90, 0x1d, 0x3e,
  0xba, 0x6c, 0xe5, 0x3e, 0x60, 0x4a, 0x83, 0x3c, 0xf4, 0x24, 0x61, 0xbe,
  0x9f, 0x07, 0x83, 0x3e, 0xf8, 0x8e, 0xad, 0x3b, 0xa5, 0x22, 0x34, 0x3e,
  0x29, 0xce, 0x5c, 0x3d, 0x49, 0x5d, 0x92, 0xbd, 0x00, 0x00, 0x06, 0x00,
  0x08, 0x00, 0x04, 0x00, 0x06, 0x00, 0x00, 0x00, 0x04, 0x00, 0x00, 0x00,
  0x10, 0x00, 0x00, 0x00, 0x9a, 0x07, 0x56, 0xbe, 0xd8, 0xb8, 0x84, 0x3e,
  0x96, 0x1e, 0xbc, 0x3b, 0xb2, 0xc9, 0xc3, 0x3b, 0x60, 0xf8, 0xff, 0xff,
  0x64, 0xf8, 0xff, 0xff, 0x0f, 0x00, 0x00, 0x00, 0x4d, 0x4c, 0x49, 0x52,
  0x20, 0x43, 0x6f, 0x6e, 0x76, 0x65, 0x72, 0x74, 0x65, 0x64, 0x2e, 0x00,
  0x01, 0x00, 0x00, 0x00, 0x14, 0x00, 0x00, 0x00, 0x00, 0x00, 0x0e, 0x00,
  0x18, 0x00, 0x14, 0x00, 0x10, 0x00, 0x0c, 0x00, 0x08, 0x00, 0x04, 0x00,
  0x0e, 0x00, 0x00, 0x00, 0x14, 0x00, 0x00, 0x00, 0x1c, 0x00, 0x00, 0x00,
  0xd4, 0x01, 0x00, 0x00, 0xd8, 0x01, 0x00, 0x00, 0xdc, 0x01, 0x00, 0x00,
  0x04, 0x00, 0x00, 0x00, 0x6d, 0x61, 0x69, 0x6e, 0x00, 0x00, 0x00, 0x00,
  0x06, 0x00, 0x00, 0x00, 0x7c, 0x01, 0x00, 0x00, 0x18, 0x01, 0x00, 0x00,
  0xb4, 0x00, 0x00, 0x00, 0x8c, 0x00, 0x00, 0x00, 0x3c, 0x00, 0x00, 0x00,
  0x04, 0x00, 0x00, 0x00, 0x0a, 0xff, 0xff, 0xff, 0x14, 0x00, 0x00, 0x00,
  0x00, 0x00, 0x00, 0x08, 0x10, 0x00, 0x00, 0x00, 0x14, 0x00, 0x00, 0x00,
  0x04, 0x00, 0x00, 0x00, 0xec, 0xf8, 0xff, 0xff, 0x01, 0x00, 0x00, 0x00,
  0x0e, 0x00, 0x00, 0x00, 0x03, 0x00, 0x00, 0x00, 0x0d, 0x00, 0x00, 0x00,
  0x03, 0x00, 0x00, 0x00, 0x06, 0x00, 0x00, 0x00, 0x3e, 0xff, 0xff, 0xff,
  0x1c, 0x00, 0x00, 0x00, 0x00, 0x00, 0x00, 0x08, 0x1c, 0x00, 0x00, 0x00,
  0x20, 0x00, 0x00, 0x00, 0x04, 0x00, 0x00, 0x00, 0x00, 0x00, 0x06, 0x00,
  0x08, 0x00, 0x07, 0x00, 0x06, 0x00, 0x00, 0x00, 0x00, 0x00, 0x00, 0x01,
  0x01, 0x00, 0x00, 0x00, 0x0d, 0x00, 0x00, 0x00, 0x03, 0x00, 0x00, 0x00,
  0x0c, 0x00, 0x00, 0x00, 0x04, 0x00, 0x00, 0x00, 0x05, 0x00, 0x00, 0x00,
  0x00, 0x00, 0x0a, 0x00, 0x10, 0x00, 0x0c, 0x00, 0x08, 0x00, 0x04, 0x00,
  0x0a, 0x00, 0x00, 0x00, 0x0c, 0x00, 0x00, 0x00, 0x10, 0x00, 0x00, 0x00,
  0x03, 0x00, 0x00, 0x00, 0x01, 0x00, 0x00, 0x00, 0x0c, 0x00, 0x00, 0x00,
  0x02, 0x00, 0x00, 0x00, 0x0b, 0x00, 0x00, 0x00, 0x07, 0x00, 0x00, 0x00,
  0xae, 0xff, 0xff, 0xff, 0x24, 0x00, 0x00, 0x00, 0x00, 0x00, 0x00, 0x05,
  0x34, 0x00, 0x00, 0x00, 0x38, 0x00, 0x00, 0x00, 0x02, 0x00, 0x00, 0x00,
  0x00, 0x00, 0x0e, 0x00, 0x18, 0x00, 0x17, 0x00, 0x10, 0x00, 0x0c, 0x00,
  0x08, 0x00, 0x04, 0x00, 0x0e, 0x00, 0x00, 0x00, 0x02, 0x00, 0x00, 0x00,
  0x02, 0x00, 0x00, 0x00, 0x02, 0x00, 0x00, 0x00, 0x02, 0x00, 0x00, 0x00,
  0x00, 0x00, 0x00, 0x01, 0x01, 0x00, 0x00, 0x00, 0x0b, 0x00, 0x00, 0x00,
  0x01, 0x00, 0x00, 0x00, 0x0a, 0x00, 0x00, 0x00, 0x00, 0x00, 0x0e, 0x00,
  0x18, 0x00, 0x14, 0x00, 0x10, 0x00, 0x0c, 0x00, 0x0b, 0x00, 0x04, 0x00,
  0x0e, 0x00, 0x00, 0x00, 0x20, 0x00, 0x00, 0x00, 0x00, 0x00, 0x00, 0x01,
  0x2c, 0x00, 0x00, 0x00, 0x30, 0x00, 0x00, 0x00, 0x01, 0x00, 0x00, 0x00,
  0x0c, 0x00, 0x14, 0x00, 0x13, 0x00, 0x0c, 0x00, 0x08, 0x00, 0x07, 0x00,
  0x0c, 0x00, 0x00, 0x00, 0x00, 0x00, 0x00, 0x01, 0x01, 0x00, 0x00, 0x00,
  0x01, 0x00, 0x00, 0x00, 0x00, 0x00, 0x00, 0x01, 0x01, 0x00, 0x00, 0x00,
  0x0a, 0x00, 0x00, 0x00, 0x03, 0x00, 0x00, 0x00, 0x09, 0x00, 0x00, 0x00,
  0x02, 0x00, 0x00, 0x00, 0x01, 0x00, 0x00, 0x00, 0x00, 0x00, 0x0e, 0x00,
  0x14, 0x00, 0x00, 0x00, 0x10, 0x00, 0x0c, 0x00, 0x0b, 0x00, 0x04, 0x00,
  0x0e, 0x00, 0x00, 0x00, 0x1c, 0x00, 0x00, 0x00, 0x00, 0x00, 0x00, 0x0f,
  0x1c, 0x00, 0x00, 0x00, 0x20, 0x00, 0x00, 0x00, 0x0c, 0x00, 0x08, 0x00,
  0x00, 0x00, 0x00, 0x00, 0x00, 0x00, 0x07, 0x00, 0x0c, 0x00, 0x00, 0x00,
  0x00, 0x00, 0x00, 0x01, 0x01, 0x00, 0x00, 0x00, 0x09, 0x00, 0x00, 0x00,
  0x02, 0x00, 0x00, 0x00, 0x00, 0x00, 0x00, 0x00, 0x08, 0x00, 0x00, 0x00,
  0x01, 0x00, 0x00, 0x00, 0x0e, 0x00, 0x00, 0x00, 0x01, 0x00, 0x00, 0x00,
  0x00, 0x00, 0x00, 0x00, 0x0f, 0x00, 0x00, 0x00, 0x48, 0x05, 0x00, 0x00,
  0xf4, 0x04, 0x00, 0x00, 0x94, 0x04, 0x00, 0x00, 0x54, 0x04, 0x00, 0x00,
  0x14, 0x04, 0x00, 0x00, 0xd8, 0x03, 0x00, 0x00, 0x9c, 0x03, 0x00, 0x00,
  0x5c, 0x03, 0x00, 0x00, 0xf0, 0x02, 0x00, 0x00, 0x70, 0x02, 0x00, 0x00,
  0xc8, 0x01, 0x00, 0x00, 0x50, 0x01, 0x00, 0x00, 0xf0, 0x00, 0x00, 0x00,
  0x60, 0x00, 0x00, 0x00, 0x04, 0x00, 0x00, 0x00, 0x0a, 0xfb, 0xff, 0xff,
  0x00, 0x00, 0x00, 0x01, 0x14, 0x00, 0x00, 0x00, 0x1c, 0x00, 0x00, 0x00,
  0x1c, 0x00, 0x00, 0x00, 0x0f, 0x00, 0x00, 0x00, 0x34, 0x00, 0x00, 0x00,
  0x02, 0x00, 0x00, 0x00, 0xff, 0xff, 0xff, 0xff, 0x03, 0x00, 0x00, 0x00,
  0xec, 0xfa, 0xff, 0xff, 0x1b, 0x00, 0x00, 0x00, 0x53, 0x74, 0x61, 0x74,
  0x65, 0x66, 0x75, 0x6c, 0x50, 0x61, 0x72, 0x74, 0x69, 0x74, 0x69, 0x6f,
  0x6e, 0x65, 0x64, 0x43, 0x61, 0x6c, 0x6c, 0x5f, 0x31, 0x3a, 0x30, 0x00,
  0x02, 0x00, 0x00, 0x00, 0x01, 0x00, 0x00, 0x00, 0x03, 0x00, 0x00, 0x00,
  0x62, 0xfb, 0xff, 0xff, 0x00, 0x00, 0x00, 0x01, 0x14, 0x00, 0x00, 0x00,
  0x1c, 0x00, 0x00, 0x00, 0x1c, 0x00, 0x00, 0x00, 0x0e, 0x00, 0x00, 0x00,
  0x68, 0x00, 0x00, 0x00, 0x02, 0x00, 0x00, 0x00, 0xff, 0xff, 0xff, 0xff,
  0x04, 0x00, 0x00, 0x00, 0x44, 0xfb, 0xff, 0xff, 0x4e, 0x00, 0x00, 0x00,
  0x73, 0x65, 0x71, 0x75, 0x65, 0x6e, 0x74, 0x69, 0x61, 0x6c, 0x5f, 0x31,
  0x2f, 0x64, 0x65, 0x6e, 0x73, 0x65, 0x5f, 0x31, 0x2f, 0x4d, 0x61, 0x74,
  0x4d, 0x75, 0x6c, 0x3b, 0x73, 0x65, 0x71, 0x75, 0x65, 0x6e, 0x74, 0x69,
  0x61, 0x6c, 0x5f, 0x31, 0x2f, 0x64, 0x65, 0x6e, 0x73, 0x65, 0x5f, 0x31,
  0x2f, 0x52, 0x65, 0x6c, 0x75, 0x3b, 0x73, 0x65, 0x71, 0x75, 0x65, 0x6e,
  0x74, 0x69, 0x61, 0x6c, 0x5f, 0x31, 0x2f, 0x64, 0x65, 0x6e, 0x73, 0x65,
  0x5f, 0x31, 0x2f, 0x41, 0x64, 0x64, 0x00, 0x00, 0x02, 0x00, 0x00, 0x00,
  0x01, 0x00, 0x00, 0x00, 0x04, 0x00, 0x00, 0x00, 0xee, 0xfb, 0xff, 0xff,
  0x00, 0x00, 0x00, 0x01, 0x14, 0x00, 0x00, 0x00, 0x1c, 0x00, 0x00, 0x00,
  0x1c, 0x00, 0x00, 0x00, 0x0d, 0x00, 0x00, 0x00, 0x38, 0x00, 0x00, 0x00,
  0x02, 0x00, 0x00, 0x00, 0xff, 0xff, 0xff, 0xff, 0x84, 0x03, 0x00, 0x00,
  0xd0, 0xfb, 0xff, 0xff, 0x1e, 0x00, 0x00, 0x00, 0x73, 0x65, 0x71, 0x75,
  0x65, 0x6e, 0x74, 0x69, 0x61, 0x6c, 0x5f, 0x31, 0x2f, 0x66, 0x6c, 0x61,
  0x74, 0x74, 0x65, 0x6e, 0x5f, 0x31, 0x2f, 0x52, 0x65, 0x73, 0x68, 0x61,
  0x70, 0x65, 0x00, 0x00, 0x02, 0x00, 0x00, 0x00, 0x01, 0x00, 0x00, 0x00,
