unsigned char tf_lite_model_tflite[] = {
  0x1c, 0x00, 0x00, 0x00, 0x54, 0x46, 0x4c, 0x33, 0x14, 0x00, 0x20, 0x00,
  0x1c, 0x00, 0x18, 0x00, 0x14, 0x00, 0x10, 0x00, 0x0c, 0x00, 0x00, 0x00,
  0x08, 0x00, 0x04, 0x00, 0x14, 0x00, 0x00, 0x00, 0x1c, 0x00, 0x00, 0x00,
  0x88, 0x00, 0x00, 0x00, 0xe0, 0x00, 0x00, 0x00, 0x84, 0x3b, 0x00, 0x00,
  0x94, 0x3b, 0x00, 0x00, 0x54, 0x43, 0x00, 0x00, 0x03, 0x00, 0x00, 0x00,
  0x01, 0x00, 0x00, 0x00, 0x04, 0x00, 0x00, 0x00, 0xb2, 0xc3, 0xff, 0xff,
  0x0c, 0x00, 0x00, 0x00, 0x1c, 0x00, 0x00, 0x00, 0x3c, 0x00, 0x00, 0x00,
  0x0f, 0x00, 0x00, 0x00, 0x73, 0x65, 0x72, 0x76, 0x69, 0x6e, 0x67, 0x5f,
  0x64, 0x65, 0x66, 0x61, 0x75, 0x6c, 0x74, 0x00, 0x01, 0x00, 0x00, 0x00,
  0x04, 0x00, 0x00, 0x00, 0x94, 0xff, 0xff, 0xff, 0x0e, 0x00, 0x00, 0x00,
  0x04, 0x00, 0x00, 0x00, 0x08, 0x00, 0x00, 0x00, 0x6f, 0x75, 0x74, 0x70,
  0x75, 0x74, 0x5f, 0x30, 0x00, 0x00, 0x00, 0x00, 0x01, 0x00, 0x00, 0x00,
  0x04, 0x00, 0x00, 0x00, 0x0e, 0xc5, 0xff, 0xff, 0x04, 0x00, 0x00, 0x00,
  0x0b, 0x00, 0x00, 0x00, 0x69, 0x6e, 0x70, 0x75, 0x74, 0x5f, 0x6c, 0x61,
  0x79, 0x65, 0x72, 0x00, 0x02, 0x00, 0x00, 0x00, 0x34, 0x00, 0x00, 0x00,
  0x04, 0x00, 0x00, 0x00, 0xdc, 0xff, 0xff, 0xff, 0x11, 0x00, 0x00, 0x00,
  0x04, 0x00, 0x00, 0x00, 0x13, 0x00, 0x00, 0x00, 0x43, 0x4f, 0x4e, 0x56,
  0x45, 0x52, 0x53, 0x49, 0x4f, 0x4e, 0x5f, 0x4d, 0x45, 0x54, 0x41, 0x44,
  0x41, 0x54, 0x41, 0x00, 0x08, 0x00, 0x0c, 0x00, 0x08, 0x00, 0x04, 0x00,
  0x08, 0x00, 0x00, 0x00, 0x10, 0x00, 0x00, 0x00, 0x04, 0x00, 0x00, 0x00,
  0x13, 0x00, 0x00, 0x00, 0x6d, 0x69, 0x6e, 0x5f, 0x72, 0x75, 0x6e, 0x74,
  0x69, 0x6d, 0x65, 0x5f, 0x76, 0x65, 0x72, 0x73, 0x69, 0x6f, 0x6e, 0x00,
  0x12, 0x00, 0x00, 0x00, 0xa0, 0x3a, 0x00, 0x00, 0x98, 0x3a, 0x00, 0x00,
  0x78, 0x3a, 0x00, 0x00, 0xd0, 0x39, 0x00, 0x00, 0x90, 0x39, 0x00, 0x00,
  0x40, 0x01, 0x00, 0x00, 0x20, 0x01, 0x00, 0x00, 0x04, 0x01, 0x00, 0x00,
  0xec, 0x00, 0x00, 0x00, 0xd4, 0x00, 0x00, 0x00, 0xcc, 0x00, 0x00, 0x00,
  0xc4, 0x00, 0x00, 0x00, 0xbc, 0x00, 0x00, 0x00, 0xb4, 0x00, 0x00, 0x00,
  0xac, 0x00, 0x00, 0x00, 0xa4, 0x00, 0x00, 0x00, 0x84, 0x00, 0x00, 0x00,
  0x04, 0x00, 0x00, 0x00, 0xce, 0xc5, 0xff, 0xff, 0x04, 0x00, 0x00, 0x00,
  0x70, 0x00, 0x00, 0x00, 0x10, 0x00, 0x00, 0x00, 0x00, 0x00, 0x00, 0x00,
  0x08, 0x00, 0x0e, 0x00, 0x08, 0x00, 0x04, 0x00, 0x08, 0x00, 0x00, 0x00,
  0x10, 0x00, 0x00, 0x00, 0x24, 0x00, 0x00, 0x00, 0x00, 0x00, 0x06, 0x00,
  0x08, 0x00, 0x04, 0x00, 0x06, 0x00, 0x00, 0x00, 0x04, 0x00, 0x00, 0x00,
  0x00, 0x00, 0x00, 0x00, 0x0c, 0x00, 0x1c, 0x00, 0x18, 0x00, 0x14, 0x00,
  0x10, 0x00, 0x04, 0x00, 0x0c, 0x00, 0x00, 0x00, 0x19, 0x9a, 0x09, 0x41,
  0xb1, 0x41, 0xc6, 0x9f, 0x00, 0x00, 0x00, 0x00, 0x02, 0x00, 0x00, 0x00,
  0x02, 0x00, 0x00, 0x00, 0x04, 0x00, 0x00, 0x00, 0x12, 0x00, 0x00, 0x00,
  0x32, 0x2e, 0x31, 0x38, 0x2e, 0x30, 0x2d, 0x64, 0x65, 0x76, 0x32, 0x30,
  0x32, 0x34, 0x30, 0x37, 0x30, 0x39, 0x00, 0x00, 0x4a, 0xc6, 0xff, 0xff,
  0x04, 0x00, 0x00, 0x00, 0x10, 0x00, 0x00, 0x00, 0x32, 0x2e, 0x32, 0x2e,
  0x30, 0x00, 0x00, 0x00, 0x00, 0x00, 0x00, 0x00, 0x00, 0x00, 0x00, 0x00,
  0xa4, 0xbe, 0xff, 0xff, 0xa8, 0xbe, 0xff, 0xff, 0xac, 0xbe, 0xff, 0xff,
  0xb0, 0xbe, 0xff, 0xff, 0xb4, 0xbe, 0xff, 0xff, 0xb8, 0xbe, 0xff, 0xff,
  0x7e, 0xc6, 0xff, 0xff, 0x04, 0x00, 0x00, 0x00, 0x08, 0x00, 0x00, 0x00,
  0x20, 0x00, 0x00, 0x00, 0x20, 0x00, 0x00, 0x00, 0x92, 0xc6, 0xff, 0xff,
  0x04, 0x00, 0x00, 0x00, 0x08, 0x00, 0x00, 0x00, 0xff, 0xff, 0xff, 0xff,
  0x84, 0x03, 0x00, 0x00, 0xa6, 0xc6, 0xff, 0xff, 0x04, 0x00, 0x00, 0x00,
  0x0c, 0x00, 0x00, 0x00, 0x3f, 0x49, 0xa6, 0xbc, 0xe0, 0x4e, 0xdb, 0x3b,
  0x80, 0x9b, 0x02, 0x3d, 0xbe, 0xc6, 0xff, 0xff, 0x04, 0x00, 0x00, 0x00,
  0x10, 0x00, 0x00, 0x00, 0x12, 0x60, 0x92, 0xbc, 0x3f, 0xf8, 0x32, 0x3d,
  0x83, 0xa7, 0x05, 0x3d, 0x3e, 0xae, 0x20, 0x3b, 0xda, 0xc6, 0xff, 0xff,
  0x04, 0x00, 0x00, 0x00, 0x40, 0x38, 0x00, 0x00, 0x7b, 0x44, 0x18, 0x3d,
  0xac, 0x16, 0xa0, 0xbd, 0xfa, 0xec, 0xc0, 0xbd, 0xeb, 0xed, 0x5a, 0x3c,
  0x1c, 0x09, 0xa6, 0xbb, 0xe0, 0x48, 0x1e, 0x3d, 0x65, 0xad, 0x95, 0xbc,
  0xe6, 0x61, 0x8b, 0x3c, 0xbe, 0x40, 0x6f, 0xbc, 0x1c, 0x9d, 0x68, 0xbd,
  0x85, 0xe0, 0x4d, 0xbd, 0xa3, 0x3e, 0x40, 0x3d, 0x37, 0xd3, 0x9c, 0xbc,
  0x7b, 0x38, 0x37, 0xbd, 0xde, 0xd3, 0x08, 0x3d, 0x68, 0x39, 0xf5, 0xbc,
  0x78, 0x0f, 0x80, 0xbd, 0x9e, 0x8b, 0xe8, 0xba, 0x40, 0x1a, 0x22, 0x3d,
  0x94, 0x43, 0x1b, 0xba, 0xad, 0x4a, 0xb6, 0xbd, 0xa0, 0x6e, 0xdf, 0x3c,
  0xeb, 0x2d, 0x3d, 0x3d, 0x3b, 0xba, 0xe1, 0x3c, 0x52, 0x77, 0x83, 0xbd,
  0xb5, 0xa6, 0x53, 0xbd, 0x87, 0x48, 0xf5, 0xbc, 0x6a, 0xe9, 0x13, 0xbd,
  0xc9, 0xb6, 0x06, 0xbd, 0xcc, 0x19, 0xba, 0x3c, 0xca, 0x85, 0xa6, 0xbd,
  0xed, 0x49, 0xc0, 0xbd, 0xf4, 0xf7, 0x36, 0xbc, 0x5b, 0xb5, 0xb0, 0xbc,
  0x50, 0x3f, 0x75, 0x3c, 0x38, 0xe5, 0x26, 0xbd, 0x0d, 0x67, 0xaa, 0xbd,
  0x91, 0xbe, 0x27, 0xbd, 0x28, 0x40, 0xb3, 0xbd, 0x59, 0x85, 0xdc, 0x3b,
  0x07, 0xea, 0x30, 0x3d, 0xe7, 0x2c, 0x9a, 0xbd, 0x66, 0x1f, 0x2e, 0xbd,
  0xaa, 0x3a, 0xb1, 0xbc, 0x60, 0x21, 0x8f, 0xbd, 0x0e, 0x31, 0xdb, 0xbb,
  0x97, 0x74, 0x41, 0xbd, 0x8a, 0xb7, 0x70, 0x3b, 0x4b, 0x97, 0x2d, 0x3c,
  0x2c, 0x62, 0x8e, 0xba, 0x09, 0x5c, 0x03, 0xbd, 0x48, 0xd7, 0x5f, 0xbc,
  0xc7, 0xd9, 0x9c, 0xbd, 0xb6, 0x77, 0x4b, 0xbd, 0x7b, 0xed, 0xed, 0xbb,
  0x97, 0x77, 0x53, 0xbd, 0xe9, 0xb3, 0x38, 0x3d, 0x4a, 0xf7, 0xc6, 0xba,
  0x6c, 0x7f, 0xb0, 0xbd, 0xb8, 0x38, 0x31, 0xbc, 0x55, 0x7f, 0xd7, 0x3b,
  0xf8, 0x18, 0xbe, 0xbc, 0x0f, 0x27, 0x94, 0xbd, 0x63, 0x77, 0x55, 0xbd,
  0xc0, 0x34, 0x59, 0xbc, 0x89, 0xa1, 0x9f, 0xbd, 0x41, 0x9d, 0x9d, 0xbd,
  0x82, 0x93, 0xe8, 0x3b, 0xac, 0x43, 0xd4, 0x3c, 0x26, 0x8e, 0xaa, 0xbc,
  0x31, 0xd9, 0x62, 0x3c, 0xab, 0x45, 0xb0, 0xbc, 0x03, 0xfb, 0x45, 0x3d,
  0xd1, 0xbe, 0x7e, 0xbd, 0xa0, 0xea, 0xa4, 0xbd, 0x6a, 0xfc, 0x10, 0xbd,
  0xde, 0x0f, 0xf5, 0x3c, 0x52, 0x83, 0xb1, 0xbd, 0xcf, 0xe4, 0x51, 0xbc,
  0x3b, 0x5b, 0xae, 0xbd, 0xe4, 0x54, 0x01, 0xbd, 0x10, 0x27, 0xd8, 0xbc,
  0x6b, 0x8c, 0x3c, 0x3d, 0xc5, 0x94, 0x64, 0xbc, 0x6f, 0xe2, 0x87, 0x3c,
  0xcb, 0xe4, 0x62, 0xbd, 0x66, 0x6e, 0x2f, 0x3d, 0x19, 0xde, 0x01, 0x3d,
  0x69, 0x94, 0xeb, 0x3c, 0x77, 0x0e, 0x7b, 0xbd, 0x68, 0x70, 0xc1, 0xbc,
  0x88, 0x77, 0x95, 0xbd, 0x5a, 0xbf, 0xa3, 0xbd, 0x81, 0x58, 0x94, 0xbd,
  0xda, 0x6f, 0x82, 0xbc, 0x6e, 0x2e, 0x1c, 0xbd, 0xb5, 0xf9, 0x58, 0xbc,
  0xe4, 0x76, 0x80, 0xbd, 0x67, 0xc6, 0xbb, 0xbc, 0x8f, 0xfc, 0xb7, 0xbd,
  0x1a, 0xdf, 0xca, 0xbd, 0x1e, 0x85, 0x91, 0xbd, 0xda, 0x0a, 0xd1, 0x3c,
  0x3b, 0x3e, 0x41, 0xbc, 0x28, 0x73, 0x7f, 0x3d, 0x6d, 0x99, 0xf6, 0x3b,
  0x23, 0x9a, 0x4b, 0x3d, 0xc6, 0xe8, 0x1b, 0x3c, 0xf6, 0x07, 0x40, 0xbd,
  0x40, 0x50, 0x62, 0xbd, 0xb6, 0x95, 0xc4, 0xbd, 0x8b, 0x11, 0xb6, 0xbd,
  0xf6, 0x44, 0x88, 0xbb, 0x87, 0x62, 0x3f, 0x3d, 0xc2, 0x07, 0x9e, 0xbc,
  0x65, 0xed, 0xe0, 0xbc, 0x6f, 0x8f, 0x9b, 0xbd, 0xff, 0x23, 0xd6, 0xbb,
  0xbb, 0x5e, 0xa7, 0xbd, 0xe5, 0x61, 0x71, 0x3d, 0x59, 0x02, 0x4d, 0xbd,
  0x89, 0xc1, 0xad, 0x3c, 0x8b, 0x64, 0x9c, 0xbc, 0x36, 0x64, 0x86, 0xbd,
  0xf1, 0xe2, 0x64, 0x3d, 0x4d, 0x11, 0x0b, 0xbc, 0x56, 0xa5, 0x8e, 0xbd,
  0x7d, 0xec, 0x15, 0x3d, 0xc5, 0xaa, 0xa4, 0xbc, 0xe4, 0x5c, 0x4f, 0x3d,
  0xf8, 0x7e, 0x09, 0xbd, 0x10, 0x82, 0xc2, 0x3c, 0xeb, 0x5e, 0xf0, 0xbb,
  0x69, 0xd1, 0x75, 0x3b, 0x00, 0x9a, 0x3b, 0x3c, 0x2f, 0x5e, 0x90, 0xbd,
  0x72, 0xc1, 0xc5, 0x3b, 0x0d, 0xf3, 0xd0, 0x3c, 0x4e, 0x38, 0x59, 0x3b,
  0x4b, 0x3c, 0x88, 0xbd, 0x0e, 0x63, 0x8c, 0x3b, 0x92, 0xf6, 0x97, 0xbb,
  0x56, 0xfd, 0xb1, 0xbd, 0x60, 0xec, 0xd0, 0xbc, 0xb1, 0xa9, 0xbf, 0x3c,
  0x5a, 0xa8, 0x98, 0xbd, 0x53, 0x14, 0x88, 0x3c, 0xc6, 0x2a, 0x0e, 0x3d,
  0x40, 0xb4, 0x10, 0xbd, 0x07, 0xfd, 0xcf, 0xbb, 0x8a, 0x64, 0x8d, 0xbc,
  0x07, 0x18, 0xb9, 0x3c, 0x3a, 0xfe, 0x77, 0x3d, 0xba, 0x0c, 0xba, 0x3c,
  0x53, 0xdc, 0xe4, 0xbc, 0x18, 0x52, 0x59, 0xbd, 0xe2, 0xbe, 0x47, 0xbc,
  0x8e, 0x6c, 0x7b, 0xbd, 0xe6, 0xb0, 0x76, 0x3d, 0xf9, 0x64, 0x87, 0xbc,
  0xf6, 0x64, 0xa3, 0xbc, 0x31, 0x47, 0x2f, 0x3d, 0x19, 0x9d, 0x84, 0xbd,
  0xb5, 0x7a, 0x43, 0x3d, 0xc1, 0xb0, 0x65, 0x3d, 0xa6, 0x17, 0x61, 0x3d,
  0x96, 0x9d, 0x71, 0xbb, 0x6f, 0x40, 0x63, 0xbc, 0x31, 0xc4, 0xb5, 0x3b,
  0xbf, 0x03, 0x6d, 0xbc, 0x73, 0x7d, 0x94, 0xbb, 0x66, 0x83, 0xc1, 0xbd,
  0x18, 0x8f, 0x49, 0x3c, 0x43, 0xca, 0xae, 0xbb, 0x00, 0xcf, 0x4d, 0x3c,
  0xbf, 0x74, 0xed, 0xbc, 0x1e, 0x91, 0xc7, 0x39, 0xff, 0x8c, 0xbb, 0xbd,
  0x51, 0xa7, 0x9f, 0xbd, 0x79, 0x30, 0x2d, 0xbd, 0x8b, 0xa5, 0xd8, 0xbc,
  0x70, 0x33, 0x39, 0x3d, 0xd6, 0x9f, 0x73, 0x3a, 0xb8, 0xf9, 0xc4, 0x3b,
  0x97, 0xb2, 0x53, 0x3d, 0x12, 0x0c, 0xdb, 0xbc, 0xce, 0xd5, 0x2e, 0x3d,
  0xd9, 0x9a, 0x7b, 0xbd, 0x7d, 0x4e, 0x19, 0x3d, 0xac, 0xa3, 0xa8, 0x3b,
  0xbf, 0x5c, 0x18, 0xbc, 0x12, 0x67, 0x17, 0x3d, 0x9a, 0x5d, 0x80, 0xbd,
  0x55, 0x54, 0x7f, 0xbc, 0x53, 0x24, 0xbe, 0xbc, 0xbe, 0xa6, 0x3e, 0xbd,
  0x7c, 0x8c, 0xa4, 0xbc, 0x2e, 0xd7, 0x57, 0x3c, 0xed, 0x71, 0xaa, 0xbc,
  0xb1, 0x40, 0x47, 0x3c, 0x30, 0xbf, 0xc0, 0xbc, 0x9a, 0x79, 0x76, 0x3d,
  0x4a, 0xd9, 0x9f, 0xbd, 0x43, 0xbe, 0xc5, 0xbc, 0xff, 0xe7, 0x46, 0xbd,
  0xf0, 0xd4, 0x17, 0xbd, 0xb7, 0x4c, 0xf6, 0xbc, 0xb8, 0x1b, 0x6a, 0x3d,
  0x4d, 0xed, 0x2b, 0x3d, 0x8e, 0x29, 0xb7, 0xbd, 0xd2, 0xfa, 0xcd, 0xbd,
  0x54, 0xb9, 0x16, 0xbd, 0x88, 0x09, 0xd5, 0xbc, 0xd5, 0x73, 0xd8, 0x3c,
  0x14, 0x10, 0x4a, 0x3c, 0xa7, 0xf4, 0x63, 0x3d, 0xdf, 0x68, 0xa1, 0xbd,
  0x82, 0x51, 0xad, 0x3c, 0xf3, 0x53, 0xae, 0xbd, 0xdf, 0x8e, 0x2f, 0xbc,
  0x1f, 0x46, 0x22, 0xbd, 0x6e, 0x2c, 0x9a, 0xbc, 0x80, 0xf9, 0x6f, 0xba,
  0x69, 0x16, 0x11, 0xbc, 0x68, 0x3d, 0xa4, 0xbc, 0x7b, 0xb4, 0xa0, 0xbc,
  0x35, 0x91, 0x5f, 0xbd, 0x51, 0x22, 0x8b, 0xbd, 0x14, 0xc1, 0x82, 0xbc,
  0x23, 0xa2, 0x8a, 0xbd, 0x82, 0xfb, 0xbe, 0xbd, 0x63, 0x6e, 0x40, 0x3d,
  0xce, 0xb7, 0x0c, 0x3d, 0x25, 0x92, 0x6f, 0x3d, 0x3b, 0x7c, 0x56, 0x3d,
  0xa2, 0x70, 0x31, 0x3d, 0x15, 0x06, 0xc7, 0xbc, 0xf2, 0xde, 0xa1, 0x3c,
  0xe5, 0x8b, 0x22, 0x3d, 0xf2, 0x7c, 0xb6, 0xbd, 0x49, 0x92, 0xe1, 0xbc,
  0xe3, 0xea, 0x50, 0x3d, 0x90, 0x75, 0xf6, 0xbc, 0xe1, 0x1a, 0x3c, 0xbd,
  0x2f, 0xeb, 0x21, 0xbd, 0x18, 0xe7, 0xfb, 0x3c, 0xb2, 0x5e, 0x32, 0x3d,
  0xe3, 0xb5, 0x4f, 0xbd, 0xfa, 0x86, 0x18, 0xbd, 0xb4, 0x2a, 0x2b, 0xbd,
  0xd0, 0x57, 0x81, 0x3a, 0x85, 0x0d, 0xb3, 0xbc, 0x97, 0xb3, 0x18, 0xbd,
  0x71, 0xc0, 0xbc, 0x3c, 0x25, 0x43, 0xbb, 0xbd, 0x88, 0x2e, 0xf6, 0xbc,
  0x9d, 0x97, 0xf0, 0xbc, 0xdc, 0xfe, 0x4d, 0xbd, 0x4e, 0xbe, 0x75, 0xbd,
  0xcb, 0x72, 0x30, 0xbd, 0x4c, 0x9d, 0x89, 0xbc, 0x4f, 0xed, 0xe8, 0x3c,
  0x70, 0xc9, 0x00, 0x3c, 0xd1, 0x62, 0x5b, 0xbd, 0xbb, 0x05, 0xc0, 0xbd,
  0x58, 0xd5, 0x86, 0xbd, 0x18, 0x7b, 0x7e, 0x3c, 0xdb, 0x3e, 0x11, 0xbd,
  0xe4, 0xfa, 0xc6, 0xbc, 0x43, 0xf8, 0x70, 0x3c, 0xc8, 0x37, 0x5c, 0xbd,
  0x74, 0x3b, 0x3f, 0x3d, 0xcc, 0x52, 0xb1, 0xbd, 0xc4, 0x0f, 0x23, 0x39,
  0x6d, 0x0d, 0x77, 0xbd, 0x88, 0x34, 0x28, 0xbd, 0xcb, 0x59, 0x46, 0x3d,
  0xe7, 0x7c, 0x6f, 0x3c, 0x14, 0xdd, 0x18, 0xbd, 0x1a, 0x3c, 0xae, 0xbb,
  0x90, 0x2b, 0xb5, 0xbc, 0x49, 0x07, 0x5a, 0xbc, 0x8e, 0xc6, 0x45, 0xbd,
  0x2e, 0xd3, 0x73, 0xbc, 0xe1, 0xf1, 0xaa, 0x3c, 0x60, 0x65, 0x41, 0xb9,
  0xa1, 0xd2, 0xb0, 0xbd, 0xb5, 0xeb, 0x8e, 0x3c, 0x73, 0x67, 0x2b, 0xbc,
  0x4b, 0xf1, 0x4a, 0x3d, 0x7f, 0x4c, 0x6b, 0xbd, 0x24, 0x12, 0x76, 0x3d,
  0x25, 0x4b, 0xb1, 0xbc, 0x37, 0x53, 0xa1, 0xbd, 0x66, 0x7b, 0x8c, 0x3d,
  0xe4, 0x0d, 0xc3, 0x3b, 0x47, 0x98, 0x39, 0xbd, 0x82, 0x85, 0x57, 0xbd,
  0x15, 0xed, 0xbd, 0xbd, 0x48, 0x01, 0x61, 0xbc, 0x27, 0x76, 0x55, 0x3c,
  0x28, 0x62, 0x33, 0x3d, 0x33, 0x1e, 0xe2, 0x3c, 0x23, 0x7b, 0x32, 0x3d,
  0x00, 0xc6, 0x96, 0x3a, 0x50, 0x25, 0x1a, 0x3d, 0x3b, 0xb2, 0x70, 0xbd,
  0xf6, 0x3d, 0x88, 0x3b, 0x8e, 0xce, 0x07, 0xbc, 0x21, 0x59, 0x8a, 0x3c,
  0x1c, 0x88, 0x90, 0x3c, 0x30, 0xaf, 0x36, 0x3d, 0x5f, 0x7c, 0xb9, 0xbd,
  0x6f, 0x48, 0x2e, 0x3d, 0x65, 0x2c, 0xc3, 0xbd, 0x26, 0xe6, 0x97, 0xbd,
  0x20, 0xf1, 0x87, 0xbd, 0x72, 0xe0, 0x92, 0xbd, 0xc6, 0x93, 0x90, 0xbd,
  0x9a, 0x82, 0xee, 0xbc, 0x6e, 0x09, 0x86, 0xbd, 0xf8, 0x89, 0x83, 0xbc,
  0x8e, 0x40, 0x46, 0xbd, 0x84, 0x15, 0xb6, 0xbd, 0xf7, 0xb5, 0xac, 0xba,
  0xec, 0xa7, 0xac, 0xbd, 0xc0, 0x08, 0x33, 0x3d, 0x22, 0x02, 0x37, 0x3c,
  0xe3, 0xa9, 0xeb, 0x3c, 0x3e, 0xc7, 0x3c, 0x3d, 0x8c, 0x05, 0x05, 0xbd,
  0x86, 0x2d, 0x6e, 0x3d, 0xd9, 0x90, 0x21, 0xbd, 0xe2, 0x95, 0x26, 0xbd,
  0x6b, 0x55, 0x1c, 0x3d, 0x9c, 0x8d, 0xb4, 0xbc, 0x02, 0x6d, 0x8a, 0xbd,
  0x1d, 0x58, 0x9f, 0xbd, 0x36, 0x8a, 0x9f, 0xbd, 0x01, 0x2d, 0xf5, 0xbc,
  0x15, 0xf7, 0x49, 0x3d, 0x9a, 0xfd, 0x08, 0x3d, 0xb8, 0x85, 0xba, 0xbc,
  0xe9, 0xbb, 0x93, 0x3c, 0x9a, 0xc2, 0xb3, 0xbd, 0x2e, 0x40, 0x73, 0x3d,
  0x6d, 0x1d, 0xfa, 0xbc, 0x38, 0x48, 0x62, 0xbc, 0x32, 0xb7, 0xc9, 0x39,
  0x3b, 0x1a, 0x18, 0xbb, 0x5f, 0x1a, 0xee, 0x3c, 0x8f, 0xcd, 0x9f, 0xbb,
  0x11, 0x60, 0x8b, 0xbd, 0xc7, 0x07, 0x77, 0x3d, 0x39, 0x92, 0xaf, 0x3c,
  0x84, 0xfa, 0xb3, 0x3b, 0x2e, 0x99, 0xbd, 0xbd, 0x13, 0x87, 0xf9, 0x3c,
  0x25, 0x24, 0x2f, 0x3d, 0x4a, 0xdc, 0x8d, 0x3c, 0xd0, 0x33, 0x5b, 0x3c,
  0x10, 0x7a, 0xd8, 0xbc, 0xf1, 0xaf, 0x9c, 0xbd, 0xe4, 0xe8, 0xda, 0x3b,
  0x8c, 0xf3, 0x5e, 0x3d, 0x3e, 0x16, 0x26, 0x3c, 0x00, 0x30, 0xf9, 0x3c,
  0x44, 0x75, 0x5c, 0x3d, 0x68, 0x10, 0x5c, 0x3d, 0x8f, 0x2c, 0x23, 0xbd,
  0x7c, 0x38, 0x64, 0xbd, 0xd9, 0x2e, 0x47, 0x3d, 0xdc, 0x9b, 0x5c, 0x3c,
  0x14, 0xd9, 0x80, 0x3d, 0xae, 0x77, 0xbc, 0x3b, 0xd7, 0xb4, 0x32, 0x3d,
  0xe3, 0x42, 0x18, 0xbd, 0x8f, 0x28, 0x80, 0xbb, 0xc9, 0x8e, 0xf2, 0x3c,
  0x7f, 0xcb, 0x7d, 0x3d, 0x09, 0x43, 0x96, 0xbd, 0x13, 0x62, 0x7c, 0xbd,
  0xf7, 0x71, 0x62, 0xbd, 0x09, 0x47, 0x31, 0xbd, 0x3e, 0xbe, 0x2f, 0x3d,
  0x4b, 0x42, 0x84, 0xbd, 0x42, 0x2e, 0x6e, 0x3b, 0x33, 0xed, 0x20, 0x3b,
  0x26, 0xd6, 0xbd, 0xbd, 0xfc, 0xfe, 0x48, 0xbd, 0xe8, 0xae, 0xfd, 0xbc,
  0x3d, 0x46, 0x38, 0xbd, 0x8c, 0x57, 0x3a, 0x3d, 0x7e, 0x40, 0xe0, 0xba,
  0x76, 0x7e, 0xbf, 0xbd, 0x34, 0x7d, 0x8e, 0xbc, 0x32, 0xe0, 0x24, 0x3d,
  0xd4, 0xf7, 0x97, 0xbd, 0xa7, 0x16, 0x20, 0x3c, 0x6a, 0x27, 0x24, 0xbd,
  0x2e, 0x97, 0x03, 0x3d, 0xa7, 0x68, 0x46, 0xbc, 0x4a, 0x00, 0xe6, 0x3b,
  0x01, 0xec, 0x8d, 0xbc, 0x37, 0xfc, 0x4e, 0x3c, 0xe9, 0x4d, 0xc7, 0xbc,
  0xb9, 0xa3, 0xb9, 0xbd, 0x69, 0x38, 0xaf, 0xbd, 0x6b, 0xcf, 0x10, 0x3d,
  0xe7, 0xce, 0xf3, 0xbc, 0xaa, 0x4f, 0xb5, 0xbd, 0x8a, 0x96, 0x9b, 0x3c,
  0x94, 0xbf, 0x80, 0x3d, 0x9a, 0x34, 0x4d, 0x3d, 0xfe, 0x17, 0xb4, 0x39,
  0xc4, 0x9d, 0x97, 0xbd, 0x27, 0x15, 0x95, 0xbd, 0xbe, 0xd3, 0x7a, 0x3b,
  0xe2, 0x9e, 0x3a, 0x3d, 0x57, 0xd0, 0x1c, 0x3d, 0xca, 0x40, 0xf3, 0xbc,
  0xca, 0xb7, 0x19, 0x3d, 0xc8, 0x32, 0x9a, 0xbd, 0x30, 0xb8, 0x68, 0xbd,
  0x01, 0x2d, 0x29, 0x3c, 0x17, 0xbd, 0x39, 0xbd, 0x03, 0x4e, 0xf9, 0xbc,
  0x99, 0xd2, 0x6f, 0xbd, 0xfb, 0x71, 0x8c, 0xbd, 0x5b, 0x32, 0x59, 0x3d,
  0x8c, 0x59, 0x46, 0xbd, 0x64, 0xfb, 0x27, 0xbd, 0x6c, 0x9a, 0x54, 0x3d,
  0x9b, 0x8c, 0xf2, 0x3c, 0x8b, 0x6a, 0x46, 0xbd, 0x09, 0x2c, 0xad, 0x3b,
  0xd4, 0x93, 0x84, 0xbd, 0x37, 0x66, 0x86, 0x3d, 0xa1, 0xaf, 0x85, 0xbd,
  0x9f, 0xf4, 0x54, 0xbd, 0x1e, 0xc0, 0x05, 0xbd, 0xec, 0xb6, 0x21, 0xbc,
  0xd9, 0x46, 0x81, 0xbd, 0xaa, 0xd7, 0xc1, 0xbd, 0x98, 0xdd, 0xe5, 0x3c,
  0xa2, 0x85, 0x0d, 0x3c, 0xb1, 0x9e, 0x22, 0xbd, 0x90, 0xb4, 0xa6, 0xbd,
  0x7b, 0xe5, 0x99, 0xbc, 0x93, 0xdd, 0x29, 0xbd, 0x04, 0x14, 0x83, 0x3a,
  0xf4, 0x53, 0xc3, 0xbd, 0x3a, 0x3c, 0x50, 0x3d, 0x3c, 0x07, 0x96, 0x3b,
  0x7b, 0x71, 0x26, 0x3d, 0x8a, 0x06, 0x9b, 0xbd, 0xc2, 0xd5, 0x20, 0x3d,
  0xda, 0xf0, 0xa2, 0xbd, 0xcf, 0x3a, 0xef, 0x3b, 0xc2, 0x0b, 0x66, 0x3d,
  0xec, 0x83, 0x8d, 0xbc, 0x0c, 0xa2, 0x5f, 0x3d, 0x93, 0x44, 0x80, 0x3d,
  0x07, 0x31, 0x67, 0xbd, 0xbf, 0xc1, 0x5c, 0xbd, 0xd3, 0x5e, 0x05, 0xbd,
  0x4d, 0x03, 0x51, 0xbd, 0x59, 0x34, 0x03, 0xbc, 0x52, 0x65, 0xe2, 0xbc,
  0x65, 0x1a, 0x96, 0xbd, 0xac, 0x40, 0xc2, 0xbc, 0xb9, 0xbe, 0xc8, 0x3c,
  0xea, 0x89, 0x49, 0xbc, 0x92, 0x7c, 0x17, 0xbc, 0xef, 0x4e, 0x59, 0x3c,
  0x11, 0xbe, 0x3e, 0x3c, 0xbe, 0x3a, 0x9b, 0x38, 0x74, 0x10, 0x0a, 0xbd,
  0x76, 0x0c, 0xbd, 0x3b, 0x95, 0x81, 0x3a, 0xbd, 0x8e, 0x64, 0x7b, 0xbc,
  0xc2, 0x11, 0x23, 0xbd, 0x61, 0xc3, 0x0f, 0xbd, 0x4b, 0x8d, 0x6d, 0x3d,
  0x8f, 0xde, 0x1c, 0xbd, 0x40, 0x9a, 0x04, 0xbc, 0x04, 0x47, 0x58, 0xbd,
  0x7c, 0x19, 0x0e, 0x3d, 0x0e, 0x87, 0x9f, 0xbd, 0x47, 0x4f, 0xd9, 0xbc,
  0xfa, 0xde, 0x3c, 0x3d, 0xff, 0x17, 0x27, 0x3c, 0x2e, 0x51, 0x50, 0x3d,
  0xc3, 0x1a, 0x35, 0xbd, 0x63, 0x67, 0xc2, 0x3a, 0x1c, 0x1e, 0x90, 0x3b,
  0xbe, 0xf3, 0xa1, 0xbd, 0x10, 0xe7, 0x6a, 0x3c, 0xde, 0xd9, 0x4b, 0xbc,
  0x1c, 0xd0, 0x0a, 0x3c, 0x81, 0x46, 0x53, 0xbc, 0x91, 0x99, 0x64, 0xbd,
  0x87, 0xa0, 0x35, 0x3d, 0xb9, 0x05, 0xbb, 0xbd, 0xf4, 0x87, 0x75, 0xbd,
  0x1f, 0xf1, 0x95, 0xbd, 0xcd, 0xeb, 0x62, 0x3d, 0xfa, 0x6c, 0x86, 0xbd,
  0xd2, 0xd2, 0x67, 0xbd, 0xd0, 0x8e, 0xbf, 0xbd, 0xf8, 0x01, 0xa6, 0xbd,
  0x63, 0x30, 0xe1, 0xbc, 0x21, 0xb0, 0x55, 0xbd, 0x53, 0x1d, 0xc3, 0xbd,
  0x42, 0x4a, 0xb6, 0x3c, 0x7f, 0xf5, 0xa3, 0x3c, 0xec, 0xa0, 0x84, 0xbd,
  0x73, 0xa0, 0x83, 0xbd, 0xb5, 0xbf, 0x86, 0xbd, 0xc7, 0xa9, 0x8c, 0xbd,
  0xae, 0x16, 0xfa, 0x3c, 0x69, 0x55, 0x3c, 0xbd, 0x8d, 0x15, 0x9a, 0xbd,
  0x6f, 0x03, 0xc6, 0xbc, 0x2e, 0x59, 0xb3, 0xbc, 0x97, 0x60, 0x5c, 0x3d,
  0xff, 0xcc, 0xef, 0x3c, 0xcd, 0x5a, 0x87, 0xbd, 0xab, 0x96, 0x7b, 0x3d,
  0x5f, 0x43, 0x7e, 0x3d, 0xce, 0xeb, 0x63, 0xbb, 0x3b, 0x27, 0x02, 0xbd,
  0x2a, 0x88, 0x9f, 0x3c, 0xbe, 0xa5, 0x9a, 0xbd, 0x5c, 0x33, 0xc2, 0xbb,
  0xdd, 0xb5, 0x6c, 0xbd, 0x10, 0x3e, 0xba, 0x3b, 0x74, 0x13, 0x9f, 0x3c,
  0x29, 0x02, 0xb4, 0xbd, 0x83, 0x9f, 0xb3, 0x3c, 0xe0, 0x2a, 0x20, 0xbd,
  0x2c, 0x5c, 0x60, 0x3c, 0xf1, 0x58, 0x43, 0xbd, 0x79, 0x28, 0x56, 0x3d,
  0xc8, 0xbd, 0x84, 0x3d, 0x58, 0xdc, 0x82, 0xbd, 0xdc, 0x61, 0x49, 0xbd,
  0x35, 0x66, 0x8b, 0xbd, 0xcf, 0x40, 0x64, 0xbd, 0xf3, 0x1a, 0x59, 0xbb,
  0xe0, 0xea, 0xaf, 0x3b, 0x67, 0x4b, 0xa9, 0x3c, 0x43, 0x07, 0xb7, 0xbd,
  0xe7, 0xa3, 0x7c, 0xbd, 0x85, 0x51, 0x3d, 0xbc, 0xff, 0x35, 0xb6, 0xbd,
  0x76, 0xe9, 0x43, 0xbd, 0x9c, 0xbf, 0xf7, 0xbb, 0x95, 0xbf, 0x6c, 0x3d,
  0xb9, 0x35, 0x32, 0xbd, 0x71, 0x87, 0x65, 0x3d, 0x14, 0x7f, 0x84, 0x3d,
  0x96, 0x11, 0xb2, 0x3c, 0x1b, 0x75, 0x77, 0x3d, 0x6e, 0xc2, 0xb2, 0xbd,
  0xfc, 0x0a, 0x96, 0xbd, 0x8e, 0x59, 0x07, 0x3b, 0x3d, 0x99, 0x40, 0xbd,
  0xa0, 0x45, 0xae, 0x3a, 0x40, 0x4f, 0xfe, 0xbc, 0xb1, 0x6c, 0x0a, 0x3c,
  0x5b, 0xc3, 0x42, 0xbd, 0x82, 0xb9, 0x20, 0x3d, 0xd8, 0x5e, 0x41, 0xbd,
  0x91, 0x18, 0x95, 0x3c, 0x63, 0x79, 0xaa, 0x3c, 0xd0, 0xd8, 0x27, 0x3d,
  0x5d, 0xae, 0xd1, 0xbc, 0xe2, 0x2a, 0xe4, 0x3c, 0x9b, 0x19, 0xf1, 0xbc,
  0x3d, 0xd9, 0x30, 0x3d, 0x32, 0x84, 0x6b, 0xbb, 0xa6, 0x31, 0xa5, 0xbd,
  0x23, 0x25, 0x25, 0xbd, 0xe6, 0x17, 0x80, 0x3d, 0x79, 0xef, 0xd2, 0x3c,
  0x07, 0xe0, 0xb9, 0xbc, 0xe9, 0xe7, 0xc5, 0xbd, 0x0b, 0x53, 0xd2, 0x3b,
  0x7b, 0x44, 0x0d, 0x3d, 0x4b, 0x1c, 0x81, 0xbd, 0xb9, 0xc9, 0x38, 0xbd,
  0x77, 0xff, 0x8c, 0xbd, 0xa6, 0x4c, 0x2f, 0x3d, 0x92, 0xcb, 0x28, 0x3d,
  0xc2, 0xc9, 0xa9, 0xbd, 0x77, 0x8c, 0x20, 0xbd, 0xbc, 0x5d, 0xde, 0x3c,
  0x64, 0x4a, 0xcc, 0xbb, 0x45, 0x83, 0xa6, 0xbc, 0x8b, 0x72, 0x9f, 0xbd,
  0x91, 0xc1, 0x02, 0xbd, 0x41, 0x32, 0x65, 0x3d, 0x1e, 0x4e, 0x16, 0xbb,
  0x00, 0xc1, 0xd6, 0xbc, 0xae, 0x44, 0x94, 0xbd, 0x01, 0xf1, 0x04, 0x3b,
  0xaa, 0x0c, 0x7f, 0xbd, 0x0a, 0x15, 0xbd, 0x3c, 0x29, 0xb9, 0x62, 0x3b,
  0xb0, 0xe8, 0x93, 0xbd, 0x9f, 0x9a, 0xb2, 0xba, 0xf3, 0x45, 0x6e, 0xbd,
  0x53, 0x92, 0xa8, 0xbc, 0x52, 0x5b, 0x1b, 0x3d, 0xe6, 0xcc, 0x53, 0x3d,
  0xb7, 0x51, 0x74, 0xbb, 0x9c, 0xb7, 0x8a, 0xbd, 0xea, 0xfa, 0x5e, 0x3d,
  0xf1, 0xad, 0xc1, 0xbb, 0x78, 0x4f, 0xa3, 0xbd, 0xf6, 0x80, 0x07, 0x3c,
  0xaa, 0x0c, 0x8b, 0xbd, 0x9d, 0xc1, 0xbf, 0xbd, 0x4c, 0x90, 0x1c, 0xbd,
  0xac, 0x7b, 0x66, 0xbd, 0xb9, 0x96, 0x04, 0x3d, 0x8a, 0xcf, 0xf9, 0xbc,
  0x4d, 0xa8, 0x81, 0x3d, 0x57, 0x03, 0x8f, 0x3d, 0x1c, 0x8b, 0xae, 0xbd,
  0xde, 0x8a, 0x35, 0x3c, 0x55, 0x89, 0xd3, 0x3c, 0x32, 0xd5, 0xfe, 0x3b,
  0x55, 0x30, 0x39, 0x3d, 0xc0, 0xa0, 0x27, 0xbd, 0x00, 0x8f, 0x85, 0xbd,
  0x29, 0x89, 0x99, 0xbd, 0xc1, 0xd7, 0x8b, 0x3c, 0x91, 0x7a, 0x69, 0x3d,
  0x37, 0x16, 0x22, 0x3d, 0x24, 0x7b, 0x66, 0x3d, 0xb3, 0x86, 0xe3, 0x3c,
  0x92, 0xb3, 0xb1, 0xbd, 0xbe, 0xd5, 0xa6, 0xbc, 0xf0, 0xfb, 0x81, 0x3b,
  0x9b, 0xc9, 0x8c, 0xbc, 0x7e, 0xfb, 0x40, 0x3d, 0xb9, 0x80, 0xb4, 0xbd,
  0x05, 0xc1, 0x6b, 0xbd, 0x15, 0x15, 0x6d, 0x3c, 0xd1, 0x87, 0x8c, 0xbd,
  0x6a, 0xe8, 0x60, 0x3d, 0x22, 0x53, 0x75, 0xbd, 0x05, 0x99, 0x19, 0xbd,
  0xb4, 0x91, 0x20, 0xbd, 0x65, 0xd9, 0xd2, 0x3c, 0xb6, 0x88, 0x08, 0xbd,
  0x92, 0xd4, 0x96, 0x3d, 0x28, 0xae, 0xa3, 0xbc, 0xce, 0xb2, 0x8d, 0xba,
  0x7c, 0x1b, 0x0b, 0x3d, 0xc8, 0xaf, 0x81, 0xbc, 0x75, 0x72, 0xf9, 0xbc,
  0x0e, 0xd8, 0x3e, 0xbd, 0x08, 0x98, 0x94, 0xbc, 0x4b, 0x1c, 0xce, 0xbc,
  0x73, 0xe1, 0xed, 0x3c, 0xbb, 0x70, 0xab, 0x3c, 0x73, 0xaa, 0xcd, 0x3c,
  0x62, 0xde, 0x47, 0x3d, 0x67, 0x2b, 0x4f, 0x3d, 0xdf, 0x1e, 0xb7, 0xbc,
  0xea, 0x1f, 0x82, 0xbd, 0x25, 0x7a, 0xe9, 0x3c, 0x61, 0x1a, 0xa5, 0x3c,
  0xdd, 0xec, 0x07, 0xbd, 0xe7, 0xc9, 0x69, 0x3d, 0xe3, 0xab, 0xa5, 0xbd,
  0x00, 0x84, 0xa2, 0xbc, 0xb7, 0x62, 0x1e, 0xbd, 0x4e, 0x63, 0x28, 0xbd,
  0x1f, 0x75, 0x2c, 0xbd, 0xb0, 0x8b, 0xe7, 0x3a, 0xe1, 0x87, 0x12, 0xbc,
  0x08, 0xde, 0x15, 0x3d, 0xa6, 0x5b, 0x8b, 0xbd, 0xc2, 0x7c, 0x8a, 0xbd,
  0x80, 0x7b, 0xf4, 0x3c, 0xe6, 0xa6, 0xfe, 0xbc, 0xa9, 0xe4, 0x9f, 0xbc,
  0x7a, 0x84, 0x1d, 0x3d, 0xb4, 0xb1, 0x81, 0x3d, 0x88, 0xc8, 0x9e, 0xbd,
  0xcb, 0x4a, 0x95, 0xbd, 0x5e, 0xbd, 0xb3, 0x3c, 0x70, 0xf6, 0x0a, 0x3d,
  0x18, 0x9f, 0x51, 0xbc, 0xdb, 0xe6, 0x09, 0x3b, 0x18, 0x1b, 0x3a, 0x3d,
  0x23, 0x94, 0x96, 0xbd, 0x74, 0xce, 0x9e, 0x3c, 0xc9, 0xb2, 0x85, 0xbd,
  0x25, 0x43, 0x26, 0xbd, 0x92, 0xda, 0xc6, 0xbd, 0x22, 0xa4, 0x98, 0xbd,
  0x65, 0x43, 0x94, 0xbb, 0xb5, 0xaa, 0x94, 0xbd, 0x16, 0x6a, 0xc2, 0x3c,
  0xd0, 0xac, 0x74, 0x3d, 0x03, 0xd9, 0x52, 0x3c, 0xb7, 0x62, 0xc9, 0xbd,
  0xb7, 0x72, 0x37, 0xbd, 0x9b, 0xaa, 0x9b, 0xbd, 0x74, 0xe6, 0xc7, 0x3c,
  0xbc, 0xb6, 0xd4, 0xbc, 0xa3, 0xfc, 0x35, 0x3d, 0x5a, 0x6d, 0x89, 0xbd,
  0xb4, 0xe9, 0x6b, 0x3d, 0xb9, 0x8a, 0xcd, 0x3b, 0xd5, 0x74, 0xa1, 0xbc,
  0x04, 0xd1, 0xc2, 0x3c, 0xe6, 0x84, 0x17, 0xbc, 0xfb, 0x09, 0x4f, 0xbd,
  0x09, 0xa7, 0xc9, 0xbd, 0x0f, 0x48, 0x94, 0xbb, 0xc8, 0x75, 0x55, 0x3c,
  0xb5, 0xd9, 0x4a, 0x3c, 0xf8, 0x14, 0xad, 0xbc, 0x50, 0x9a, 0x92, 0xbd,
  0xfc, 0x46, 0xbc, 0xbd, 0xd9, 0x9e, 0xfc, 0xbb, 0xdc, 0x05, 0x5e, 0xbc,
  0x48, 0x79, 0x4a, 0xbd, 0xbd, 0x2e, 0x3b, 0xbd, 0x00, 0x27, 0xc7, 0xbd,
  0x1d, 0xc8, 0x34, 0x3d, 0x5c, 0xb0, 0x04, 0xbd, 0x50, 0xee, 0x9a, 0xbd,
  0x26, 0xdf, 0x4b, 0xbd, 0x50, 0xa6, 0xd0, 0x3c, 0x55, 0xc8, 0x9e, 0xbd,
  0x49, 0x77, 0x98, 0xbc, 0x72, 0x2d, 0x7a, 0xbd, 0x4d, 0x86, 0xb7, 0xbd,
  0x2f, 0xa0, 0x0d, 0xbc, 0x0c, 0x18, 0x5e, 0x3d, 0x12, 0xf4, 0x88, 0xbd,
  0x72, 0xde, 0x17, 0xbd, 0x3e, 0x2c, 0x80, 0x3a, 0x56, 0xa5, 0x4c, 0x3c,
  0x83, 0x90, 0x6c, 0xbc, 0xe5, 0x68, 0x37, 0xbc, 0xb0, 0xb8, 0x78, 0x3d,
  0x65, 0x45, 0x84, 0xbc, 0x8a, 0x7f, 0x53, 0xbc, 0xe6, 0x62, 0xf5, 0xbc,
  0x24, 0x44, 0xce, 0xbc, 0x83, 0xb8, 0x4e, 0x3d, 0xa0, 0xc4, 0xca, 0xbd,
  0x46, 0xed, 0x89, 0xba, 0x96, 0x9c, 0x1f, 0xbd, 0x3a, 0x19, 0x59, 0x3d,
  0x17, 0x2a, 0xc2, 0x3b, 0x6f, 0x30, 0x50, 0xbd, 0x70, 0x83, 0xec, 0xbb,
  0xb4, 0x08, 0xa2, 0xbc, 0xe4, 0xb6, 0xb9, 0xbd, 0xff, 0x81, 0x99, 0xbd,
  0x0a, 0x4b, 0xa5, 0xbd, 0x08, 0xae, 0x1e, 0x3d, 0x54, 0xbb, 0x9e, 0x3c,
  0xe4, 0xfd, 0xf6, 0x3c, 0xea, 0x15, 0x1b, 0xbd, 0x9f, 0xdb, 0x55, 0xbd,
  0x95, 0x15, 0x54, 0x3d, 0x95, 0x76, 0x31, 0x3d, 0x66, 0x2d, 0x1f, 0x3d,
  0xdc, 0x4b, 0x21, 0xbc, 0x05, 0x98, 0xc3, 0xbd, 0xb9, 0x6f, 0x91, 0xbd,
  0xba, 0x40, 0x81, 0xbd, 0x10, 0xe9, 0x05, 0x3d, 0xce, 0x8b, 0x0a, 0xbd,
  0x5f, 0xb0, 0x7a, 0xbd, 0x17, 0xb7, 0xb7, 0xbd, 0x26, 0xef, 0x9a, 0xbd,
  0x95, 0x35, 0xae, 0xbc, 0xb7, 0x54, 0x07, 0x3d, 0x33, 0x81, 0x9e, 0xbb,
  0x46, 0xae, 0x06, 0xbd, 0xa2, 0xda, 0x96, 0xbc, 0xb3, 0x4d, 0x53, 0x3c,
  0x94, 0x74, 0x09, 0x3d, 0x50, 0xf1, 0x84, 0x3c, 0xdc, 0x5e, 0x4b, 0xbd,
  0x2f, 0xa3, 0x07, 0xbd, 0x5c, 0x87, 0x07, 0x3d, 0x43, 0x0e, 0xa1, 0xbd,
  0x74, 0xc5, 0x3e, 0x3d, 0xbe, 0x59, 0x80, 0xbd, 0xd7, 0x60, 0x53, 0xbd,
  0xe6, 0x4a, 0xbb, 0x3c, 0x99, 0x06, 0x1f, 0x3d, 0x41, 0x8e, 0x30, 0xbd,
  0xc4, 0xc6, 0x92, 0xbc, 0xee, 0x3c, 0x1d, 0xbc, 0x26, 0x91, 0x36, 0xbd,
  0x26, 0xfe, 0xa9, 0xbc, 0xac, 0xbe, 0x93, 0xbd, 0xf6, 0x19, 0xe9, 0x3c,
  0x5a, 0x5a, 0xb1, 0xbd, 0x1d, 0x5d, 0x57, 0x3d, 0xbc, 0x70, 0x09, 0x3c,
  0xea, 0x3c, 0xbd, 0x3b, 0x41, 0xc5, 0x1b, 0x3d, 0x5d, 0xd8, 0x82, 0xbb,
  0x19, 0xb5, 0xc6, 0x3c, 0x38, 0xdd, 0x8a, 0x3d, 0xd9, 0x5b, 0xc6, 0xbd,
  0xf8, 0x15, 0xd2, 0xbc, 0x4c, 0x0d, 0x2d, 0xbd, 0xe3, 0xd1, 0xae, 0xbc,
  0xd4, 0x7c, 0xc8, 0xbd, 0x32, 0x4d, 0xb3, 0xbd, 0x90, 0x2d, 0x2c, 0x3d,
  0x17, 0xaa, 0x0c, 0xbd, 0x5d, 0x96, 0xc7, 0xbd, 0xa1, 0xa2, 0x7e, 0xbd,
  0xe2, 0xc6, 0x55, 0xbd, 0xc6, 0x77, 0x4d, 0xbd, 0x9f, 0xda, 0x3a, 0x3d,
  0x30, 0x7c, 0x01, 0xbc, 0x00, 0x4f, 0x8e, 0x3d, 0x30, 0x7b, 0x61, 0x3d,
  0xb6, 0x64, 0x31, 0xbd, 0x52, 0x2a, 0xa9, 0xbd, 0x0c, 0x75, 0x78, 0x3d,
  0x1c, 0x09, 0x3f, 0x3d, 0xd1, 0x34, 0x2f, 0xbb, 0x15, 0xc9, 0x87, 0xbd,
  0x0b, 0x18, 0x6f, 0xbd, 0x3f, 0xd0, 0x6c, 0xbd, 0x39, 0x7d, 0xa8, 0xbd,
  0xb6, 0x44, 0x12, 0x3d, 0x1d, 0x39, 0x59, 0xbd, 0x78, 0x24, 0xff, 0x3c,
  0x73, 0x4b, 0x4d, 0x3d, 0x5b, 0x1d, 0x34, 0xbd, 0xf5, 0x8a, 0xf4, 0x3c,
  0xc6, 0x39, 0x81, 0x3d, 0x96, 0xab, 0xdf, 0xbc, 0x7c, 0xd9, 0x57, 0x3d,
  0x16, 0x68, 0x93, 0x3b, 0x6b, 0x06, 0x7f, 0xbd, 0x6a, 0x1b, 0x63, 0xbc,
  0x48, 0xa7, 0x23, 0xbd, 0xc3, 0xcf, 0x7f, 0x3d, 0xe2, 0x9b, 0xac, 0xbc,
  0xd6, 0xfd, 0xac, 0xbc, 0xea, 0x31, 0x4f, 0xbd, 0x99, 0x0f, 0xb4, 0xbd,
  0x4c, 0xf7, 0x13, 0x3d, 0x82, 0xb5, 0x0d, 0xbd, 0x76, 0xf9, 0x5b, 0x3d,
  0x40, 0xb1, 0x79, 0xbc, 0x73, 0xb0, 0xb2, 0x3b, 0x83, 0x03, 0x2e, 0xbd,
  0xa4, 0x76, 0x1b, 0x3d, 0xac, 0x3f, 0x61, 0x3d, 0xbf, 0xc6, 0xb1, 0xbd,
  0x4b, 0x26, 0xa1, 0xbc, 0x0e, 0xa4, 0xb8, 0xbd, 0x38, 0xde, 0x7d, 0xbc,
  0x0d, 0xc1, 0xee, 0xbb, 0x24, 0x1f, 0x12, 0xbd, 0x82, 0xac, 0xad, 0x3c,
  0xa0, 0x1b, 0x1f, 0x3c, 0xff, 0x07, 0x16, 0xbd, 0x79, 0x7a, 0xbc, 0xbd,
  0x75, 0x4f, 0x70, 0x3d, 0x80, 0xaa, 0x7b, 0x3b, 0x15, 0x60, 0x50, 0xbd,
  0xd9, 0x10, 0x95, 0xbd, 0x7f, 0x02, 0x64, 0xbc, 0x05, 0xe6, 0x8d, 0xbd,
  0x80, 0x24, 0x80, 0xbc, 0x87, 0x26, 0x1c, 0xbc, 0x9e, 0x33, 0x5c, 0xbd,
  0xe2, 0x38, 0x83, 0x3d, 0x3d, 0xc9, 0xb2, 0xba, 0xde, 0xe8, 0xca, 0x3c,
  0x14, 0x90, 0x0f, 0x3d, 0xa8, 0xf0, 0x33, 0x3c, 0x93, 0x77, 0x16, 0x3d,
  0xc8, 0x0e, 0xd3, 0xbc, 0x06, 0x18, 0x60, 0x3c, 0x40, 0x96, 0x0f, 0x3c,
  0xea, 0xad, 0x44, 0x3c, 0x08, 0x1a, 0x8c, 0xbd, 0xa8, 0x7c, 0x8b, 0x3d,
  0xcd, 0x26, 0x24, 0xbe, 0x6f, 0x6b, 0x37, 0xbc, 0xa9, 0xba, 0x98, 0xbd,
  0xb0, 0xc1, 0x53, 0x3e, 0xd0, 0x11, 0x1f, 0x3a, 0x68, 0x06, 0xb1, 0x3c,
  0xba, 0xc7, 0x5b, 0x3d, 0x43, 0xfc, 0x41, 0x3e, 0x46, 0xb1, 0x3d, 0xbd,
  0x38, 0x6f, 0x8d, 0xbd, 0xc0, 0x1c, 0xcc, 0x3d, 0x15, 0x56, 0xd9, 0x3d,
  0x29, 0x1e, 0x06, 0xbe, 0x2b, 0xc2, 0x98, 0xbd, 0x9c, 0x1f, 0x02, 0x3e,
  0x27, 0x0e, 0xcc, 0x3c, 0xdd, 0x73, 0xe5, 0x3c, 0xff, 0x6c, 0x24, 0xbc,
  0xd3, 0x4d, 0x96, 0x3d, 0x85, 0xb2, 0x15, 0x3c, 0x73, 0xa3, 0x38, 0x3d,
  0x7c, 0xae, 0x01, 0x3c, 0xad, 0xb0, 0xe2, 0x3d, 0x54, 0xe2, 0x5a, 0xbb,
  0xed, 0x6c, 0x75, 0xbd, 0xd5, 0x55, 0x78, 0xbd, 0x98, 0x3b, 0x5e, 0x3c,
  0xcd, 0x7f, 0x47, 0xbc, 0x8d, 0x74, 0x90, 0x3d, 0xa0, 0x92, 0x7a, 0x3c,
  0xe1, 0xd8, 0x15, 0x3d, 0x75, 0x19, 0x94, 0x3d, 0x5d, 0x1a, 0x5e, 0xbc,
  0x86, 0xa3, 0xb5, 0xbd, 0xc2, 0x68, 0xac, 0x3d, 0xbd, 0xc6, 0x37, 0x3d,
  0xa6, 0x2d, 0x3e, 0xbd, 0xe5, 0xfd, 0x13, 0x3b, 0x4d, 0x7d, 0xdd, 0x3c,
  0x94, 0x84, 0x00, 0x3e, 0x49, 0x15, 0x9c, 0x3d, 0x5c, 0x12, 0x99, 0x3d,
  0x55, 0x7a, 0xb3, 0xbc, 0xa7, 0xc2, 0xd4, 0x3d, 0xa8, 0xd3, 0x96, 0xbd,
  0x7e, 0xb6, 0x94, 0xbc, 0x0b, 0x4f, 0xc8, 0x3c, 0x90, 0xc3, 0xc6, 0x3d,
  0x9d, 0x03, 0x77, 0x3d, 0x90, 0x70, 0x2c, 0xbd, 0x40, 0xf8, 0x1b, 0x3e,
  0xa3, 0xaa, 0x6f, 0xbc, 0xef, 0xea, 0x8b, 0xbd, 0x27, 0x0c, 0x08, 0xbd,
  0x52, 0xb5, 0x04, 0x3e, 0xbf, 0xd9, 0xae, 0x3d, 0xbe, 0xac, 0x05, 0xbd,
  0x4a, 0x5a, 0x05, 0x3c, 0xd4, 0x1a, 0xec, 0x3c, 0x16, 0x4f, 0xca, 0x3d,
  0x48, 0xcb, 0x93, 0xbd, 0x2e, 0x0a, 0x26, 0xbe, 0xe5, 0xf9, 0x61, 0x3c,
  0x67, 0xad, 0x93, 0x3c, 0xe1, 0xc1, 0x30, 0xbd, 0x96, 0xe5, 0xd1, 0x3c,
  0x82, 0x48, 0x4f, 0x3d, 0x04, 0x01, 0x21, 0x3d, 0x9a, 0xcf, 0x99, 0xbd,
  0xf8, 0x7b, 0x37, 0xbe, 0x1f, 0x87, 0x2b, 0x3e, 0xf8, 0x17, 0xf9, 0x3d,
  0x19, 0x45, 0x30, 0xbe, 0x86, 0x11, 0x11, 0xbe, 0x7c, 0x94, 0x16, 0x3d,
  0x1e, 0xd8, 0x6d, 0x3d, 0x12, 0xff, 0x76, 0xbd, 0xa4, 0x16, 0xdd, 0xbd,
  0x7c, 0x13, 0x87, 0x3d, 0x08, 0xcf, 0x92, 0x3c, 0xb4, 0xbd, 0x2a, 0xbc,
  0x7a, 0xad, 0x36, 0xbc, 0x8a, 0x5a, 0x13, 0x3e, 0x15, 0x6a, 0xf3, 0x3d,
  0x26, 0xee, 0x96, 0xbd, 0x1e, 0x5b, 0x86, 0x3d, 0xb1, 0x31, 0x19, 0x3e,
  0x2a, 0x21, 0xc4, 0x3c, 0xa0, 0xc3, 0x8d, 0xbb, 0x07, 0x76, 0x98, 0x3d,
  0x90, 0xe3, 0x0a, 0x3e, 0x4a, 0x66, 0xe0, 0x3d, 0x19, 0xb9, 0x74, 0x3c,
  0xc6, 0x2c, 0x9a, 0x3d, 0x3b, 0x9a, 0xe8, 0xbb, 0x1a, 0x3f, 0xe1, 0x3d,
  0x25, 0x8e, 0x43, 0xbd, 0x1b, 0xa2, 0xb1, 0x3d, 0xf8, 0x11, 0x86, 0xbc,
  0x8c, 0xa0, 0x08, 0x3e, 0x15, 0xd1, 0x59, 0xbd, 0x7b, 0x01, 0xa4, 0xbc,
  0x6c, 0x58, 0x4b, 0x3d, 0xf3, 0x3c, 0xbe, 0xbc, 0x73, 0xcc, 0x40, 0x3d,
  0xc4, 0x74, 0x0d, 0x3d, 0xc8, 0x1c, 0xf1, 0x3c, 0xb8, 0x0e, 0x53, 0x3b,
  0x80, 0xc9, 0xc2, 0x3d, 0xd1, 0xba, 0xb3, 0xbc, 0xac, 0xf5, 0x0b, 0x3d,
  0xf4, 0x89, 0x11, 0x3d, 0xeb, 0x3f, 0x47, 0x3d, 0xff, 0x9b, 0xb0, 0xbd,
  0x16, 0xf0, 0xf1, 0x3d, 0x6c, 0x1d, 0x2b, 0x3d, 0x26, 0x90, 0xff, 0x3b,
  0x58, 0xfe, 0x1b, 0x3b, 0xc4, 0x8b, 0xec, 0x3d, 0xae, 0x9d, 0x0b, 0xbe,
  0x96, 0xf5, 0xbd, 0xbd, 0x2f, 0x3f, 0x0c, 0xbe, 0x63, 0x91, 0x34, 0x3d,
  0x43, 0x8a, 0x2e, 0xbd, 0x1d, 0x92, 0xb0, 0x3d, 0x2c, 0xff, 0x3d, 0xbd,
  0x53, 0x77, 0xb5, 0x3d, 0x1b, 0xd6, 0x1a, 0x3d, 0x83, 0x9f, 0xd3, 0xbd,
  0xb7, 0x01, 0x90, 0xbd, 0x6d, 0x20, 0x40, 0x3e, 0x71, 0x95, 0x85, 0x3d,
  0xb1, 0xe6, 0x04, 0x3c, 0xba, 0xb6, 0x0d, 0xbe, 0x7f, 0xb9, 0xc5, 0x3d,
  0x0a, 0x4c, 0xc9, 0xbc, 0xf7, 0x57, 0x5c, 0xbb, 0xfb, 0x7b, 0xf0, 0xbd,
  0x36, 0x9f, 0x2a, 0x3e, 0xb7, 0x55, 0xdc, 0x3d, 0xe7, 0x60, 0xaf, 0x3b,
  0x3f, 0x59, 0x57, 0x3c, 0xc0, 0x31, 0x0d, 0x3d, 0x78, 0xc2, 0x44, 0x3d,
  0x2d, 0x7e, 0x88, 0xbc, 0xb2, 0xe3, 0x55, 0xbd, 0x56, 0x35, 0xc6, 0x3d,
  0xde, 0x1b, 0x13, 0x3d, 0x83, 0xca, 0xcb, 0x3c, 0x18, 0xb7, 0x7e, 0xbb,
  0xb2, 0x15, 0x3b, 0xbc, 0x41, 0x85, 0xcf, 0x3d, 0xc5, 0xb5, 0x8a, 0x3a,
  0x83, 0xd3, 0xe9, 0x3c, 0x85, 0x27, 0x9e, 0x3b, 0xad, 0xbf, 0xc7, 0x3d,
  0x59, 0xeb, 0xba, 0xbc, 0x3a, 0xfe, 0x23, 0xbd, 0x06, 0x1c, 0x01, 0x3e,
  0x70, 0xd8, 0xd6, 0x3d, 0xe8, 0x6f, 0xd9, 0xbb, 0x05, 0x41, 0xbe, 0x3d,
  0x85, 0x8f, 0x54, 0x3d, 0x60, 0x72, 0xa4, 0x3d, 0x42, 0x36, 0x53, 0x3c,
  0x3f, 0x4b, 0xc1, 0x39, 0x06, 0xff, 0xec, 0x3d, 0xb0, 0xb1, 0x2e, 0xb7,
  0xa3, 0xd9, 0xf3, 0x3c, 0xd4, 0x6a, 0x3c, 0x3b, 0xbc, 0x53, 0xc9, 0x3c,
  0x81, 0x18, 0x07, 0x3e, 0x1e, 0x32, 0x30, 0xbd, 0x98, 0x42, 0xb2, 0x3d,
  0x7c, 0xf5, 0x0f, 0x3e, 0xb1, 0x4d, 0xc6, 0x3c, 0x7d, 0xea, 0xbb, 0xbd,
  0x84, 0xdb, 0x2d, 0xbd, 0xb2, 0x54, 0xa4, 0x3d, 0xae, 0xf9, 0x1c, 0xbc,
  0x6d, 0xca, 0xb0, 0xbd, 0x6d, 0x04, 0xb4, 0xbd, 0x2d, 0xbe, 0x8f, 0xbc,
  0x1f, 0x25, 0xce, 0x3b, 0xf9, 0xdd, 0xe5, 0x3d, 0x0f, 0x5f, 0x82, 0x3d,
  0x9a, 0x46, 0x25, 0x3d, 0x35, 0xa3, 0x16, 0x3e, 0x40, 0xf7, 0x18, 0x3d,
  0x99, 0x1c, 0x48, 0x3d, 0xe8, 0x1b, 0x9d, 0xbb, 0x1d, 0x6a, 0xd1, 0xba,
  0xbf, 0x6f, 0x03, 0xbc, 0x7a, 0xcb, 0x07, 0xbe, 0x68, 0xef, 0x84, 0xbc,
  0xec, 0x7b, 0x88, 0x3d, 0x39, 0xcf, 0x8d, 0xbd, 0xad, 0x47, 0x4d, 0xbd,
  0x9e, 0xe9, 0xf9, 0x3d, 0xd5, 0x72, 0xb6, 0x3c, 0x18, 0x2c, 0x72, 0x3d,
  0x07, 0x79, 0x6e, 0xbc, 0x10, 0x44, 0x02, 0x3e, 0xe0, 0x7a, 0x1a, 0x3d,
  0x87, 0xc2, 0x09, 0x3d, 0x6e, 0x05, 0xe9, 0xbb, 0xad, 0x6b, 0x84, 0x3d,
  0x41, 0xcb, 0x92, 0x3c, 0x7a, 0x44, 0x2a, 0x3d, 0x26, 0x99, 0xa4, 0x3c,
  0xa3, 0x01, 0x35, 0x3b, 0xbb, 0x9c, 0x29, 0x3a, 0x75, 0xc0, 0x2e, 0x3d,
  0x44, 0xde, 0x33, 0xbd, 0x46, 0x77, 0x0d, 0xbd, 0x7b, 0x5a, 0x2c, 0x3d,
  0x0f, 0x02, 0xde, 0x3b, 0xdd, 0x73, 0xb3, 0x3d, 0x89, 0x57, 0xc4, 0x3d,
  0x76, 0xc2, 0x36, 0x3d, 0x03, 0xed, 0x1b, 0x3c, 0x6e, 0xa0, 0x2a, 0xbb,
  0xff, 0xb5, 0x3e, 0xbc, 0x70, 0x51, 0x65, 0x3d, 0xab, 0x24, 0xac, 0x3d,
  0xf6, 0xc8, 0x7a, 0x3c, 0x2f, 0xcf, 0xb9, 0xbc, 0x65, 0x88, 0x6d, 0x3d,
  0x8d, 0x25, 0x06, 0xbd, 0x00, 0x87, 0x3c, 0x3d, 0xa9, 0xad, 0x63, 0x3c,
  0x34, 0x95, 0xad, 0x3c, 0x06, 0xa9, 0x97, 0x3d, 0xee, 0xc4, 0x0e, 0x3d,
  0x96, 0x87, 0xaf, 0x3b, 0xf0, 0x74, 0xcf, 0x3d, 0xc4, 0x9b, 0xf7, 0xbc,
  0xa5, 0x85, 0x91, 0xbd, 0xe7, 0x51, 0x1a, 0x3e, 0xe7, 0x74, 0xfa, 0xb9,
  0x64, 0x3f, 0x11, 0x3d, 0x5c, 0x1d, 0x8b, 0xba, 0xc9, 0x62, 0x99, 0x3d,
  0xee, 0xf3, 0xc6, 0x3c, 0x8b, 0xe6, 0x6e, 0x3d, 0xa1, 0xee, 0xcd, 0x3d,
  0x0c, 0x4d, 0xaf, 0xbc, 0x9d, 0xc2, 0xf2, 0x3d, 0x2c, 0x0b, 0x0b, 0xbd,
  0x2b, 0x47, 0xf9, 0x3d, 0x2b, 0xb2, 0xd0, 0xbc, 0xed, 0x60, 0xe0, 0xbc,
  0xfa, 0xf9, 0x7d, 0xbc, 0x90, 0xaf, 0x28, 0xbc, 0x6f, 0x13, 0xb4, 0x3d,
  0xae, 0x4d, 0x9c, 0xbb, 0x03, 0x2b, 0xfd, 0x3c, 0xa2, 0xfc, 0x8a, 0xbc,
  0xc4, 0xc5, 0x78, 0xbb, 0x25, 0xe0, 0xb5, 0xbc, 0xfb, 0x24, 0xc3, 0x3c,
  0x1e, 0xa5, 0xdb, 0xbd, 0xd8, 0xed, 0x0a, 0x3d, 0x51, 0x3a, 0x06, 0xbd,
  0xc8, 0x1c, 0x47, 0x3d, 0x24, 0xcf, 0x89, 0x3d, 0x63, 0x8a, 0xb4, 0x3d,
  0x9d, 0xd2, 0x80, 0x3d, 0x5b, 0x2d, 0x4f, 0x3b, 0xf6, 0xd7, 0x86, 0x3d,
  0xb8, 0x1d, 0x8d, 0x3d, 0x1c, 0xc6, 0xc4, 0x3d, 0xe6, 0x3a, 0x78, 0xbc,
  0x63, 0xf9, 0x6b, 0x3c, 0x7f, 0x7e, 0x40, 0x3b, 0x10, 0x29, 0x8b, 0xbb,
  0xcf, 0x55, 0xa0, 0x3c, 0xc6, 0x96, 0x5c, 0xbc, 0x47, 0xee, 0xc0, 0xbb,
  0x0e, 0xbe, 0x0a, 0x3c, 0x37, 0xb7, 0x65, 0x3d, 0x3f, 0x5c, 0xb0, 0x3d,
  0x80, 0x9d, 0x02, 0x3e, 0x7d, 0x55, 0x8d, 0x3d, 0xb8, 0xd0, 0x7e, 0xbd,
  0x95, 0x81, 0xae, 0x3c, 0x22, 0xc2, 0x9e, 0x3d, 0x23, 0xdd, 0x6d, 0x3d,
  0xdb, 0x23, 0x86, 0xbc, 0x35, 0x97, 0x64, 0xbd, 0xd3, 0xec, 0x97, 0x3d,
  0x05, 0x4c, 0xef, 0xbb, 0x93, 0x04, 0x91, 0x3d, 0xae, 0xfd, 0x92, 0xbc,
  0xee, 0xf8, 0x83, 0xbc, 0x23, 0xee, 0xbe, 0x3c, 0xec, 0x1e, 0x16, 0xbc,
  0xff, 0x18, 0x0c, 0xbb, 0x58, 0x5a, 0x10, 0x3e, 0xf1, 0x61, 0x1c, 0xbd,
  0x7d, 0x8b, 0x05, 0xbc, 0xba, 0xd4, 0x76, 0xbd, 0x33, 0x9b, 0xff, 0xbc,
  0x52, 0x0d, 0xd4, 0x3c, 0x0a, 0xf3, 0x2c, 0x3d, 0x8d, 0x55, 0x18, 0x3e,
  0x38, 0xfa, 0x81, 0x3d, 0xbd, 0x1b, 0x9d, 0x3d, 0xdc, 0xac, 0xed, 0x3d,
  0x59, 0x42, 0x82, 0xbc, 0x11, 0xd5, 0x92, 0x3b, 0xcc, 0xe6, 0xa7, 0x3d,
  0x9b, 0x66, 0x7a, 0x3c, 0x14, 0x33, 0x68, 0x3b, 0xae, 0x22, 0x2a, 0x3d,
  0xc4, 0xa6, 0x00, 0xbd, 0xef, 0xa5, 0x44, 0x3d, 0xf3, 0x1c, 0x90, 0xbd,
  0x0f, 0x73, 0xec, 0xbb, 0xa3, 0x3a, 0xf2, 0xbc, 0xea, 0x97, 0xd1, 0xbc,
  0xad, 0x4d, 0x09, 0x3c, 0xef, 0x3e, 0xf4, 0x3c, 0xae, 0xf5, 0x05, 0xbd,
  0x2e, 0x36, 0x40, 0xbc, 0xe0, 0x76, 0xf7, 0xbc, 0x2a, 0x56, 0xf9, 0x3d,
  0xec, 0x55, 0xff, 0x3b, 0xe3, 0x21, 0xab, 0xbb, 0x51, 0x3a, 0x8f, 0x3d,
  0xcc, 0x29, 0x77, 0x3b, 0x1b, 0x8e, 0x8e, 0x3a, 0x5b, 0x5f, 0x86, 0x3d,
  0x96, 0x16, 0x41, 0xbd, 0x37, 0x1f, 0x9d, 0x3d, 0xfb, 0xe4, 0xb0, 0x3c,
  0x39, 0x40, 0x41, 0x3b, 0x52, 0x83, 0x0f, 0xbb, 0x2d, 0xa9, 0xd3, 0x3d,
  0x3b, 0xe0, 0xf0, 0x3d, 0xf3, 0x95, 0xe8, 0xbb, 0x9e, 0x70, 0x61, 0xbc,
  0xc3, 0xe5, 0x0b, 0x3e, 0x0c, 0xe1, 0xdc, 0x3d, 0x11, 0x91, 0xb8, 0xbc,
  0x17, 0x17, 0xd8, 0x3d, 0x4b, 0xef, 0x33, 0x3d, 0x69, 0xbc, 0xef, 0x3c,
  0x1d, 0x52, 0x7e, 0x3d, 0xfa, 0xf5, 0x89, 0x3d, 0xae, 0x09, 0x56, 0x3d,
  0xa1, 0xe2, 0x2e, 0x3d, 0x7c, 0x11, 0x89, 0x3c, 0x58, 0x14, 0xe6, 0x3c,
  0x12, 0x26, 0xc4, 0x3d, 0xe4, 0xbc, 0x95, 0x3d, 0x17, 0x3d, 0x15, 0xbd,
  0xb8, 0x79, 0x8f, 0xbd, 0x35, 0xf0, 0x90, 0x3d, 0x4c, 0x8d, 0xee, 0xbd,
  0x73, 0xc1, 0x92, 0x3d, 0xad, 0x6f, 0x48, 0xbd, 0x3b, 0x52, 0x0f, 0x3d,
  0x41, 0xf2, 0x02, 0x3e, 0x2d, 0x95, 0x03, 0x3e, 0xde, 0x53, 0x1d, 0x3e,
  0x4c, 0x85, 0xc3, 0x3d, 0x71, 0xc3, 0x42, 0x3d, 0xe0, 0x11, 0xd9, 0xbc,
  0x79, 0xeb, 0x1d, 0x3a, 0xb6, 0x50, 0xd7, 0x3d, 0xdc, 0x4e, 0xf3, 0x3d,
  0x67, 0x93, 0x71, 0x3d, 0xe2, 0x60, 0x13, 0x3c, 0xbe, 0xb2, 0x7a, 0x3d,
  0xa1, 0x83, 0x55, 0x3d, 0x2b, 0xea, 0x1c, 0x3d, 0xf1, 0x06, 0x7d, 0xbd,
  0xc3, 0x22, 0xf4, 0x3c, 0x09, 0xf1, 0xa5, 0x3d, 0x34, 0xa2, 0x6b, 0x3d,
  0xe9, 0x1b, 0x84, 0xbc, 0x5a, 0xdc, 0xa9, 0x3d, 0x43, 0x6d, 0xb0, 0x3d,
  0x07, 0x25, 0xaf, 0x3d, 0xec, 0xa7, 0x17, 0xbd, 0x44, 0x7c, 0xa6, 0xbc,
  0x96, 0x68, 0x17, 0x3d, 0xb1, 0x4e, 0x0a, 0xbd, 0x29, 0x58, 0x04, 0xbd,
  0xa3, 0x16, 0x46, 0x3d, 0xe2, 0xbc, 0xca, 0x3b, 0x86, 0x0d, 0x5f, 0xbc,
  0xd9, 0x73, 0x83, 0xbc, 0x62, 0xa8, 0x58, 0xbd, 0x32, 0x70, 0x2e, 0x3a,
  0x0d, 0x49, 0xd4, 0x3b, 0xfe, 0x8c, 0x0a, 0xbd, 0xd8, 0xc7, 0xb8, 0x3d,
  0xae, 0xc5, 0xd4, 0x3d, 0xc0, 0xa6, 0x3a, 0xbd, 0x37, 0x39, 0x43, 0x3d,
  0x6f, 0xcd, 0xf6, 0x3c, 0x11, 0xff, 0x01, 0x3d, 0xad, 0x6a, 0x85, 0xbd,
  0xbc, 0x7d, 0xdc, 0x3c, 0xbf, 0xc8, 0x00, 0x3e, 0x6a, 0xcc, 0x9d, 0x3d,
  0xd9, 0x3d, 0x88, 0x3b, 0x45, 0x64, 0x6f, 0xbb, 0x02, 0x3f, 0xe2, 0x3d,
  0x71, 0x75, 0x51, 0xbc, 0x87, 0x3b, 0xba, 0x3c, 0x5e, 0x81, 0x24, 0xbd,
  0x22, 0x23, 0x8d, 0xbc, 0x76, 0xfe, 0x23, 0x3d, 0x4f, 0xee, 0x1e, 0x3c,
  0x3b, 0xc8, 0x91, 0xbd, 0xb6, 0x5f, 0xec, 0x3d, 0x3f, 0xa8, 0x53, 0x3d,
  0x6f, 0xcd, 0x92, 0x3b, 0x7d, 0xd8, 0xe3, 0xbc, 0x65, 0x89, 0x69, 0xbc,
  0x6a, 0xf7, 0x96, 0x3d, 0x92, 0xfc, 0x7d, 0x3d, 0x75, 0xf7, 0xfa, 0x3c,
  0x6c, 0xbe, 0x87, 0x3d, 0xeb, 0xac, 0x73, 0x3d, 0x1b, 0x30, 0x24, 0x3c,
  0x82, 0x4a, 0x13, 0x3e, 0x13, 0x5a, 0x93, 0xbb, 0x6a, 0xb7, 0xdf, 0x3b,
  0x5c, 0xbc, 0x69, 0xbc, 0xf6, 0x40, 0x0f, 0xbc, 0xe3, 0x1e, 0xfe, 0xbb,
  0x61, 0x54, 0x9f, 0x3d, 0xa5, 0xb4, 0xaf, 0xbd, 0xcf, 0x5f, 0x67, 0xbc,
  0x1c, 0xab, 0x01, 0x3d, 0x04, 0xb0, 0x1b, 0xbd, 0x80, 0x08, 0x9a, 0xbd,
  0x46, 0x06, 0x93, 0xbc, 0x89, 0x4f, 0xb5, 0x3d, 0xc3, 0xd8, 0x91, 0x3d,
  0x72, 0x07, 0x09, 0x3c, 0xe1, 0x44, 0x95, 0x3d, 0x91, 0x97, 0x05, 0x3e,
  0x36, 0x07, 0xc8, 0x3d, 0x48, 0xd1, 0x84, 0x3c, 0x8a, 0x81, 0x6a, 0xbc,
  0xd7, 0x8c, 0xfe, 0x3d, 0xf2, 0xd2, 0xa4, 0xbc, 0x41, 0xa7, 0x9d, 0xbc,
  0xe6, 0x4f, 0x41, 0x3d, 0xbc, 0xc0, 0xaf, 0x3d, 0xda, 0x3b, 0xbc, 0x3c,
  0x81, 0xca, 0x20, 0x3d, 0xa9, 0x83, 0xc3, 0xbd, 0x91, 0x96, 0xc0, 0x3d,
  0x58, 0x9e, 0x8f, 0x3d, 0x47, 0x6b, 0x24, 0xbd, 0xb5, 0xa0, 0xad, 0x3a,
  0xeb, 0x64, 0x01, 0x3e, 0xb9, 0x8f, 0x69, 0x3d, 0xaf, 0xf5, 0x71, 0x3c,
  0x21, 0x3b, 0xa4, 0x3d, 0xf9, 0xb9, 0x74, 0x3d, 0x21, 0xa6, 0x41, 0x3d,
  0x8a, 0x02, 0x85, 0x3d, 0x15, 0x73, 0x87, 0xbc, 0x21, 0x3a, 0x00, 0x3e,
  0x14, 0xfa, 0xb0, 0x3d, 0xb3, 0xa9, 0x17, 0x3d, 0x3a, 0x63, 0x69, 0x3d,
  0x73, 0x3e, 0xd2, 0x3c, 0x14, 0x31, 0xe3, 0x3d, 0x69, 0x1f, 0xaf, 0x3c,
  0xd2, 0xca, 0x45, 0x3d, 0x77, 0x51, 0x9a, 0x3d, 0xe3, 0x7d, 0x17, 0xbe,
  0x64, 0xf5, 0x2d, 0x3d, 0xcf, 0xd4, 0x8b, 0xbc, 0x08, 0x8e, 0x3b, 0xbd,
  0x7e, 0xd2, 0xd2, 0x3c, 0x69, 0x62, 0x83, 0x3c, 0x59, 0x7a, 0x06, 0x3e,
  0x5b, 0x7c, 0xaa, 0x3d, 0x88, 0xe8, 0x41, 0x3d, 0x78, 0xc9, 0x80, 0x3d,
  0xf3, 0xe4, 0x91, 0x3d, 0x9d, 0xc0, 0x8d, 0xbb, 0xd2, 0xcb, 0x87, 0x3d,
  0x2f, 0xc5, 0xb8, 0x3c, 0x1d, 0x7f, 0x6a, 0xbb, 0x9a, 0x89, 0xa3, 0x3c,
  0x3d, 0x8d, 0x5f, 0x3c, 0x3c, 0xf5, 0x2b, 0xbd, 0x05, 0x47, 0x27, 0xbd,
  0xc7, 0xd5, 0x41, 0x3d, 0xbc, 0xed, 0xdd, 0xbc, 0x89, 0x13, 0x4f, 0xbd,
  0x3f, 0xcb, 0xb6, 0x3c, 0xb5, 0x84, 0x8c, 0x3d, 0x8e, 0xfa, 0xf4, 0x3a,
  0xd1, 0xde, 0x4f, 0x3d, 0xfc, 0x98, 0xfa, 0xbc, 0x84, 0x4c, 0xb7, 0x3d,
  0x53, 0x28, 0x1f, 0x3d, 0xa9, 0x9f, 0xe1, 0xbc, 0x99, 0x05, 0xa8, 0xbd,
  0x6f, 0xde, 0xc2, 0x3d, 0x17, 0xef, 0xb0, 0x3d, 0x13, 0x3c, 0x8e, 0x3b,
  0xab, 0xe4, 0x3a, 0x3c, 0xd1, 0xfa, 0xe0, 0x3d, 0x67, 0xe7, 0xd0, 0x3d,
  0x9c, 0x05, 0xc0, 0x3c, 0x05, 0x30, 0x4c, 0x3d, 0x60, 0x32, 0x0d, 0x3e,
  0xf0, 0x22, 0xcd, 0x3c, 0x47, 0x93, 0xfa, 0x3c, 0x35, 0x54, 0x43, 0xbd,
  0x93, 0x94, 0x2e, 0x3d, 0x19, 0xee, 0xa5, 0x3d, 0x81, 0x4f, 0x7c, 0x3c,
  0x5c, 0xb8, 0x9e, 0x3c, 0x62, 0x4b, 0xec, 0x3d, 0xc1, 0x1f, 0x85, 0x3a,
  0x81, 0x22, 0x0a, 0x3c, 0x2d, 0xda, 0x12, 0xbd, 0x1e, 0x59, 0xef, 0x3d,
  0x08, 0x99, 0x4b, 0x3d, 0x98, 0x18, 0x4a, 0x3d, 0x26, 0x5d, 0x7e, 0xbc,
  0xac, 0x52, 0x6c, 0x3d, 0x50, 0x40, 0xfe, 0x3d, 0xa5, 0xca, 0x05, 0xbd,
  0x0a, 0xd3, 0xeb, 0x3c, 0x6a, 0x39, 0x6e, 0xbb, 0xfe, 0xb2, 0xce, 0xbd,
  0x45, 0x8e, 0x3c, 0xbd, 0xf3, 0xc0, 0xb9, 0x3d, 0x36, 0xa2, 0xd0, 0xbc,
  0x1b, 0x76, 0x1b, 0x3d, 0xaf, 0x9c, 0xe3, 0x3d, 0x88, 0xa3, 0x0c, 0x3e,
  0xde, 0x95, 0x2a, 0xbd, 0xd5, 0xe0, 0xaf, 0x3d, 0x74, 0x54, 0xdc, 0x3c,
  0x9d, 0x68, 0x53, 0x3c, 0x7d, 0x31, 0x10, 0x3d, 0x10, 0xe3, 0xf5, 0xbc,
  0xfd, 0xd6, 0xac, 0xbd, 0x2a, 0x84, 0xb4, 0xbc, 0x07, 0x7e, 0x32, 0x3d,
  0x9a, 0x16, 0x6d, 0x3d, 0xc9, 0x7a, 0xe0, 0xbc, 0x06, 0xb4, 0x7b, 0x3d,
  0x72, 0x18, 0xde, 0x3d, 0x3c, 0x96, 0x7d, 0xbb, 0xce, 0x2f, 0x41, 0x3d,
  0x1c, 0x8f, 0x40, 0xbd, 0x48, 0xc3, 0xea, 0x3d, 0x06, 0x15, 0xff, 0x3b,
  0xed, 0x08, 0x68, 0xbd, 0x74, 0x83, 0x1f, 0xbd, 0x10, 0xf8, 0x8c, 0x3d,
  0xdf, 0x7f, 0xd4, 0x3c, 0x04, 0x42, 0xce, 0xbc, 0x5f, 0xfe, 0xee, 0xbc,
  0x5f, 0xb0, 0xec, 0xbb, 0xb7, 0x51, 0x45, 0x3d, 0x94, 0x09, 0x7d, 0xbd,
  0xd6, 0x6f, 0x1a, 0xbd, 0x4a, 0xcc, 0x01, 0x3e, 0x3e, 0xd6, 0xb1, 0x3d,
  0xac, 0x07, 0x8b, 0x3d, 0x99, 0xf7, 0x83, 0x3d, 0xd0, 0xb2, 0x04, 0x3e,
  0xad, 0xef, 0x56, 0x3d, 0x70, 0xb2, 0x95, 0xbc, 0x2a, 0xc7, 0xd1, 0xbc,
  0x9d, 0x73, 0x8f, 0x3d, 0x85, 0xa1, 0xed, 0x3d, 0x58, 0x47, 0xc7, 0x3a,
  0xac, 0xdf, 0x8a, 0xbd, 0xde, 0x2a, 0xef, 0x3c, 0x33, 0x78, 0xbf, 0x3c,
  0x7c, 0xee, 0x68, 0x3d, 0xc6, 0x36, 0x95, 0x3d, 0x7c, 0x74, 0xab, 0x3c,
  0xae, 0x3c, 0x97, 0x3d, 0x20, 0x95, 0x52, 0xbd, 0x1f, 0xb3, 0x9b, 0xbb,
  0xb8, 0x48, 0xa6, 0x3d, 0x95, 0xba, 0xaa, 0x3d, 0xa2, 0x10, 0x66, 0xbd,
  0x70, 0x85, 0xb3, 0xbd, 0xa0, 0xaa, 0x63, 0x3c, 0xff, 0xa3, 0x0e, 0xbd,
  0xc4, 0xc9, 0x84, 0x3c, 0xc8, 0x28, 0xab, 0x3d, 0x72, 0xd3, 0x9c, 0xbd,
  0xf9, 0xf3, 0xa6, 0x3d, 0xce, 0x5f, 0xdc, 0x3d, 0x6d, 0x17, 0x59, 0x3d,
  0xbf, 0xfc, 0x2a, 0xbc, 0x22, 0x14, 0x70, 0xbc, 0x40, 0x8f, 0x6a, 0x3d,
  0x67, 0xf3, 0xf5, 0x3b, 0x22, 0xd8, 0x0f, 0x3c, 0x29, 0x16, 0x09, 0xbc,
  0x36, 0x8b, 0x6e, 0xbd, 0x0d, 0xa8, 0x61, 0x3d, 0x59, 0xa8, 0x0c, 0xbc,
  0x7b, 0x92, 0x34, 0x3d, 0x40, 0xe8, 0x3f, 0x3d, 0xb0, 0xda, 0x98, 0x3c,
  0x3a, 0x10, 0xde, 0x3b, 0xfd, 0x7e, 0xfb, 0x3d, 0xc4, 0xdd, 0x3b, 0x3d,
  0x8b, 0x9a, 0x80, 0x3d, 0x79, 0xe1, 0x61, 0x3d, 0x13, 0x86, 0x7e, 0x3d,
  0xfe, 0xaa, 0x59, 0xbd, 0xfe, 0x40, 0x5c, 0xbc, 0xe0, 0x93, 0x04, 0x3e,
  0x78, 0x25, 0xa8, 0x3c, 0xe8, 0x91, 0xe1, 0xbc, 0x83, 0x6d, 0x29, 0xbd,
  0xcf, 0xbb, 0x88, 0x3c, 0x10, 0x6a, 0x0a, 0x3e, 0x88, 0xe8, 0x9d, 0xbd,
  0x99, 0x0c, 0x4f, 0xbd, 0x91, 0x3e, 0xed, 0x3d, 0x62, 0x92, 0x00, 0x3e,
  0xfb, 0x47, 0x56, 0xbd, 0x33, 0xe8, 0x1b, 0x3c, 0xcc, 0xdd, 0x05, 0x3e,
  0x46, 0x05, 0x15, 0xbc, 0x70, 0x29, 0x8b, 0x3c, 0xfd, 0x95, 0x94, 0xbd,
  0xa4, 0x01, 0x95, 0x3d, 0x36, 0xf1, 0xca, 0xbb, 0xd4, 0x03, 0xe0, 0x3c,
  0xb1, 0x08, 0x6e, 0x3d, 0x49, 0x5f, 0xb3, 0x3d, 0x61, 0x57, 0xd8, 0x3c,
  0x91, 0xe6, 0x13, 0xbd, 0x8c, 0x31, 0xcd, 0x3c, 0x82, 0xc6, 0x32, 0x3d,
  0x76, 0x11, 0x00, 0x3e, 0x57, 0x52, 0x17, 0xbd, 0x75, 0x1a, 0x3f, 0xbd,
  0x9d, 0x4b, 0x01, 0x3e, 0xbc, 0xc3, 0xcd, 0xbb, 0x2a, 0x70, 0x24, 0x3d,
  0x4c, 0x30, 0x96, 0xbd, 0x1d, 0xad, 0x1a, 0x3d, 0xac, 0x91, 0xea, 0x3c,
  0x46, 0x31, 0x02, 0xbd, 0x89, 0xb2, 0xa5, 0x3c, 0xf4, 0x3c, 0xb5, 0xbc,
  0xfb, 0x82, 0x8f, 0x3d, 0x62, 0x72, 0xe4, 0x3d, 0xe3, 0x49, 0x42, 0x3c,
  0xc7, 0xb8, 0x53, 0x3d, 0x90, 0x80, 0x66, 0x3d, 0xce, 0x0b, 0xd7, 0x3d,
  0x2f, 0xbe, 0xcf, 0x3d, 0x0f, 0xdb, 0x01, 0x3e, 0x99, 0xdb, 0xc4, 0xbb,
  0x02, 0x6b, 0xa2, 0xbd, 0x01, 0x29, 0x35, 0xbd, 0x77, 0xd9, 0x12, 0x3d,
  0x01, 0xe6, 0xde, 0x3c, 0x9d, 0x27, 0x19, 0x3d, 0xd5, 0x78, 0x65, 0xbd,
  0x18, 0x5f, 0x05, 0x3e, 0x6b, 0x63, 0xb9, 0x3d, 0xef, 0x68, 0x14, 0xbd,
  0x0f, 0x51, 0x8b, 0x3d, 0x73, 0xb3, 0xa3, 0x3c, 0xa4, 0x30, 0x07, 0x3d,
  0xf8, 0xa2, 0xfc, 0xbb, 0x00, 0xe4, 0xc8, 0x3d, 0x2f, 0xa3, 0x80, 0x3d,
  0xa6, 0x79, 0x09, 0x3d, 0x3b, 0xe1, 0x9b, 0xbc, 0xbb, 0x33, 0x3e, 0xbd,
  0xe0, 0xd3, 0x63, 0x3c, 0xf4, 0x01, 0x90, 0x3d, 0x5d, 0xff, 0xf4, 0xbb,
  0xb7, 0x45, 0x61, 0xbd, 0x3f, 0x36, 0x16, 0x3e, 0x30, 0xdd, 0x08, 0x3d,
  0x0e, 0x4b, 0x55, 0x3c, 0x46, 0x99, 0xa0, 0x3d, 0x74, 0x95, 0xd4, 0x3d,
  0x51, 0xb1, 0xcb, 0xba, 0x28, 0x7f, 0x72, 0x3d, 0x9e, 0x25, 0x65, 0x3d,
  0xd3, 0x6b, 0xa7, 0x3d, 0x4f, 0x22, 0xe5, 0x3b, 0x4a, 0x04, 0x2e, 0xbd,
  0x53, 0xbe, 0xd0, 0x3c, 0xa4, 0x7e, 0xad, 0x3c, 0x81, 0x78, 0x15, 0xbc,
  0x2b, 0xb0, 0x5b, 0x3d, 0x92, 0x51, 0x5c, 0xbc, 0x90, 0xe8, 0xc4, 0x3d,
  0xdf, 0x92, 0xab, 0x3d, 0x09, 0x8d, 0x99, 0xbd, 0x6b, 0x6e, 0xb2, 0xbd,
  0x92, 0xe5, 0x0e, 0x3e, 0xf0, 0xa1, 0x8d, 0xbc, 0x6f, 0x82, 0x01, 0x3d,
  0xec, 0x83, 0x61, 0x3c, 0x22, 0x56, 0xb1, 0x3d, 0x0f, 0x6c, 0x0e, 0x3e,
  0xa9, 0x40, 0xa8, 0x3c, 0x3d, 0x69, 0x29, 0xbd, 0x2c, 0x1d, 0xae, 0x3d,
  0x66, 0x6a, 0x85, 0x3d, 0x3c, 0x0b, 0x2f, 0x3d, 0x9a, 0x16, 0x6a, 0xbc,
  0x06, 0x34, 0x0a, 0x3e, 0xde, 0x73, 0xab, 0x3d, 0xfe, 0xa3, 0xed, 0x3d,
  0x60, 0x61, 0x3f, 0x3d, 0x25, 0xb5, 0x9d, 0x3d, 0xde, 0xb6, 0x16, 0x3d,
  0xdf, 0xff, 0x67, 0x3d, 0x7c, 0x39, 0x96, 0xbd, 0xcb, 0xcb, 0x1e, 0x3e,
  0xfc, 0x2e, 0x57, 0x3d, 0x95, 0x3c, 0xaf, 0x3b, 0x2b, 0xab, 0xd0, 0xbb,
  0x72, 0xe1, 0x3a, 0xbb, 0x0c, 0xab, 0xa5, 0x3d, 0x78, 0xa2, 0xb8, 0x3c,
  0xde, 0x9e, 0x38, 0x3d, 0xa6, 0x31, 0xad, 0x3b, 0xdb, 0xb6, 0x94, 0x3d,
  0x7b, 0xe0, 0x52, 0xbd, 0xff, 0xfe, 0x43, 0xbd, 0x55, 0xf6, 0x41, 0x3d,
  0xd5, 0xe3, 0x13, 0x3d, 0xf5, 0x94, 0xa8, 0x3a, 0x4d, 0x62, 0x0f, 0xbb,
  0x06, 0x9b, 0x9c, 0x3d, 0x38, 0xdf, 0xb5, 0x3c, 0x32, 0x4c, 0xab, 0xbc,
  0x9c, 0x3f, 0xe9, 0x3c, 0xcf, 0x59, 0x04, 0x3e, 0xc9, 0xfd, 0xa5, 0x3d,
  0x22, 0xa5, 0x55, 0xbd, 0xd5, 0x92, 0x54, 0x3d, 0x5a, 0x3d, 0x68, 0xbb,
  0xda, 0x17, 0xa6, 0x3d, 0xed, 0x3a, 0x2a, 0xbd, 0xa4, 0xf5, 0xc3, 0xbc,
  0xcb, 0xcc, 0x93, 0x3d, 0x42, 0x33, 0x8d, 0xbc, 0x72, 0x4b, 0xba, 0xbd,
  0xd8, 0x59, 0xa0, 0xbc, 0xbf, 0xba, 0x0c, 0x3e, 0xf7, 0x0d, 0x91, 0x3b,
  0xf3, 0xa8, 0xb7, 0x3c, 0xe2, 0x4a, 0x22, 0x3c, 0xb0, 0x32, 0x08, 0x3d,
  0x18, 0xea, 0x9c, 0xbc, 0xd5, 0x94, 0x0a, 0x3d, 0xe6, 0x98, 0x7c, 0xbd,
  0x64, 0x36, 0x0b, 0x3e, 0xff, 0x39, 0xb7, 0x3d, 0xf4, 0xbe, 0xcf, 0x3c,
  0xf5, 0x3d, 0x55, 0xbd, 0x55, 0x6e, 0x36, 0x3d, 0xfc, 0x0d, 0x01, 0x3d,
  0x27, 0x83, 0x30, 0xbd, 0x95, 0x25, 0xe0, 0xbd, 0xd5, 0xa7, 0x10, 0x39,
  0x0c, 0xac, 0xb1, 0x3d, 0xee, 0x2a, 0x14, 0xbc, 0x19, 0x4e, 0x36, 0x3d,
  0xe9, 0xac, 0x47, 0x3d, 0xb4, 0xb9, 0x86, 0xba, 0x38, 0xd9, 0xb6, 0x3d,
  0x68, 0x7a, 0x01, 0x3e, 0x24, 0x76, 0x86, 0x3d, 0x5a, 0xec, 0x04, 0x3e,
  0xbe, 0xfb, 0x94, 0xbd, 0x0b, 0xbf, 0xb6, 0x3a, 0x04, 0x94, 0x32, 0x3d,
  0x27, 0x2c, 0x30, 0x3d, 0x9b, 0xa4, 0x36, 0x3c, 0x5b, 0x2a, 0x86, 0x3c,
  0xab, 0x48, 0x08, 0x3d, 0x62, 0x0c, 0x88, 0x3d, 0xe2, 0x64, 0x59, 0xbd,
  0xd0, 0x94, 0x6c, 0x3d, 0xc4, 0x54, 0x2e, 0x3d, 0xa1, 0x11, 0xdd, 0x3d,
  0x09, 0x40, 0xa0, 0xbd, 0x04, 0x5f, 0xc3, 0xbc, 0xaf, 0xaa, 0xc1, 0x3d,
  0x2a, 0x5e, 0xa3, 0x3d, 0xa6, 0x04, 0x13, 0x3c, 0xa4, 0xf0, 0xbf, 0x3b,
  0xac, 0xab, 0xb9, 0x3d, 0xa5, 0xcf, 0xe0, 0x3d, 0xd3, 0x9a, 0xe6, 0x3c,
  0xf2, 0x90, 0x6e, 0xbd, 0xc7, 0x04, 0x0a, 0x3e, 0xb8, 0x6d, 0x80, 0x3b,
  0xa2, 0xce, 0x41, 0xbc, 0xa2, 0x23, 0xc7, 0xbc, 0xed, 0xfd, 0x41, 0x3d,
  0xdc, 0xeb, 0xa6, 0x3d, 0xfa, 0x6c, 0x88, 0xbc, 0x1a, 0x54, 0x60, 0xbd,
  0x63, 0xbd, 0xa0, 0x3c, 0x41, 0xac, 0x44, 0x3d, 0x45, 0x9b, 0x99, 0xbd,
  0x3a, 0x55, 0x5a, 0xbd, 0x71, 0xd0, 0xc4, 0x3c, 0xeb, 0x74, 0xaa, 0xbc,
  0x99, 0x7d, 0x62, 0x3d, 0x07, 0x8b, 0x61, 0x3d, 0x8f, 0x7d, 0x01, 0x3d,
  0x4f, 0x4f, 0xcb, 0x3d, 0x5b, 0xcd, 0xde, 0xbd, 0xb8, 0x83, 0x89, 0xbd,
  0x30, 0x8b, 0x52, 0x3d, 0xf6, 0xc8, 0xa0, 0x3d, 0xcb, 0x65, 0xa7, 0x3c,
  0xae, 0x66, 0xe2, 0xbd, 0x80, 0xbc, 0xc1, 0x3d, 0xd4, 0xc2, 0xab, 0xbd,
  0x01, 0x3e, 0x38, 0x3d, 0xa1, 0x47, 0xb4, 0x3c, 0x62, 0x01, 0xff, 0x3c,
  0xe0, 0x11, 0x8d, 0x3d, 0x33, 0x0b, 0x39, 0xbd, 0xbc, 0x01, 0x41, 0xbc,
  0x81, 0x14, 0xb1, 0x3d, 0x75, 0x19, 0x09, 0x3e, 0xeb, 0x27, 0x87, 0x3d,
  0xc1, 0x0b, 0x97, 0x3d, 0xcd, 0x5c, 0xaa, 0x3d, 0x24, 0xe2, 0x90, 0x3d,
  0x37, 0x53, 0xe0, 0xbd, 0x46, 0xa2, 0x6e, 0xbc, 0xbd, 0x84, 0x9d, 0x3d,
  0x89, 0x32, 0xd0, 0x3d, 0x6d, 0x59, 0x02, 0xbd, 0xc7, 0xe5, 0x2f, 0xbd,
  0xe3, 0xe9, 0xfc, 0xbb, 0x85, 0x49, 0x46, 0x3d, 0x4e, 0xc5, 0x53, 0xbd,
  0xfc, 0x02, 0x87, 0xbc, 0x6e, 0xfd, 0xcc, 0x3d, 0x3a, 0xd3, 0x17, 0x3d,
  0x9e, 0x9c, 0x86, 0xbd, 0x31, 0xdb, 0x2f, 0xbd, 0x04, 0x37, 0xc5, 0x3d,
  0x0f, 0xe4, 0xb2, 0x3d, 0x67, 0xf3, 0xfa, 0x3c, 0x45, 0xc0, 0x54, 0x3d,
  0xe5, 0x85, 0xe8, 0x3c, 0x68, 0xa5, 0x6a, 0x3c, 0xba, 0x48, 0xa7, 0xbd,
  0x43, 0x4b, 0xf2, 0xbb, 0xa3, 0x4e, 0xc0, 0x3d, 0xcd, 0x6e, 0x97, 0x3d,
  0xdd, 0x81, 0xa9, 0xbd, 0xf7, 0x6e, 0xb3, 0xbd, 0x48, 0x0e, 0x86, 0x3d,
  0xeb, 0x26, 0x0d, 0x3e, 0x3a, 0x64, 0xc8, 0xbd, 0x5d, 0x37, 0x0f, 0x3d,
  0x24, 0x13, 0x2f, 0x3d, 0x0a, 0x9c, 0x74, 0x3d, 0x94, 0xb7, 0xb3, 0xbc,
  0x6d, 0x16, 0x5d, 0x3d, 0x46, 0xdb, 0x7e, 0x3d, 0xa1, 0x13, 0x10, 0x3d,
  0x95, 0x16, 0xdf, 0x3c, 0xa6, 0xf1, 0x94, 0xbd, 0x9c, 0xbf, 0x3d, 0x3c,
  0x2d, 0x2d, 0xe6, 0x3d, 0x2c, 0xd5, 0x8d, 0xbd, 0x80, 0xa4, 0xdc, 0xbd,
  0x2e, 0x70, 0xe3, 0xba, 0xfe, 0xb8, 0xee, 0xbb, 0x42, 0xdc, 0x7d, 0xbd,
  0x17, 0xef, 0xc3, 0xbd, 0xca, 0x6f, 0xec, 0x3d, 0xaf, 0x0a, 0x2a, 0x3d,
  0xa6, 0xf0, 0x2c, 0xbd, 0x79, 0x4f, 0xbc, 0x3d, 0xbd, 0x55, 0xd4, 0xbd,
  0xb2, 0xc7, 0xdb, 0x3c, 0xed, 0x3a, 0x91, 0x3d, 0xd3, 0xd0, 0xe8, 0x3c,
  0x53, 0x7f, 0x7d, 0xbc, 0xb0, 0x9d, 0x28, 0x3e, 0x00, 0x87, 0xa0, 0xbd,
  0x94, 0x40, 0x95, 0x3a, 0xa5, 0xf4, 0x60, 0x3d, 0x29, 0x87, 0xe1, 0x3c,
  0xab, 0x9b, 0x93, 0xbd, 0xb8, 0x25, 0xcc, 0xbd, 0x90, 0x8c, 0x1b, 0x3d,
  0xa8, 0x90, 0x9a, 0xbc, 0x13, 0x88, 0x82, 0x3c, 0xa3, 0x70, 0x32, 0xbd,
  0xf8, 0x17, 0x3c, 0xbd, 0x5b, 0x20, 0xd6, 0xbc, 0xac, 0xf0, 0x17, 0xbd,
  0xfc, 0x9a, 0xbb, 0x3c, 0x19, 0x0d, 0x1c, 0xbc, 0x81, 0x4c, 0xe1, 0xbc,
  0xaf, 0x34, 0x7e, 0x3d, 0x70, 0x71, 0x08, 0x3b, 0x37, 0x12, 0xe5, 0x3c,
  0x36, 0x5b, 0xdb, 0x3d, 0xd0, 0xd9, 0x2f, 0xbd, 0xa0, 0xd2, 0x07, 0x3d,
  0xc4, 0xc4, 0xb0, 0xba, 0xf7, 0x03, 0x13, 0x3d, 0xa0, 0x7c, 0x6b, 0xbc,
  0x3a, 0x05, 0x3c, 0xbd, 0xf1, 0xdb, 0x8f, 0x3d, 0x76, 0xf7, 0x09, 0x3d,
  0xf8, 0xc0, 0x92, 0x3d, 0x25, 0x87, 0xb5, 0x3d, 0xf5, 0x78, 0x83, 0x3d,
  0xc6, 0xee, 0xf7, 0x3d, 0xd5, 0x71, 0x7d, 0x3d, 0x62, 0xc4, 0x3b, 0x3d,
  0x95, 0x79, 0xde, 0x3d, 0x6f, 0x33, 0x0f, 0x3e, 0xa9, 0x2a, 0x08, 0x3d,
  0x1e, 0xd4, 0x34, 0xbd, 0xe8, 0x64, 0x09, 0x3e, 0x3d, 0x9b, 0xfa, 0x3d,
  0xe3, 0x69, 0x82, 0xbd, 0xf5, 0x06, 0xb2, 0xbd, 0x6a, 0xb3, 0xe8, 0x3d,
  0x12, 0xae, 0x07, 0x3d, 0x4d, 0x10, 0x2a, 0xbd, 0xe5, 0xa7, 0xd7, 0xbd,
  0xca, 0x30, 0x02, 0x3e, 0xbc, 0x16, 0x57, 0x3c, 0xbd, 0x52, 0x28, 0x3d,
  0x13, 0x17, 0x9f, 0xbd, 0x05, 0x7b, 0x0e, 0x3c, 0xab, 0x8b, 0xb1, 0x3d,
  0xc1, 0x17, 0x46, 0x3b, 0x63, 0xcc, 0x42, 0x3d, 0xdc, 0xa0, 0x91, 0x3d,
  0x7d, 0xae, 0xa7, 0x3d, 0x49, 0x6e, 0x2c, 0x3d, 0x08, 0x11, 0x55, 0x3d,
  0xa9, 0x59, 0x94, 0x3d, 0x90, 0x3b, 0x35, 0x3c, 0xbf, 0x12, 0x2f, 0x3d,
  0xf7, 0xb3, 0xb7, 0x3c, 0x53, 0x62, 0xd7, 0x3c, 0xec, 0x14, 0xeb, 0x3d,
  0xd8, 0x29, 0xee, 0xbc, 0x88, 0x08, 0x1c, 0xbe, 0xf6, 0x55, 0x25, 0xbc,
  0x22, 0x03, 0xd3, 0x3d, 0x96, 0x5e, 0x67, 0x3d, 0x10, 0x9c, 0xf4, 0xbd,
  0xae, 0x34, 0xaa, 0x3d, 0x0e, 0x3e, 0xbc, 0xbc, 0x58, 0xa5, 0xa6, 0xbb,
  0xcc, 0xc7, 0x1d, 0xbd, 0xbd, 0x5b, 0xaf, 0xbc, 0xe5, 0x2d, 0x89, 0xbc,
  0xa5, 0xf1, 0x20, 0x3b, 0xec, 0x43, 0x94, 0xbb, 0x94, 0x19, 0xac, 0x3c,
  0xd5, 0x5b, 0xc6, 0x3b, 0x9c, 0xd5, 0xc5, 0xbb, 0x55, 0xcb, 0x2f, 0x3d,
  0x4b, 0x07, 0xf9, 0x3d, 0x89, 0x34, 0x09, 0xbb, 0x6b, 0x82, 0xab, 0xbc,
  0xbc, 0xcc, 0x39, 0x3d, 0x9b, 0x9a, 0x2d, 0x3c, 0x13, 0x25, 0xf5, 0x3c,
  0xb3, 0x87, 0xc6, 0x3c, 0xcd, 0x33, 0x28, 0x3d, 0x30, 0x43, 0x96, 0x3d,
  0x53, 0xa4, 0xc7, 0xbc, 0x23, 0x86, 0x2b, 0xbd, 0x9c, 0x07, 0x4c, 0xbb,
  0x8e, 0x9d, 0x2c, 0xbd, 0x62, 0x71, 0x6a, 0x3c, 0x91, 0xfe, 0x05, 0x3d,
  0x4a, 0xa7, 0x03, 0xbd, 0x0b, 0x6d, 0x95, 0x3d, 0x43, 0x88, 0xa0, 0x3d,
  0xb1, 0x03, 0x19, 0xbd, 0xb2, 0x92, 0xb5, 0x3b, 0x0b, 0x12, 0x3a, 0x3d,
  0xc7, 0xd7, 0xb5, 0x3d, 0x9c, 0xb2, 0x4f, 0xbd, 0x1f, 0x43, 0x95, 0x3c,
  0x5b, 0xc1, 0xd7, 0x3d, 0x66, 0x1a, 0x4c, 0x3d, 0xc7, 0x06, 0xde, 0xbb,
  0x4e, 0xb0, 0x8e, 0xbd, 0xa5, 0xb7, 0xfb, 0x3d, 0x98, 0x7b, 0x82, 0x3c,
  0x00, 0xd1, 0x21, 0xbd, 0x78, 0x4d, 0xac, 0xbd, 0x94, 0x6d, 0xe1, 0x3d,
  0x6c, 0xb4, 0xa0, 0x3d, 0xa2, 0xa5, 0x12, 0x3c, 0x52, 0x10, 0x9f, 0x3d,
  0x41, 0x6e, 0x2a, 0x3d, 0x9d, 0x29, 0x72, 0x3c, 0x7c, 0x33, 0xa0, 0xbc,
  0xa5, 0x1e, 0x6f, 0x3d, 0x97, 0xf5, 0xbb, 0x3d, 0x0d, 0x52, 0xde, 0x3d,
  0x9f, 0x4a, 0x1c, 0x3b, 0x2d, 0x83, 0xfc, 0xbd, 0x39, 0xec, 0xed, 0x3d,
  0x6b, 0x74, 0xe5, 0x3c, 0x57, 0x52, 0xf5, 0xbb, 0xc0, 0x65, 0x2b, 0x3c,
  0x19, 0x21, 0xeb, 0x3c, 0x05, 0xe2, 0x49, 0x3d, 0xd2, 0xa7, 0x90, 0xbd,
  0xfc, 0x6c, 0x7f, 0x3d, 0x27, 0x3d, 0xc3, 0x3d, 0xa4, 0x75, 0xdd, 0xbb,
  0xee, 0x0a, 0xce, 0x3c, 0x2c, 0x45, 0xd4, 0xbc, 0xf8, 0x19, 0x9b, 0x3d,
  0x0a, 0x5c, 0x8f, 0x3d, 0x7f, 0xbc, 0x42, 0xbd, 0x35, 0x8b, 0x9f, 0xbc,
  0x22, 0xbe, 0x9d, 0xbc, 0x54, 0x9b, 0xe2, 0x3d, 0xc7, 0x56, 0xd1, 0x3c,
  0x2d, 0xff, 0x5c, 0x3d, 0x1e, 0x66, 0x94, 0x3d, 0xdc, 0x63, 0x92, 0x3d,
  0x2a, 0xb8, 0x32, 0xbd, 0xc0, 0x3e, 0x33, 0x3c, 0xae, 0x19, 0x00, 0x3d,
  0x5a, 0x84, 0xc4, 0x3d, 0xac, 0x1b, 0x5e, 0x3d, 0xb8, 0xf8, 0x30, 0xbd,
  0xf2, 0x26, 0xe7, 0x3d, 0x2b, 0xbb, 0xc4, 0xbc, 0x60, 0x44, 0x86, 0xbd,
  0x28, 0xcb, 0xbb, 0xbc, 0x57, 0x08, 0x8e, 0x3d, 0x94, 0x94, 0x96, 0x3d,
  0x0f, 0xe5, 0xa5, 0xbb, 0x28, 0xce, 0x81, 0x3d, 0x23, 0x18, 0xc4, 0x3c,
  0x4a, 0xd1, 0xd5, 0x3c, 0x5b, 0xbd, 0x81, 0xbd, 0x20, 0xbd, 0x37, 0xbd,
  0xe0, 0x6f, 0xf3, 0x3c, 0x0e, 0xb6, 0x1d, 0x3c, 0xd2, 0xe2, 0x8b, 0xbd,
  0x4e, 0xb8, 0x52, 0x3c, 0x39, 0x02, 0xd9, 0x3d, 0x70, 0x46, 0xc2, 0xbd,
  0x61, 0x66, 0x42, 0x3d, 0x53, 0xfd, 0x27, 0x3d, 0xbe, 0x23, 0x0f, 0xbd,
  0xf6, 0x41, 0xa5, 0x3d, 0x0f, 0xa8, 0x08, 0x3c, 0xf4, 0x93, 0x0f, 0x3c,
  0x81, 0xa6, 0xcb, 0x3d, 0xc9, 0xec, 0xe2, 0x3d, 0xde, 0x98, 0xc4, 0xbc,
  0x6a, 0x7a, 0xa8, 0x3d, 0xaa, 0x34, 0x33, 0x38, 0x7b, 0x82, 0xc4, 0x3d,
  0x74, 0x29, 0x0e, 0x3d, 0xcf, 0xbc, 0x3b, 0xbc, 0x74, 0x99, 0x2b, 0x3d,
  0xe6, 0xd2, 0xf2, 0xbc, 0x81, 0x11, 0x8a, 0x3b, 0x29, 0xe9, 0x8d, 0xbd,
  0xc9, 0x33, 0x2b, 0xbc, 0x62, 0x84, 0x11, 0x3c, 0xf0, 0x72, 0x2e, 0xbb,
  0x90, 0xcd, 0x68, 0x3d, 0x92, 0x57, 0xc8, 0x3d, 0x49, 0xc9, 0x22, 0x3d,
  0xd3, 0xd7, 0x2f, 0xbc, 0xac, 0x15, 0x16, 0xbc, 0x72, 0xc1, 0x39, 0xbc,
  0x37, 0x18, 0xf1, 0x3d, 0x3e, 0xbc, 0xee, 0xbc, 0x0d, 0xe7, 0xde, 0xbc,
  0x5b, 0x0b, 0x10, 0x3c, 0xf0, 0x74, 0xbd, 0x3d, 0x7e, 0x98, 0x88, 0xbd,
  0x5d, 0xba, 0x94, 0xbd, 0x58, 0x73, 0xad, 0x3d, 0x25, 0x87, 0x9a, 0x3d,
  0xdd, 0x88, 0x31, 0x3c, 0x09, 0x50, 0x94, 0x3d, 0x49, 0x2f, 0x93, 0x3c,
  0xa6, 0xc3, 0xae, 0xbb, 0x9b, 0xc2, 0xcf, 0xba, 0x09, 0x0c, 0x67, 0xbd,
  0x15, 0x37, 0xe9, 0x3c, 0xa4, 0xdb, 0x7f, 0x3d, 0x04, 0xc8, 0x11, 0x3d,
  0xdf, 0xb9, 0x73, 0x3d, 0xcc, 0xf1, 0xd6, 0x3b, 0x92, 0x6c, 0x23, 0xbb,
  0xad, 0x3a, 0x10, 0xbc, 0x17, 0x56, 0xa1, 0xbb, 0x36, 0xec, 0x81, 0x3c,
  0x51, 0xab, 0x81, 0xbc, 0x42, 0x6d, 0xf5, 0x3c, 0x45, 0x15, 0xc5, 0xba,
  0xf4, 0x4b, 0xaf, 0x3d, 0xd2, 0x1a, 0x95, 0x3d, 0x5f, 0x38, 0xdd, 0x3b,
  0xe0, 0xce, 0x8c, 0x3d, 0x3b, 0xe0, 0x1d, 0xbc, 0x40, 0x16, 0xb3, 0x3c,
  0x93, 0xe4, 0x78, 0x3c, 0x36, 0x90, 0x7f, 0xbd, 0x85, 0x3c, 0x8c, 0x3c,
  0xbb, 0xbe, 0x55, 0x3d, 0x24, 0x4e, 0xb6, 0x3d, 0xe7, 0x14, 0x57, 0x3d,
  0x1a, 0xa7, 0xc4, 0x3d, 0x06, 0x4c, 0x32, 0x3d, 0xff, 0x56, 0x08, 0xbd,
  0x26, 0x28, 0xd9, 0x3c, 0xee, 0x3d, 0x48, 0x3d, 0xd7, 0x3c, 0x28, 0xbd,
  0x1b, 0x0a, 0x38, 0xbd, 0xf1, 0xc7, 0x9b, 0xbd, 0x00, 0xf6, 0x9b, 0x3d,
  0xc9, 0x84, 0x40, 0x3d, 0x0b, 0x7c, 0x77, 0xbd, 0xa8, 0xa1, 0xae, 0xbd,
  0x11, 0x67, 0xd0, 0x3d, 0x60, 0xcf, 0xc9, 0xbc, 0xa3, 0x11, 0xe0, 0xbc,
  0x7e, 0x15, 0x58, 0x3d, 0x8c, 0x14, 0xd5, 0xbc, 0x5b, 0xc1, 0x10, 0x3d,
  0x48, 0xb0, 0x2a, 0xbd, 0x80, 0x79, 0xc3, 0xbc, 0xf1, 0x5f, 0x57, 0x3d,
  0x30, 0xc8, 0x16, 0x3c, 0xd5, 0x54, 0x87, 0x3d, 0xaa, 0x51, 0xb3, 0x3d,
  0xe1, 0x1c, 0xdf, 0xbc, 0xb9, 0x97, 0xbb, 0x3c, 0x5b, 0x61, 0x77, 0x3d,
  0xe8, 0xe8, 0x0d, 0x3d, 0x8c, 0x30, 0x41, 0x3d, 0xfd, 0xf7, 0xaf, 0x3d,
  0x18, 0xf2, 0xf1, 0xbc, 0xa3, 0x68, 0x62, 0x3d, 0xec, 0x95, 0xc6, 0x3d,
  0xe0, 0x31, 0x4c, 0xbc, 0x09, 0x3e, 0x10, 0xbd, 0x84, 0xe1, 0x0e, 0x3d,
  0x32, 0x5e, 0x18, 0xbb, 0x82, 0x78, 0xca, 0x3d, 0x05, 0xb8, 0xa3, 0x3d,
  0x11, 0xf4, 0xb5, 0x3d, 0x74, 0x70, 0x07, 0x3d, 0x42, 0x4c, 0x93, 0x3d,
  0xf8, 0x7b, 0x10, 0x3d, 0xef, 0xb1, 0xbe, 0x3d, 0xab, 0xd2, 0x26, 0x3d,
  0x72, 0x58, 0x85, 0x3d, 0xb8, 0x4e, 0x98, 0x3c, 0x46, 0x58, 0x87, 0x3c,
  0xfa, 0x10, 0x6e, 0xba, 0xa0, 0xd1, 0xb6, 0x3d, 0xd7, 0x98, 0x9c, 0xbd,
  0x17, 0x4b, 0xf7, 0xbb, 0x35, 0x7b, 0x8c, 0x3d, 0xe5, 0x40, 0x73, 0xbd,
  0x45, 0xeb, 0x4d, 0x3d, 0xe6, 0x82, 0x36, 0x3d, 0x00, 0x04, 0xcd, 0x3d,
  0x66, 0x1d, 0x2f, 0x3d, 0xce, 0x5b, 0xf0, 0x3d, 0xd9, 0x6e, 0xf3, 0x3d,
  0x62, 0x8b, 0x01, 0x3d, 0x3e, 0x2e, 0x92, 0x3d, 0x8b, 0xfe, 0x8c, 0x3d,
  0x1c, 0xdf, 0xec, 0x3c, 0x28, 0x8e, 0x7f, 0x3d, 0x3b, 0x16, 0x0c, 0xbc,
  0x15, 0x3c, 0xae, 0xbc, 0x2b, 0xeb, 0x6c, 0xbd, 0xb5, 0x1d, 0x78, 0x3d,
  0xee, 0x5d, 0x2d, 0xbd, 0x1b, 0x43, 0x8e, 0xbc, 0x77, 0xcf, 0x88, 0x3d,
  0x0d, 0xce, 0xa9, 0x3d, 0x2e, 0xb7, 0xd5, 0x3c, 0x6b, 0x7b, 0xcc, 0x3c,
  0xd9, 0x6f, 0x86, 0x3c, 0xa1, 0x25, 0xa5, 0x3d, 0xa6, 0x25, 0x3a, 0xbc,
  0x7d, 0xe7, 0xb0, 0xbc, 0xbf, 0x38, 0xcb, 0x3d, 0x7e, 0x0b, 0xe9, 0x3d,
  0x75, 0x92, 0xa8, 0x3c, 0x88, 0xac, 0x47, 0x3d, 0x00, 0x29, 0xd9, 0xbb,
  0x08, 0x8a, 0x16, 0x3c, 0xcb, 0xd6, 0x70, 0x3d, 0x8f, 0x52, 0x81, 0xbd,
  0x28, 0xbf, 0x34, 0x3d, 0x87, 0x38, 0x38, 0x3c, 0xfb, 0xa0, 0xa9, 0x3d,
  0x81, 0x19, 0x98, 0xbd, 0x92, 0x4a, 0x66, 0x3d, 0xdd, 0x21, 0x9c, 0xbb,
  0x9b, 0x5a, 0x38, 0x3d, 0xa4, 0x22, 0x69, 0x3d, 0x35, 0xf2, 0xbc, 0xbb,
  0x0f, 0x01, 0xb9, 0x3c, 0xaf, 0xdb, 0xe7, 0xbb, 0xa6, 0xc4, 0x9a, 0x3d,
  0xb3, 0xee, 0xc0, 0x3c, 0xce, 0xd0, 0x2b, 0x3d, 0xf5, 0x4b, 0x39, 0xbc,
  0x2e, 0x61, 0xab, 0xbc, 0x6d, 0x70, 0x03, 0x3d, 0x78, 0x8d, 0x99, 0x3d,
  0xc7, 0x24, 0x91, 0x3d, 0x31, 0x9a, 0x2f, 0xbc, 0x91, 0x8f, 0xb6, 0x3b,
  0x7c, 0x3a, 0x3c, 0xbc, 0xbd, 0x76, 0x6e, 0x3a, 0x2f, 0xcd, 0x8a, 0x3d,
  0xc4, 0x53, 0x04, 0xbc, 0xb6, 0xe5, 0x42, 0x3d, 0xea, 0xba, 0xdf, 0x3b,
  0xcd, 0x99, 0x04, 0xbd, 0x15, 0xe2, 0xbc, 0xbc, 0xd4, 0xcc, 0xc9, 0x3c,
  0xa8, 0x75, 0xf1, 0x3d, 0x1d, 0x44, 0xd9, 0x3d, 0x2a, 0x94, 0xc1, 0x3c,
  0x26, 0xb9, 0x55, 0xbd, 0x12, 0xa0, 0xf5, 0x3c, 0x60, 0xa6, 0x83, 0xbc,
  0xad, 0x9c, 0xbd, 0x3d, 0x51, 0x8b, 0xf4, 0x3c, 0x4b, 0x59, 0x17, 0xbd,
  0xfa, 0xfd, 0x72, 0x3d, 0x90, 0x76, 0x14, 0x3d, 0x9f, 0x85, 0x5a, 0x3c,
  0x8b, 0xee, 0xb1, 0x3d, 0xfc, 0x71, 0xaf, 0xbd, 0x27, 0xd4, 0xc2, 0x3c,
  0xc2, 0x8d, 0xd2, 0x3c, 0xcc, 0xbf, 0x31, 0xbd, 0xdf, 0xe1, 0x94, 0xbd,
  0xa0, 0xeb, 0xd1, 0x3a, 0xdf, 0xb4, 0x26, 0xbc, 0x70, 0x61, 0x19, 0xbd,
  0x7a, 0xd9, 0x55, 0x3d, 0x67, 0x43, 0x56, 0xbc, 0x67, 0x20, 0xad, 0x3d,
  0x17, 0x47, 0xbb, 0x3c, 0xcc, 0x3d, 0x02, 0xbd, 0xf2, 0xba, 0x54, 0xbd,
  0xeb, 0xeb, 0x6a, 0x3c, 0x27, 0x33, 0xdd, 0x3d, 0x5b, 0xe1, 0xf1, 0x3a,
  0xbd, 0x05, 0x81, 0x3c, 0xde, 0xf9, 0x9b, 0x3d, 0xec, 0x29, 0xfa, 0xbc,
  0xf3, 0x9c, 0x17, 0x3d, 0x23, 0x1d, 0xc3, 0xbc, 0x2c, 0x67, 0xdd, 0x3b,
  0x98, 0xcf, 0xdd, 0xbb, 0xf2, 0xae, 0xb6, 0x3d, 0xdd, 0xaa, 0xf8, 0x3c,
  0x58, 0x98, 0x0b, 0x3b, 0x44, 0x4b, 0x1f, 0xbc, 0xf1, 0x67, 0xb7, 0x3b,
  0x55, 0x1e, 0xfb, 0x3c, 0x9c, 0xd4, 0x36, 0x3d, 0x4a, 0x83, 0x99, 0x3d,
  0x16, 0xe4, 0x6a, 0x3b, 0x37, 0x48, 0x94, 0xbc, 0xa1, 0x78, 0x61, 0x3d,
  0xc4, 0xb1, 0x11, 0x3d, 0x38, 0xcf, 0x7f, 0xba, 0x57, 0x42, 0x9f, 0xbd,
  0x98, 0xbf, 0xb2, 0x3d, 0x94, 0x52, 0xe4, 0xbc, 0x84, 0x4a, 0xae, 0xbd,
  0x4e, 0xe0, 0xa7, 0xbb, 0x09, 0xa5, 0x04, 0xbc, 0x9e, 0xf4, 0x32, 0x3c,
  0xde, 0xd3, 0x46, 0xbd, 0x84, 0x3b, 0x03, 0x3c, 0x14, 0x88, 0x4c, 0x3d,
  0xa7, 0x79, 0x1e, 0xbd, 0x67, 0x08, 0xef, 0x3d, 0x90, 0x95, 0xb2, 0xbc,
  0x9b, 0x17, 0xd7, 0x3c, 0x66, 0xa5, 0xaa, 0x3d, 0x3b, 0x95, 0x90, 0x3d,
  0xdc, 0x56, 0xe2, 0x3c, 0x25, 0xf3, 0x75, 0x3b, 0x70, 0x0a, 0x9c, 0x3d,
  0xbb, 0x5c, 0x9b, 0x3d, 0xcd, 0xfe, 0x97, 0xbb, 0x92, 0xda, 0x93, 0xb9,
  0x66, 0x4a, 0x09, 0x3c, 0xf0, 0x97, 0x9e, 0xbd, 0x89, 0x29, 0x3e, 0x3d,
  0xfb, 0x87, 0x73, 0x3d, 0x83, 0xae, 0x83, 0x3d, 0x05, 0x9f, 0xf3, 0xbc,
  0x79, 0x4f, 0x73, 0x3d, 0x7d, 0xcb, 0xce, 0x3d, 0x8b, 0xe6, 0xd8, 0x3d,
  0xaf, 0x87, 0xfe, 0x3c, 0xe8, 0xe1, 0xb5, 0x3d, 0x5c, 0xa3, 0x6b, 0x3d,
  0x86, 0x12, 0x27, 0xbd, 0xa4, 0x45, 0x4a, 0xbd, 0x8c, 0x88, 0x6d, 0xbd,
  0x31, 0x68, 0x8d, 0xbc, 0x09, 0xb0, 0x15, 0x3d, 0xf7, 0x52, 0xe2, 0x39,
  0x90, 0xc3, 0x6c, 0xbb, 0x73, 0x99, 0xe8, 0x3d, 0x00, 0xcf, 0x8e, 0xbc,
  0xcf, 0x3f, 0xda, 0x3c, 0xd4, 0x83, 0xbb, 0xbd, 0xe5, 0x65, 0x36, 0xbb,
  0xa6, 0xee, 0x83, 0xbc, 0xad, 0x55, 0xf5, 0x3b, 0x48, 0x53, 0x79, 0x3d,
  0x93, 0x79, 0xec, 0x3b, 0xdc, 0xf6, 0x4e, 0xbc, 0xb9, 0xcb, 0x87, 0xbc,
  0x5f, 0x7b, 0x2c, 0x3d, 0x40, 0x23, 0xfa, 0x3d, 0xe1, 0x51, 0x39, 0x3d,
  0x6f, 0xad, 0x0f, 0x3d, 0xaf, 0x7c, 0x87, 0xbd, 0x54, 0xe9, 0x36, 0x3d,
  0xa6, 0x35, 0xe4, 0xbc, 0x14, 0xf3, 0x79, 0x3d, 0x7e, 0x65, 0xa1, 0xbd,
  0x5f, 0xe6, 0x7f, 0xbc, 0xc9, 0x84, 0xe6, 0x3d, 0x29, 0x8b, 0x8a, 0xbd,
  0x30, 0xd1, 0x3b, 0xbd, 0x7b, 0x9b, 0x0c, 0x3d, 0x45, 0x2b, 0x41, 0xbd,
  0x81, 0xd8, 0x8f, 0xbb, 0xc5, 0x5c, 0xa7, 0x3d, 0x2f, 0xa9, 0xe5, 0xbc,
  0x49, 0xbb, 0xab, 0x3c, 0xa9, 0x22, 0xc8, 0x3d, 0x40, 0x7f, 0xc2, 0x3d,
  0xef, 0xe9, 0xbc, 0x3d, 0x6e, 0xc2, 0x58, 0x3d, 0xc2, 0x11, 0xa3, 0x3d,
  0xb0, 0x33, 0x45, 0xbb, 0xb4, 0x6a, 0xd0, 0x3d, 0x2c, 0x28, 0x39, 0xbd,
  0x60, 0x32, 0xbc, 0x3c, 0x92, 0xbf, 0x66, 0x3d, 0x5d, 0x2b, 0x8e, 0x3d,
  0x52, 0x2f, 0x69, 0x3d, 0xc4, 0x4a, 0xa3, 0xbc, 0x3d, 0xc1, 0xb1, 0xbc,
  0x26, 0xf5, 0xe8, 0xbb, 0xcc, 0x13, 0x18, 0x3b, 0x73, 0x3b, 0xc3, 0xbc,
  0xa6, 0x40, 0x2f, 0x3d, 0x0b, 0x34, 0x47, 0x3d, 0xbe, 0xb0, 0xf1, 0x3c,
  0xc2, 0x35, 0xdd, 0xbc, 0x01, 0x44, 0x72, 0x3d, 0x41, 0x24, 0x05, 0x3e,
  0x6a, 0xe9, 0x1e, 0x3c, 0x44, 0x97, 0x8e, 0x3c, 0xff, 0x5e, 0x4f, 0xbd,
  0xe2, 0x5e, 0x72, 0xbc, 0xcb, 0x25, 0xe0, 0x3d, 0x08, 0xa8, 0x0c, 0xbc,
  0x25, 0x89, 0x4f, 0xbd, 0x3f, 0xcb, 0x87, 0xbc, 0x63, 0xd6, 0x78, 0xbb,
  0xc4, 0xf1, 0x50, 0xbc, 0xe0, 0xf0, 0x00, 0xbd, 0x49, 0x39, 0xfa, 0x3c,
  0x33, 0x02, 0xa9, 0x3d, 0x71, 0xc7, 0x20, 0xbc, 0xa5, 0xe6, 0x39, 0xbd,
  0x3a, 0x06, 0xbf, 0x3d, 0x54, 0x31, 0xbc, 0xbc, 0xba, 0x78, 0x71, 0xbd,
  0x92, 0xdf, 0xf7, 0xbb, 0xd2, 0xf4, 0xb5, 0x3d, 0xb2, 0x0e, 0x14, 0xbd,
  0xcb, 0xd8, 0x72, 0x3d, 0x9c, 0x77, 0x52, 0xbd, 0x7c, 0x45, 0x0c, 0x3c,
  0x76, 0x07, 0x06, 0xbd, 0xe7, 0x1a, 0x8b, 0xbc, 0x2d, 0xd7, 0x1e, 0xbd,
  0xa6, 0x7a, 0xb4, 0xbc, 0x84, 0x0a, 0xe5, 0x3d, 0xa9, 0x9d, 0x8f, 0xbd,
  0x1c, 0x31, 0x32, 0xbc, 0x87, 0x62, 0x69, 0x3d, 0x22, 0x1f, 0x44, 0x3d,
  0xf5, 0xdd, 0x09, 0xbd, 0x55, 0x5e, 0x35, 0xbd, 0x4e, 0xae, 0x7d, 0x3d,
  0xe7, 0xa3, 0xc6, 0x3d, 0x88, 0x45, 0xff, 0x3c, 0xc3, 0xfe, 0xdd, 0xbc,
  0x7f, 0x77, 0x55, 0x3d, 0x3e, 0xb6, 0x08, 0x3d, 0x9e, 0x88, 0xb4, 0xbc,
  0xa9, 0xdb, 0x0d, 0x3d, 0xa6, 0xde, 0x5f, 0xbd, 0x37, 0x8a, 0x7f, 0x3d,
  0xc5, 0xe8, 0x75, 0x3d, 0xaf, 0xb1, 0x2c, 0xbd, 0x82, 0x12, 0xed, 0x3d,
  0x26, 0x52, 0xe4, 0x3d, 0xb9, 0x93, 0x54, 0xbd, 0xb1, 0x18, 0x5f, 0x3d,
  0x39, 0x69, 0xca, 0x3d, 0x72, 0x09, 0xd7, 0xbb, 0x3d, 0x6a, 0xc2, 0x3c,
  0x6f, 0x30, 0x3b, 0x3b, 0xd3, 0x64, 0x07, 0x3c, 0x18, 0x4f, 0x9a, 0x3d,
  0xe6, 0xef, 0x51, 0xbc, 0xdd, 0xfd, 0x80, 0xbd, 0x6a, 0xd5, 0xef, 0x3d,
  0xe2, 0xef, 0x8f, 0x3d, 0x62, 0x01, 0x87, 0x3d, 0x2e, 0xdf, 0xd8, 0x3b,
  0x76, 0x3a, 0x16, 0x3d, 0x1b, 0x89, 0x2a, 0xbd, 0x4b, 0x6c, 0xe3, 0x3a,
  0xa9, 0xeb, 0x2e, 0x3d, 0x85, 0xec, 0xda, 0xbc, 0xcf, 0xf1, 0x08, 0xbd,
  0xef, 0xc7, 0x40, 0xbc, 0x2f, 0xa9, 0xb6, 0x3c, 0xd0, 0xee, 0xdf, 0x3d,
  0xbb, 0x58, 0xe7, 0x3d, 0x48, 0x1a, 0x82, 0xbd, 0x12, 0x1b, 0xd6, 0x3b,
  0x3e, 0x37, 0xc7, 0x3d, 0x68, 0xd3, 0xd5, 0xbb, 0x01, 0xf4, 0x94, 0x3d,
  0x75, 0xad, 0x8a, 0x3d, 0xea, 0x73, 0x55, 0x3d, 0x20, 0xd0, 0x0d, 0xbc,
  0x09, 0xb0, 0x50, 0x3d, 0xa0, 0xdb, 0x10, 0x3d, 0xd8, 0xcc, 0xc2, 0x3d,
  0xf2, 0x75, 0x52, 0x3c, 0xbe, 0xb8, 0x9a, 0x3d, 0x9b, 0x99, 0x12, 0xbd,
  0x64, 0x8d, 0xe9, 0xbc, 0xe2, 0xae, 0xba, 0x3c, 0x99, 0x53, 0x84, 0xbd,
  0xb8, 0x37, 0x14, 0x3b, 0xf4, 0x57, 0x85, 0x3d, 0x4c, 0xe7, 0x65, 0x3d,
  0x1b, 0x6b, 0x9d, 0x3c, 0x18, 0xef, 0x65, 0x3d, 0xd9, 0xc5, 0x89, 0x3d,
  0x7e, 0xc4, 0x9a, 0x3d, 0xef, 0x92, 0x37, 0x3b, 0x6c, 0xf9, 0xb8, 0x3a,
  0x99, 0x0e, 0x8d, 0x3a, 0xbd, 0x16, 0x87, 0x3c, 0xbb, 0x60, 0xe8, 0xbc,
  0x72, 0x41, 0x9a, 0x3d, 0x25, 0xd5, 0xa5, 0x3d, 0x43, 0x78, 0xad, 0x39,
  0x19, 0x09, 0x8f, 0xbc, 0xa9, 0xf7, 0x0c, 0xbd, 0x78, 0x05, 0x61, 0xbc,
  0xba, 0x9a, 0x7f, 0xbc, 0x9d, 0x7c, 0x22, 0x3d, 0x10, 0x52, 0x0d, 0xbc,
  0xf3, 0xba, 0x00, 0x3e, 0x3b, 0x2f, 0x32, 0xbd, 0xa3, 0xcc, 0x16, 0xbd,
  0x4a, 0xf6, 0xa2, 0x3d, 0x40, 0x7c, 0xf5, 0x3d, 0xd3, 0xe5, 0x10, 0x3d,
  0x68, 0x73, 0x40, 0x3d, 0x79, 0xd5, 0x4c, 0x3c, 0x25, 0xa4, 0xc8, 0xbc,
  0x05, 0x49, 0x7b, 0x3d, 0x21, 0xd0, 0x9c, 0x3d, 0x2e, 0x16, 0x50, 0x3c,
  0x5a, 0x11, 0x3a, 0x3d, 0x2a, 0xf6, 0x77, 0x3c, 0xa4, 0x22, 0x4b, 0xbd,
  0x72, 0xd0, 0x19, 0xbd, 0x3b, 0x01, 0x0a, 0x3d, 0x12, 0xd0, 0xf1, 0x3d,
  0x0a, 0x44, 0x58, 0xbd, 0xb8, 0xdf, 0xb1, 0xb8, 0x55, 0x67, 0x02, 0x3e,
  0x9e, 0x82, 0xab, 0x3d, 0x9d, 0xd8, 0xf9, 0xbc, 0x9b, 0x5f, 0x31, 0xbb,
  0xd3, 0xcd, 0xc7, 0x3d, 0xe6, 0xaa, 0xba, 0xbc, 0xdf, 0x8c, 0xfa, 0x3c,
  0x28, 0xf5, 0x65, 0xbb, 0xe1, 0x6f, 0x18, 0xbc, 0x73, 0xe9, 0xe3, 0x3d,
  0x8b, 0x3a, 0x12, 0xbd, 0xa5, 0x58, 0x44, 0xbd, 0xc2, 0x97, 0xd5, 0x3d,
  0x08, 0x44, 0x09, 0x3d, 0x28, 0xe1, 0x98, 0xbd, 0xdd, 0xd6, 0x5a, 0xbd,
  0x49, 0x8e, 0x0c, 0x3d, 0x33, 0x1b, 0xfa, 0xbc, 0x9e, 0xf0, 0xb6, 0xbd,
  0xfb, 0xf5, 0xab, 0x3c, 0xb5, 0xed, 0xf6, 0x3d, 0x0a, 0xf5, 0xc0, 0x3d,
  0x0d, 0x93, 0x6f, 0x3d, 0x20, 0x1d, 0xa6, 0x3d, 0xd2, 0x70, 0x1d, 0x3d,
  0xd5, 0xeb, 0x78, 0xbd, 0x6e, 0x6b, 0x00, 0xbc, 0x31, 0xc4, 0x9b, 0xbc,
  0x06, 0xd6, 0x58, 0x3d, 0x40, 0xad, 0xb5, 0x3d, 0x02, 0x0f, 0x88, 0x3d,
  0xac, 0xff, 0xe1, 0x3d, 0xa5, 0x17, 0xaa, 0x3d, 0x3c, 0xbf, 0x6d, 0xbb,
  0x7b, 0xfd, 0xcc, 0x3c, 0xda, 0xd7, 0xb1, 0xbd, 0x11, 0x7f, 0x06, 0x3e,
  0x7a, 0xfc, 0xa8, 0x3d, 0xa5, 0xff, 0x95, 0xbd, 0x28, 0xf9, 0x0c, 0xbd,
  0x82, 0x28, 0xa9, 0x3d, 0xcc, 0x91, 0x18, 0x3d, 0x22, 0xa0, 0x0e, 0x3d,
  0x0b, 0x32, 0x8d, 0xbd, 0xee, 0xc3, 0x20, 0x3d, 0x66, 0x28, 0x9c, 0x3d,
  0x31, 0x00, 0x02, 0x3d, 0x14, 0x4c, 0x1e, 0x38, 0x46, 0x16, 0x75, 0x3b,
  0xd0, 0x9b, 0x8c, 0x3d, 0x99, 0xc1, 0x3f, 0xbc, 0xb1, 0x32, 0xd2, 0x3c,
  0x49, 0x0a, 0x8d, 0x3d, 0xc6, 0x61, 0xed, 0x3d, 0x0f, 0x7a, 0x98, 0xbd,
  0x07, 0xf8, 0x46, 0x3c, 0xeb, 0x09, 0x9a, 0x3d, 0xe8, 0x1b, 0xfb, 0x3b,
  0xff, 0x0b, 0x7e, 0xbc, 0xe6, 0x85, 0xa1, 0xbd, 0xeb, 0x53, 0xc3, 0x3c,
  0xcb, 0xf5, 0x4b, 0x3c, 0x63, 0xc3, 0x8e, 0xbd, 0x44, 0xdd, 0x7f, 0xbd,
  0x59, 0x8f, 0xb7, 0x3d, 0xf6, 0x86, 0xc7, 0x3c, 0x89, 0xe0, 0x85, 0x3b,
  0x74, 0x09, 0x17, 0xbd, 0x7a, 0xd2, 0x26, 0x3d, 0x59, 0x51, 0x41, 0x3d,
  0xf6, 0xf2, 0x3d, 0x3d, 0xd8, 0x57, 0xa2, 0xbd, 0x2f, 0x9d, 0x05, 0x3c,
  0xb6, 0x86, 0xec, 0x3d, 0x3a, 0xed, 0x8b, 0xbd, 0x5f, 0x1c, 0x95, 0xb9,
  0x9f, 0x64, 0x04, 0x3e, 0x51, 0x8d, 0xfa, 0x3d, 0x98, 0x78, 0x39, 0x3c,
  0x52, 0x2b, 0x76, 0xbd, 0xd8, 0x29, 0x95, 0x3c, 0xdc, 0x53, 0xc5, 0x3d,
  0xad, 0x29, 0x8b, 0x3c, 0xa3, 0xd9, 0x76, 0x3d, 0x5d, 0xd6, 0x3b, 0x3d,
  0x08, 0x97, 0x32, 0x3d, 0x50, 0x05, 0x79, 0x3d, 0x6e, 0xef, 0x63, 0x3d,
  0x3c, 0x23, 0x0e, 0x3e, 0xe5, 0x2f, 0xff, 0x3d, 0xde, 0xc4, 0x2f, 0xbb,
  0xd4, 0x79, 0x80, 0x3d, 0xd2, 0x37, 0xb2, 0x3d, 0xa4, 0xd1, 0x9d, 0x3c,
  0x81, 0x97, 0x8c, 0xbd, 0x57, 0xf5, 0x85, 0xbb, 0xb4, 0x14, 0x9f, 0x3d,
  0x08, 0x0c, 0xaa, 0x3d, 0xc6, 0x39, 0xf7, 0xbb, 0xf9, 0xbc, 0xdf, 0x3b,
  0xa0, 0x51, 0x75, 0x3d, 0x73, 0xd5, 0xbb, 0x3d, 0x9f, 0x51, 0x2e, 0xbc,
  0x25, 0x06, 0xa0, 0x3c, 0x99, 0x3d, 0xb9, 0x3d, 0xe2, 0xf4, 0xf9, 0xbc,
  0x83, 0x0f, 0x09, 0xbd, 0x54, 0x4b, 0xc4, 0x3b, 0x26, 0xd1, 0x16, 0xbb,
  0x34, 0xe8, 0xc9, 0x3d, 0x6e, 0xcd, 0x14, 0x3d, 0xa9, 0xf3, 0x33, 0xbd,
  0x1b, 0x45, 0x71, 0x3a, 0x81, 0x7f, 0xbe, 0xba, 0xbf, 0x3f, 0x31, 0xbc,
  0x1e, 0x46, 0x6e, 0x3d, 0xb2, 0x8a, 0x62, 0xbc, 0xfb, 0x1b, 0x92, 0x3d,
  0x82, 0x6a, 0xe2, 0x3c, 0x8a, 0xe9, 0x7e, 0x3d, 0x0a, 0xaa, 0x44, 0x3d,
  0x1d, 0x34, 0xb6, 0x3d, 0x8e, 0xa7, 0x23, 0xbd, 0xaf, 0x73, 0x7c, 0xbd,
  0x6d, 0x14, 0xa7, 0x3d, 0xb8, 0x7d, 0xf4, 0x3d, 0x36, 0x15, 0xcf, 0xbc,
  0x52, 0x64, 0x4d, 0xbd, 0x47, 0xc6, 0x87, 0x3d, 0xdb, 0xa3, 0x0f, 0x3d,
  0x3e, 0x8e, 0x84, 0xbd, 0x58, 0x9a, 0x5c, 0xbd, 0xcf, 0xd7, 0xfa, 0x3b,
  0x75, 0x45, 0x98, 0x3d, 0x60, 0xa2, 0xa8, 0xbd, 0xf4, 0x2e, 0x0f, 0xbd,
  0x06, 0x2e, 0xd5, 0x3d, 0xa2, 0x97, 0xa1, 0x3d, 0xda, 0xec, 0xa9, 0x3c,
  0x1b, 0x81, 0xac, 0xbd, 0xc2, 0xe2, 0xbc, 0x3d, 0xc9, 0x16, 0xbd, 0x3d,
  0x07, 0x2b, 0x1b, 0xbd, 0x2e, 0x07, 0x85, 0x3d, 0xbe, 0x6c, 0xec, 0x3d,
  0xcf, 0xc2, 0x1e, 0x3d, 0xde, 0xd9, 0x73, 0x3d, 0x6f, 0x37, 0xa4, 0x3d,
  0x54, 0x86, 0xb6, 0x3d, 0x5b, 0x19, 0x03, 0x3d, 0x5c, 0xd5, 0x48, 0x3d,
  0x72, 0x05, 0xb1, 0x3d, 0x19, 0x67, 0xa4, 0xbc, 0x91, 0x3a, 0xa3, 0xbc,
  0xc0, 0xda, 0x8a, 0xbd, 0x49, 0x2f, 0x54, 0xbc, 0xae, 0x77, 0x86, 0x3c,
  0xd4, 0x20, 0x61, 0x3d, 0xe9, 0xae, 0x86, 0xbd, 0xe7, 0x1a, 0xb6, 0xbd,
  0x0b, 0x1f, 0xc1, 0x3d, 0x5a, 0x2d, 0xb1, 0xbc, 0x5b, 0x04, 0xb4, 0xbb,
  0xe3, 0x5b, 0xb7, 0xbc, 0x76, 0x79, 0xa0, 0x3d, 0x68, 0xc9, 0xdc, 0xbc,
  0x79, 0x86, 0x27, 0x3d, 0x3f, 0xde, 0x79, 0xbd, 0x83, 0x65, 0x09, 0x3e,
  0x3d, 0xb4, 0xd3, 0x3b, 0x9b, 0x19, 0xa0, 0xbd, 0x1c, 0xfb, 0x37, 0xbb,
  0x53, 0x71, 0xa5, 0x3d, 0xf2, 0xf2, 0x4c, 0x3c, 0xe3, 0x4e, 0x51, 0x3d,
  0x78, 0xec, 0x64, 0xbd, 0x14, 0x12, 0x31, 0x3d, 0x98, 0x7e, 0xdb, 0x3c,
  0x9a, 0xff, 0x31, 0x3d, 0x8d, 0x11, 0x69, 0x3d, 0xe8, 0xf4, 0xb1, 0x3d,
  0xd1, 0x2f, 0x58, 0x3d, 0x9a, 0xc2, 0x8f, 0xbc, 0xaf, 0xec, 0x88, 0x3d,
  0x70, 0x5c, 0xee, 0x3d, 0x08, 0xd8, 0xd2, 0x3d, 0xad, 0x8c, 0x14, 0x3d,
  0x92, 0xea, 0xc6, 0x3c, 0x84, 0x90, 0x62, 0xbc, 0xf2, 0xa3, 0x68, 0x3d,
  0xfe, 0x38, 0x34, 0xbd, 0x69, 0xab, 0x8f, 0x3d, 0x46, 0xa4, 0x0a, 0x3e,
  0x40, 0xb9, 0x28, 0x3d, 0x1a, 0x71, 0x79, 0xbd, 0x1c, 0xd1, 0x87, 0xbd,
  0x02, 0xdf, 0x1d, 0x3c, 0x1f, 0x1d, 0xc1, 0x3d, 0x09, 0x27, 0x71, 0x3d,
  0xec, 0x4d, 0x02, 0x3c, 0x46, 0xd8, 0xa4, 0xbb, 0xd4, 0x32, 0x34, 0x3d,
  0x8c, 0x37, 0x6f, 0x3d, 0x70, 0xaf, 0xa6, 0xbc, 0xe4, 0xe6, 0x84, 0x3d,
  0xeb, 0x92, 0xa0, 0x3c, 0x11, 0x24, 0x05, 0xbd, 0x91, 0x17, 0x03, 0xbd,
  0xea, 0xfe, 0xbb, 0x3d, 0x75, 0x85, 0x92, 0x3d, 0x9a, 0x9f, 0x62, 0xbd,
  0x95, 0x41, 0x63, 0xba, 0xd5, 0x21, 0x9c, 0x3c, 0xa5, 0xf8, 0x8c, 0xbc,
  0x18, 0x3d, 0xb0, 0xbc, 0x2c, 0x3f, 0x59, 0x3d, 0x56, 0x44, 0x39, 0x3c,
  0x6a, 0x88, 0x9c, 0x3d, 0x74, 0xd8, 0x38, 0xbd, 0xbf, 0x41, 0x50, 0xbd,
  0x2e, 0xc7, 0xf3, 0x3d, 0xce, 0xd4, 0x8d, 0x3d, 0x1c, 0xa6, 0x89, 0x3d,
  0x44, 0x04, 0x8b, 0xbd, 0x4a, 0x85, 0xa8, 0x3d, 0xda, 0xa6, 0xf7, 0xbc,
  0x43, 0x77, 0x98, 0xbc, 0x49, 0xbb, 0xb7, 0xbc, 0xc5, 0xc9, 0x8a, 0x3d,
  0x45, 0x5f, 0x7e, 0x3d, 0x93, 0xc0, 0x8e, 0xbc, 0x80, 0xf5, 0x42, 0xbd,
  0xd4, 0x86, 0x05, 0x3e, 0x2c, 0xb9, 0x28, 0xbc, 0x42, 0xe8, 0xfe, 0x3c,
  0x6f, 0x53, 0x7a, 0xbd, 0xd6, 0x3b, 0x84, 0xbc, 0xcd, 0xae, 0xb6, 0x3d,
  0x36, 0xf8, 0xbc, 0xbd, 0x51, 0xd6, 0x9d, 0x3c, 0xf6, 0xd3, 0xe4, 0x3d,
  0x20, 0xf8, 0xaf, 0x3c, 0xca, 0x3a, 0x80, 0xbd, 0x0f, 0x93, 0xd8, 0xbc,
  0x24, 0xa8, 0x9a, 0xbc, 0x04, 0x32, 0xa3, 0x3c, 0x7e, 0x8b, 0xb1, 0xbc,
  0xee, 0xdd, 0x7c, 0xbd, 0xfd, 0x5b, 0x32, 0x3d, 0xa3, 0x34, 0xf9, 0x3d,
  0xe6, 0x11, 0xe9, 0xbc, 0x93, 0x75, 0x64, 0xbd, 0x63, 0xf9, 0x70, 0x3d,
  0x5a, 0x36, 0xfc, 0xbb, 0x83, 0x92, 0x53, 0x3d, 0x03, 0x70, 0x1a, 0x3d,
  0xbd, 0x77, 0xb3, 0x3d, 0x7e, 0x5c, 0x0f, 0xbd, 0x69, 0x9d, 0x68, 0xbd,
  0xb2, 0xcb, 0x22, 0xbd, 0x75, 0x81, 0xb0, 0x3d, 0xff, 0x60, 0x3d, 0xbe,
  0x98, 0x09, 0x18, 0xbc, 0x0c, 0x7f, 0x0f, 0xbe, 0xba, 0xc9, 0x75, 0x3d,
  0xd0, 0xe7, 0xe8, 0xbd, 0xa7, 0x2f, 0xf2, 0xbd, 0xad, 0x9d, 0xd3, 0xbd,
  0x01, 0x03, 0x48, 0x3d, 0xa2, 0x7f, 0x1c, 0xbe, 0x7e, 0xff, 0x25, 0x3d,
  0x73, 0x8b, 0xe3, 0x3d, 0x2e, 0x37, 0x0d, 0xbe, 0x0c, 0xed, 0x73, 0xbe,
  0x76, 0x56, 0x1b, 0x3e, 0x9f, 0x50, 0x54, 0x3e, 0x9b, 0x5e, 0xf7, 0xbc,
  0x5f, 0xe5, 0xa2, 0x3c, 0xd9, 0x3a, 0x6f, 0x3c, 0x07, 0x53, 0x2a, 0xbd,
  0x5e, 0xed, 0x57, 0x3d, 0xa9, 0xb3, 0x40, 0xbc, 0xf4, 0x8d, 0xea, 0xbd,
  0x14, 0x94, 0x41, 0xbe, 0x60, 0x4f, 0xd8, 0x3c, 0x14, 0x6f, 0xc6, 0xbc,
  0x3e, 0x51, 0x25, 0xbd, 0x07, 0x34, 0x01, 0xbe, 0x6f, 0x38, 0xbc, 0x3d,
  0x1b, 0xc3, 0x13, 0x3d, 0x44, 0x4a, 0x07, 0xbe, 0xe1, 0xcc, 0xe9, 0xbd,
  0xda, 0x48, 0x5f, 0x3a, 0x6e, 0x61, 0x0c, 0x3d, 0xa4, 0xad, 0xba, 0xbd,
  0x30, 0x9a, 0x6a, 0xbe, 0x84, 0x40, 0x1e, 0x3b, 0x13, 0xf0, 0xdf, 0xbc,
  0x12, 0x14, 0xf8, 0xbd, 0x0c, 0x20, 0x45, 0xbe, 0x62, 0xa3, 0xa6, 0x3d,
  0x51, 0x24, 0xc5, 0x3b, 0xc8, 0xa1, 0x94, 0xbd, 0xa4, 0xa5, 0x2f, 0xbe,
  0x00, 0x11, 0x01, 0xbc, 0x5c, 0x0b, 0x9e, 0xbd, 0x23, 0xcd, 0x40, 0x3d,
  0xdf, 0xed, 0x21, 0x3e, 0xdf, 0xd1, 0xdb, 0xbd, 0xe5, 0xa5, 0xf3, 0xbb,
  0x0d, 0xce, 0x60, 0xbd, 0x19, 0x90, 0x34, 0x3e, 0x1e, 0x90, 0x32, 0x3c,
  0x23, 0xab, 0xc0, 0xbd, 0x24, 0x9e, 0x0a, 0xbe, 0xdc, 0xd1, 0x93, 0x3e,
  0x70, 0xa7, 0xc5, 0x3c, 0xb6, 0xdf, 0x21, 0xbc, 0x8e, 0xb8, 0x0f, 0x3b,
  0xf4, 0xff, 0x3d, 0x3e, 0xa4, 0x7f, 0x1e, 0xb9, 0xdc, 0xa7, 0xbf, 0xbd,
  0xaf, 0x8c, 0xf3, 0x3d, 0xab, 0x43, 0x77, 0x3d, 0x44, 0x2b, 0xdb, 0x3c,
  0x50, 0xf9, 0x05, 0xbc, 0xeb, 0x74, 0x5f, 0xbc, 0x24, 0x37, 0xa7, 0xbd,
  0x7e, 0x9f, 0x44, 0x3d, 0x2a, 0x78, 0x1a, 0xbe, 0x4b, 0x93, 0x7e, 0x3d,
  0x6e, 0x54, 0xf8, 0x3c, 0xc2, 0x9f, 0x58, 0xbc, 0x3b, 0x76, 0xe8, 0xbd,
  0x3a, 0x38, 0x45, 0x3e, 0x00, 0xfc, 0x90, 0x3e, 0xc6, 0x14, 0xe8, 0xba,
  0x5d, 0x4d, 0xae, 0xbc, 0x25, 0xf3, 0x11, 0x3e, 0x6e, 0x00, 0x4a, 0x3e,
  0xba, 0x09, 0x12, 0xbd, 0xd4, 0x00, 0x86, 0xbd, 0x0c, 0xbb, 0x9d, 0xbd,
  0x1a, 0x47, 0xbd, 0x3d, 0xb7, 0xf8, 0xa1, 0x3c, 0x43, 0xd4, 0xdd, 0xbc,
  0xa2, 0xf7, 0x52, 0xbd, 0x91, 0x8a, 0xd9, 0xbd, 0x9c, 0x48, 0x88, 0xbd,
  0xae, 0x32, 0xd5, 0x3d, 0x9f, 0x4d, 0x55, 0xbd, 0x02, 0x72, 0xd6, 0xbd,
  0xa2, 0x3d, 0xcf, 0x3b, 0x4f, 0x12, 0xd1, 0xbc, 0x88, 0xd0, 0x60, 0xbd,
  0x3f, 0x7d, 0xc2, 0xbd, 0x52, 0x11, 0xd3, 0x3c, 0x89, 0x5c, 0xbd, 0xbc,
  0x42, 0x8f, 0x19, 0xbd, 0x1c, 0x03, 0xff, 0xbc, 0x37, 0x3b, 0xa1, 0xbc,
  0x6f, 0xc0, 0xac, 0xbc, 0x21, 0xcc, 0x02, 0xbe, 0xa1, 0x5a, 0x1e, 0xbe,
  0x46, 0xf2, 0x86, 0x3d, 0x5a, 0x21, 0x3c, 0xbd, 0x4d, 0x72, 0x16, 0xbe,
  0x1b, 0xbc, 0x21, 0x3d, 0xa1, 0x29, 0x1e, 0xbd, 0x44, 0x25, 0x0d, 0x3d,
  0xb7, 0x42, 0x3e, 0xbe, 0xe4, 0x5c, 0xae, 0x3d, 0xe2, 0x6d, 0x4f, 0xbc,
  0xba, 0x7e, 0x72, 0xbd, 0xc4, 0x43, 0xe5, 0xbd, 0xf3, 0xea, 0x04, 0x3e,
  0xd1, 0x1d, 0x07, 0x3d, 0xc0, 0x78, 0x66, 0x3d, 0x5e, 0x85, 0xbd, 0xbd,
  0xb2, 0xe8, 0x21, 0x3d, 0x23, 0x80, 0x58, 0x3d, 0x57, 0x37, 0x3b, 0x3e,
  0xeb, 0x79, 0xab, 0x3d, 0x25, 0x75, 0x3c, 0x3e, 0x48, 0xe4, 0x63, 0xbd,
  0x23, 0xeb, 0x01, 0x3e, 0xa5, 0xdf, 0x00, 0xbe, 0x64, 0x97, 0xb7, 0xbc,
  0x87, 0x22, 0xe9, 0xbc, 0x36, 0x26, 0x54, 0x3b, 0x3b, 0xdc, 0x8b, 0x3d,
  0xaf, 0xec, 0xc3, 0x3b, 0xea, 0xe2, 0xd4, 0xbc, 0x49, 0xde, 0xef, 0x3c,
  0x71, 0x4b, 0x46, 0x3d, 0x0c, 0x7e, 0x06, 0x3e, 0x78, 0x79, 0xad, 0xbd,
  0x45, 0x04, 0xd8, 0xbc, 0x14, 0x91, 0x09, 0xbb, 0x7e, 0xe1, 0xff, 0x3d,
  0x97, 0x9b, 0xe6, 0xbc, 0x1d, 0x30, 0x23, 0x3d, 0x85, 0x84, 0x98, 0xbd,
  0xb6, 0xe4, 0x1d, 0x3c, 0x61, 0x83, 0x97, 0x3d, 0x8b, 0x22, 0x89, 0x3d,
  0xab, 0x4a, 0x34, 0xbe, 0xd5, 0x78, 0x04, 0xbe, 0x21, 0x47, 0xa9, 0x3c,
  0xda, 0x28, 0x87, 0xbb, 0xca, 0x4f, 0xf9, 0xbc, 0x80, 0x99, 0x16, 0xbe,
  0x37, 0xc2, 0x7d, 0x3c, 0xbe, 0xee, 0x06, 0xbd, 0xd0, 0x0a, 0x3b, 0xbd,
  0xae, 0x17, 0x46, 0xbe, 0x92, 0xe8, 0x24, 0xbb, 0xe4, 0x15, 0x50, 0xbc,
  0x68, 0xc4, 0x34, 0x3c, 0x19, 0x11, 0x8a, 0xbd, 0x90, 0xb5, 0xc0, 0x3d,
  0x10, 0xec, 0x88, 0xbd, 0x6b, 0x08, 0xc0, 0xbd, 0x52, 0xff, 0xee, 0xbb,
  0xfd, 0x18, 0xa2, 0x3d, 0x74, 0x9e, 0x58, 0xbb, 0xb0, 0x12, 0xa8, 0xbd,
  0x8d, 0xff, 0x88, 0xbd, 0xf8, 0x0b, 0xe3, 0xbc, 0xc9, 0xea, 0x83, 0xbd,
  0xea, 0x82, 0xec, 0xbd, 0x68, 0x5a, 0x26, 0xbe, 0xd5, 0x48, 0x7f, 0x3b,
  0x17, 0xd5, 0x87, 0xbd, 0x0a, 0x14, 0xe7, 0xbd, 0x2f, 0xfc, 0x02, 0xbe,
  0x72, 0x72, 0x82, 0xbc, 0x84, 0xe5, 0xa9, 0x3c, 0x69, 0x5d, 0x92, 0xbd,
  0xa5, 0x14, 0x4b, 0x3c, 0x0c, 0x85, 0xd9, 0x3c, 0x4c, 0x36, 0xd4, 0x3d,
  0x48, 0xf1, 0xb9, 0x3c, 0xe5, 0xf7, 0xa3, 0x3d, 0xbc, 0x1f, 0x90, 0x3d,
  0x77, 0xe3, 0xd2, 0x3c, 0x30, 0x28, 0x9b, 0xbd, 0x60, 0x28, 0x4a, 0xbe,
  0x16, 0x41, 0x0d, 0x3d, 0x75, 0x46, 0x5b, 0xbd, 0x7f, 0x3b, 0xe5, 0xbc,
  0x61, 0x65, 0x8d, 0xbc, 0x6e, 0xdd, 0xfb, 0xbc, 0x57, 0xa7, 0xc1, 0xbd,
  0x62, 0x86, 0x0a, 0x3d, 0xaa, 0x34, 0xb8, 0x3d, 0x09, 0xd7, 0x7f, 0xbd,
  0x6f, 0x45, 0xc2, 0xbd, 0x35, 0x40, 0xfe, 0x3d, 0x9a, 0xde, 0xc3, 0x3d,
  0x47, 0x67, 0xcb, 0xbc, 0x37, 0xa3, 0xdb, 0xbc, 0x4f, 0xf3, 0x90, 0x3b,
  0xe6, 0x67, 0xac, 0x3c, 0xdc, 0x4e, 0x43, 0x3d, 0x21, 0xf1, 0xa9, 0xbc,
  0xf2, 0x74, 0x11, 0xbe, 0x4d, 0x57, 0xe9, 0xbd, 0x80, 0x5d, 0xdb, 0xbc,
  0xc2, 0xd0, 0xd2, 0xbc, 0xf7, 0x9b, 0x44, 0xbd, 0xe7, 0x14, 0x50, 0xbd,
  0xf9, 0xc7, 0x8a, 0x3d, 0xfe, 0x3e, 0x41, 0x3d, 0x81, 0x80, 0xa0, 0xbd,
  0xfe, 0x85, 0x0c, 0x3d, 0x4e, 0xb1, 0xa3, 0xbc, 0x5f, 0xdf, 0x42, 0xbd,
  0xfb, 0x3c, 0x60, 0xbd, 0xd6, 0xad, 0xca, 0xbc, 0x20, 0x08, 0x8e, 0x3d,
  0x80, 0x57, 0x52, 0x3d, 0xd0, 0x23, 0x5d, 0xbc, 0xe1, 0x29, 0x32, 0xbd,
  0xfb, 0xaa, 0xe2, 0x3c, 0x8d, 0x11, 0x42, 0xbd, 0x40, 0x0f, 0x40, 0xbd,
  0x32, 0x56, 0x69, 0xbd, 0x37, 0xba, 0x90, 0xbd, 0x2a, 0xe2, 0x71, 0x3c,
  0x2e, 0xa4, 0xe0, 0xbd, 0x84, 0x97, 0x93, 0xbd, 0x65, 0x19, 0x7b, 0x3d,
  0x66, 0xd1, 0x84, 0xbd, 0x89, 0x72, 0xdf, 0x3a, 0xe1, 0xb3, 0xe0, 0xbd,
  0x66, 0xbd, 0x81, 0x3d, 0xe5, 0x10, 0x74, 0xbd, 0x4a, 0x4b, 0xe5, 0xbd,
  0x0c, 0x1b, 0xed, 0xbd, 0x6a, 0x56, 0x64, 0x3d, 0xfd, 0x2e, 0x7a, 0x3d,
  0x90, 0xa7, 0xf0, 0x3c, 0x52, 0xb3, 0xfb, 0x3c, 0x45, 0x44, 0x29, 0x3d,
  0xd3, 0x32, 0x49, 0xbd, 0xc3, 0x7f, 0x47, 0xbe, 0x59, 0x7f, 0xcd, 0xbd,
  0x56, 0xb1, 0xec, 0x3d, 0x74, 0x04, 0x4c, 0xbd, 0x67, 0x5f, 0xbf, 0x3d,
  0x0b, 0x1a, 0x3b, 0x3d, 0x95, 0x6a, 0x0a, 0x3e, 0x0a, 0x4a, 0xe1, 0xbc,
  0xf9, 0xf4, 0xa6, 0x3d, 0x96, 0x77, 0x14, 0x3e, 0x56, 0x58, 0xd7, 0xbd,
  0x1a, 0xd3, 0xa0, 0x3d, 0xc5, 0x2a, 0xe4, 0x3d, 0xa3, 0xe6, 0x1b, 0x3e,
  0xc3, 0x8e, 0x26, 0xbc, 0x04, 0xe4, 0xd0, 0x3d, 0x24, 0xaf, 0xd4, 0xbc,
  0x03, 0xcd, 0xaa, 0x3d, 0xed, 0x13, 0x91, 0xbd, 0x83, 0x62, 0xea, 0x3c,
  0x73, 0xca, 0x4a, 0xbc, 0x7b, 0xbf, 0x80, 0xbd, 0xc4, 0xd7, 0x50, 0xbc,
  0x22, 0x52, 0xb3, 0xbc, 0xb0, 0x29, 0xb2, 0xbd, 0x05, 0xa1, 0xe3, 0xbd,
  0xbf, 0x57, 0xbe, 0xbb, 0xfe, 0xb2, 0x4f, 0x3d, 0x93, 0xa8, 0x59, 0xbd,
  0x55, 0x7e, 0xb0, 0xbd, 0x27, 0xd0, 0xd6, 0xbc, 0xca, 0x44, 0xb2, 0xbc,
  0xd6, 0xdc, 0xc0, 0xbd, 0xbd, 0xf2, 0x45, 0xbc, 0xae, 0x7b, 0xb9, 0x3d,
  0xb5, 0x44, 0x8e, 0xbb, 0x28, 0x1e, 0x8a, 0xbd, 0x6f, 0xb8, 0x48, 0xbd,
  0xf8, 0xa4, 0xa9, 0x3c, 0xb1, 0xb9, 0x71, 0x3d, 0x9a, 0x7e, 0x15, 0xbc,
  0x3d, 0xdf, 0x04, 0xbe, 0xcc, 0xd4, 0xa2, 0xbd, 0x51, 0x36, 0xc0, 0xbc,
  0x9c, 0x99, 0xba, 0xbd, 0x13, 0x8e, 0x5d, 0xbd, 0x66, 0xad, 0x2f, 0x3d,
  0xb7, 0xd7, 0x8f, 0x3d, 0xfb, 0xac, 0xd9, 0x3b, 0xe7, 0xd7, 0x37, 0xbd,
  0x5d, 0xee, 0x7b, 0x3d, 0xd8, 0x1d, 0x88, 0xbd, 0x0c, 0xe9, 0xcb, 0x3c,
  0x9c, 0x2d, 0x69, 0x3c, 0xa4, 0xbb, 0x87, 0xbd, 0x07, 0xd9, 0x96, 0x3d,
  0x92, 0x4e, 0x4d, 0x3d, 0xf1, 0x84, 0x91, 0x3d, 0x73, 0x12, 0x36, 0x3d,
  0x15, 0x17, 0x5e, 0xbc, 0x3d, 0x9c, 0x37, 0xbe, 0x71, 0x8d, 0x3e, 0xbe,
  0x83, 0xa3, 0xe5, 0xbb, 0xa2, 0xa4, 0x06, 0xbd, 0x8e, 0x2c, 0xf7, 0xbc,
  0x1b, 0x36, 0xd5, 0x3c, 0xd2, 0xa4, 0xad, 0x3d, 0x93, 0x53, 0x62, 0x3d,
  0xe0, 0x5d, 0x62, 0x3b, 0xc6, 0xcd, 0x3e, 0x3c, 0xaa, 0xb7, 0x0c, 0x3b,
  0x3c, 0xa6, 0x97, 0x3b, 0xb9, 0xe8, 0x56, 0x3d, 0x9e, 0x9a, 0xe8, 0x3c,
  0x14, 0x4f, 0x85, 0xbd, 0x48, 0xf2, 0x84, 0x3d, 0x0a, 0x8c, 0x81, 0x3d,
  0x88, 0x38, 0x11, 0x3d, 0x4e, 0xb2, 0x18, 0xbb, 0x25, 0x51, 0xd5, 0x3c,
  0x12, 0x0e, 0x72, 0xbc, 0x91, 0xec, 0x3e, 0x3c, 0xa8, 0xf3, 0x1c, 0x3b,
  0x89, 0x93, 0xea, 0xbb, 0xef, 0x9a, 0xe8, 0xbd, 0x37, 0xac, 0xf6, 0xbb,
  0xb4, 0x0c, 0x01, 0x3d, 0xa5, 0xe3, 0x61, 0x3d, 0x61, 0x6f, 0xa0, 0xbc,
  0x20, 0x16, 0x86, 0xb6, 0x93, 0xe3, 0xad, 0x3d, 0xb3, 0x68, 0xbb, 0x3d,
  0x00, 0x21, 0x8f, 0xbd, 0x50, 0x94, 0xe2, 0xbc, 0x5c, 0x30, 0x8e, 0x3c,
  0xfd, 0xe9, 0x3d, 0xbd, 0xd0, 0x4b, 0x72, 0xbd, 0x47, 0x87, 0x6b, 0xbd,
  0x8e, 0xf2, 0xc3, 0x3c, 0xde, 0xdb, 0x1b, 0xbc, 0x76, 0x4d, 0x5f, 0xbd,
  0x2f, 0x7f, 0xe4, 0xbc, 0x65, 0x58, 0x53, 0xb9, 0x40, 0x85, 0x86, 0x3d,
  0xa4, 0x5a, 0x8f, 0xbd, 0xcb, 0xbe, 0x6e, 0xbd, 0x27, 0x1d, 0x75, 0x3d,
  0x07, 0xe6, 0x73, 0xbc, 0xec, 0x71, 0xd5, 0xbd, 0x8e, 0x5a, 0x6c, 0xbd,
  0x82, 0x56, 0xa8, 0x3d, 0x82, 0xb8, 0x5d, 0x3c, 0xad, 0xdc, 0x95, 0xbd,
  0x88, 0xab, 0xe6, 0xbd, 0xc1, 0x88, 0x95, 0x3d, 0x5f, 0xd3, 0x70, 0x3d,
  0x8b, 0x71, 0x24, 0xbc, 0xf2, 0x28, 0xcb, 0x3d, 0x49, 0xa3, 0xe6, 0x3c,
  0x51, 0x20, 0x67, 0xbd, 0xb2, 0x34, 0x05, 0xbe, 0xcd, 0x9c, 0xc2, 0xbd,
  0x97, 0xb7, 0x71, 0xbc, 0x4b, 0xef, 0x62, 0xbd, 0x20, 0x54, 0xc2, 0xbd,
  0x40, 0xf8, 0xe0, 0xbd, 0x99, 0xb8, 0xe1, 0x3c, 0x54, 0x5d, 0xb8, 0x3c,
  0x27, 0xdf, 0xba, 0x3d, 0x6b, 0x18, 0x51, 0x3b, 0xae, 0xa3, 0xc2, 0x3d,
  0xcf, 0xc4, 0x4b, 0x3d, 0x2b, 0xd3, 0x31, 0xbd, 0x8e, 0xa6, 0xe5, 0x3d,
  0x89, 0x9a, 0x63, 0xbc, 0x08, 0xab, 0xe2, 0xbc, 0x5d, 0x6b, 0x5a, 0x3d,
  0xf5, 0x98, 0x6e, 0x3d, 0x85, 0x1c, 0x8f, 0x3d, 0x7c, 0x74, 0x61, 0xbd,
  0x50, 0xba, 0x5d, 0xbd, 0x0c, 0xeb, 0x0b, 0xbe, 0xf3, 0x9c, 0x6b, 0xbd,
  0xdc, 0x4a, 0x88, 0x3d, 0xb7, 0x6d, 0xf3, 0x3c, 0xb8, 0x73, 0xd8, 0xbd,
  0xe0, 0xc1, 0x2c, 0x3d, 0xbc, 0xdc, 0xb7, 0x3d, 0x7e, 0x62, 0xc6, 0xbc,
  0x10, 0x4d, 0x62, 0xbd, 0xf0, 0x60, 0x2b, 0xbd, 0xc8, 0x4a, 0xab, 0xba,
  0x86, 0x99, 0x5e, 0xbd, 0xf6, 0xe0, 0xb8, 0xbd, 0xa6, 0xdb, 0xc1, 0x3d,
  0x06, 0x49, 0xf8, 0x3b, 0xf2, 0xf4, 0xb4, 0xbd, 0x20, 0xc4, 0xf3, 0xbd,
  0xaa, 0x14, 0xa1, 0x3d, 0x58, 0x49, 0x1e, 0x3b, 0x00, 0x7f, 0xb0, 0xbd,
  0x11, 0xfe, 0x0b, 0xbe, 0xa1, 0x92, 0x7b, 0xbc, 0x5b, 0x11, 0x57, 0xbd,
  0x65, 0x08, 0xad, 0x3b, 0x5b, 0xb8, 0x9c, 0x3b, 0x74, 0xda, 0x36, 0x3d,
  0x5b, 0x90, 0xb5, 0xbd, 0x5a, 0xda, 0xb2, 0xbd, 0x5a, 0x76, 0xf1, 0xbd,
  0x47, 0xa1, 0x46, 0xbd, 0xca, 0x78, 0x14, 0xbc, 0x6e, 0x4c, 0xb6, 0xbd,
  0x35, 0x72, 0x5d, 0x3c, 0x07, 0xe0, 0xc4, 0xbb, 0x24, 0x56, 0x04, 0x3e,
  0xd6, 0x3c, 0xc7, 0x3d, 0x2f, 0xe8, 0x91, 0x3d, 0xfa, 0x5f, 0xfc, 0x3d,
  0x0d, 0xd5, 0xd1, 0x3d, 0x94, 0x04, 0x09, 0xba, 0xb0, 0x8a, 0x54, 0xbb,
  0x85, 0x67, 0x52, 0x3c, 0x6d, 0xfe, 0x81, 0xbd, 0xc4, 0xf7, 0x31, 0xbd,
  0xb3, 0xd9, 0x2e, 0xbd, 0x88, 0xab, 0xb1, 0xbc, 0x4f, 0xc0, 0xc2, 0x3c,
  0x0e, 0xd0, 0xb3, 0x3d, 0xeb, 0xd0, 0x8a, 0x3d, 0x37, 0x69, 0x08, 0xbd,
  0x78, 0x5f, 0xfc, 0xbc, 0x85, 0x37, 0xca, 0xbc, 0x42, 0x3b, 0x69, 0x3d,
  0x5c, 0xdf, 0xe0, 0xbc, 0xa0, 0x21, 0xef, 0xbc, 0xf2, 0x7b, 0xb0, 0x3d,
  0x84, 0x35, 0xd4, 0x3c, 0xaf, 0x15, 0x20, 0xbd, 0xd1, 0xde, 0x00, 0x3d,
  0xbe, 0x4b, 0x34, 0xbc, 0xbb, 0x23, 0xb0, 0xbc, 0xa4, 0xf4, 0x82, 0x3d,
  0x97, 0xad, 0x29, 0xba, 0xfd, 0xd1, 0x13, 0x3b, 0xe8, 0x64, 0x84, 0xbd,
  0x03, 0x13, 0x17, 0x3c, 0x60, 0x71, 0xbd, 0x3c, 0xee, 0xbb, 0x87, 0x3d,
  0x50, 0x17, 0xa1, 0xbc, 0x78, 0x69, 0xc4, 0x3d, 0x4c, 0xd4, 0x2e, 0xbd,
  0x08, 0x08, 0x9f, 0xbd, 0x83, 0xd8, 0x25, 0x3d, 0x26, 0xb7, 0xa6, 0x3d,
  0x8f, 0x32, 0xb0, 0x3d, 0x54, 0x56, 0x07, 0xbe, 0xff, 0x93, 0xcb, 0x3c,
  0xa1, 0xbf, 0xdd, 0xbc, 0x52, 0xb6, 0x42, 0xbb, 0x24, 0xf5, 0x15, 0xbd,
  0x2f, 0x50, 0xad, 0xbd, 0xa0, 0xaf, 0x96, 0xbc, 0xb2, 0x14, 0x40, 0x3d,
  0xe8, 0x3e, 0x03, 0xbe, 0x93, 0x5f, 0x29, 0xbe, 0xfb, 0x5a, 0x09, 0x3d,
  0xaa, 0xa2, 0x68, 0x3d, 0x84, 0x20, 0x88, 0xbc, 0xa2, 0xf1, 0x78, 0x3d,
  0x5b, 0x47, 0xde, 0xbc, 0x29, 0x48, 0x18, 0x3d, 0xd4, 0x65, 0xb6, 0xbd,
  0xd5, 0x1d, 0xb5, 0x3d, 0xe7, 0x9d, 0x7c, 0xbd, 0xe9, 0x24, 0x34, 0x3e,
  0xac, 0x87, 0xca, 0x3d, 0x6c, 0x10, 0xb8, 0xbc, 0xa9, 0x87, 0xfb, 0xbc,
  0xe9, 0x42, 0xb3, 0x3d, 0x1b, 0xf9, 0x1c, 0x3c, 0x1d, 0xbd, 0xda, 0xbd,
  0xea, 0x7e, 0x51, 0xbb, 0xe7, 0x01, 0x88, 0xbc, 0x8e, 0x03, 0xe0, 0xbc,
  0xbd, 0xb1, 0x2c, 0xbd, 0x4f, 0xc4, 0x06, 0x3c, 0xe9, 0xf7, 0x66, 0xbb,
  0x23, 0x3f, 0xb2, 0xbc, 0xd7, 0x42, 0x9c, 0x3c, 0x09, 0x1c, 0xa0, 0xbc,
  0xd8, 0x7c, 0x57, 0xbc, 0x64, 0x14, 0xac, 0x3d, 0xfd, 0xd6, 0xae, 0x3d,
  0xc1, 0xb2, 0xdf, 0xbc, 0x9d, 0x08, 0xa1, 0x3d, 0x65, 0xa7, 0xf8, 0xbb,
  0xe3, 0xb0, 0xe5, 0xbc, 0x13, 0x8c, 0x1f, 0xbd, 0x8c, 0x7f, 0xad, 0x3d,
  0x7a, 0x8e, 0x2b, 0x3c, 0xb5, 0xe5, 0xec, 0xbd, 0x67, 0x6a, 0x8b, 0xbd,
  0x24, 0x77, 0x4f, 0x3d, 0x7c, 0x67, 0xc4, 0xbd, 0xc4, 0x07, 0x72, 0xbd,
  0xd0, 0x08, 0x31, 0x3b, 0x17, 0x93, 0x2e, 0xbd, 0x69, 0xcd, 0x90, 0xbd,
  0x56, 0xce, 0xfd, 0x3c, 0x50, 0xee, 0x9b, 0xbb, 0x74, 0x25, 0x3c, 0x3d,
  0xe6, 0x5c, 0xc6, 0xbd, 0x14, 0x21, 0xae, 0xbc, 0x1c, 0xf9, 0x3a, 0xbd,
  0x37, 0x1a, 0x60, 0xbd, 0xf6, 0x13, 0x17, 0xbe, 0xbe, 0x62, 0xed, 0xbd,
  0x52, 0x1e, 0xcd, 0x3c, 0x0e, 0x56, 0xa5, 0x3d, 0x36, 0x90, 0x0b, 0xbe,
  0x43, 0xf1, 0x14, 0xbe, 0x60, 0xee, 0xb1, 0x3d, 0xf9, 0x2d, 0xad, 0x3d,
  0xae, 0x9e, 0x1d, 0xbd, 0x56, 0xa2, 0xfe, 0xbd, 0x84, 0xea, 0x44, 0x3d,
  0x42, 0x5d, 0x9b, 0x3b, 0x92, 0xd6, 0x08, 0xbe, 0x01, 0x47, 0x7e, 0x3c,
  0xdb, 0x88, 0xe7, 0xbc, 0x1a, 0xd5, 0xa8, 0x3d, 0x42, 0x25, 0xce, 0x3c,
  0xfb, 0x8d, 0x36, 0x3d, 0x88, 0xe7, 0x90, 0x3d, 0x97, 0xdf, 0xc3, 0x3d,
  0xd9, 0x0e, 0xc9, 0xbb, 0x61, 0x4e, 0x51, 0x3d, 0x8c, 0x49, 0x3b, 0x3d,
  0x0c, 0xf0, 0xc1, 0x3d, 0xa3, 0xbb, 0x84, 0xbd, 0x52, 0x19, 0x21, 0xbd,
  0xcf, 0x03, 0x02, 0x3d, 0xd2, 0x91, 0x66, 0xbd, 0x9a, 0x2e, 0x26, 0xbd,
  0xb9, 0x41, 0xc6, 0xbd, 0x60, 0xbb, 0xc4, 0x3d, 0x79, 0xed, 0x12, 0x3d,
  0x33, 0xe1, 0xb4, 0x3d, 0x6c, 0x30, 0xa3, 0x3d, 0x8f, 0xea, 0xb8, 0x3d,
  0x6a, 0xbb, 0x11, 0xbb, 0xe4, 0xc2, 0x57, 0x3d, 0xed, 0xdd, 0x2d, 0xbd,
  0xf8, 0xf9, 0x3a, 0x3d, 0xf4, 0x87, 0xd1, 0xbc, 0xd6, 0xa3, 0xe4, 0xbd,
  0x2e, 0xa4, 0xf0, 0xbc, 0xc4, 0x0d, 0x6e, 0x3d, 0xac, 0x10, 0xa9, 0x3d,
  0x61, 0xb9, 0x37, 0xbd, 0x72, 0x05, 0x1f, 0xbe, 0x90, 0x91, 0x59, 0xbd,
  0x9d, 0xbc, 0x62, 0x3d, 0x13, 0x98, 0xf2, 0xbd, 0xe6, 0x16, 0x67, 0xbd,
  0x02, 0x53, 0xaf, 0x3d, 0xd4, 0x1b, 0xe9, 0x3c, 0x4b, 0xeb, 0x9c, 0xbd,
  0xc3, 0x03, 0x00, 0xbe, 0x7f, 0x42, 0x7d, 0x3d, 0x39, 0x6d, 0x2e, 0x3c,
  0xe4, 0x0b, 0x29, 0x3c, 0x7e, 0xb1, 0x9a, 0xbd, 0x3a, 0x34, 0x8c, 0xbd,
  0xae, 0xd0, 0x4f, 0xbd, 0x9d, 0xcf, 0x6a, 0xbd, 0x1f, 0x32, 0x55, 0xbe,
  0xbf, 0x78, 0xe5, 0x3c, 0x87, 0xd5, 0x46, 0x3d, 0xac, 0xb2, 0x39, 0xbd,
  0x32, 0x88, 0x9c, 0xbd, 0x65, 0x8e, 0x34, 0xbd, 0xce, 0x49, 0x9e, 0x3c,
  0x9f, 0x86, 0xb2, 0xbd, 0xc3, 0x29, 0x42, 0xbe, 0x3c, 0xf3, 0x6d, 0xbd,
  0x84, 0x53, 0x8f, 0x3d, 0x4e, 0x15, 0x4c, 0xbc, 0xa1, 0xee, 0xf4, 0xbd,
  0xf8, 0x05, 0x0a, 0xbc, 0x2d, 0x3e, 0x94, 0xbd, 0xd2, 0x90, 0x98, 0x3c,
  0x2c, 0xa0, 0xdb, 0x3c, 0x55, 0xb9, 0xfd, 0xbc, 0x24, 0x72, 0xdc, 0x3c,
  0xcc, 0xc9, 0x3c, 0x3d, 0xdb, 0xfa, 0x11, 0x3d, 0xa1, 0x3e, 0x0e, 0x3d,
  0x13, 0x6e, 0x47, 0x3b, 0x67, 0xa1, 0xc5, 0x3a, 0xeb, 0x13, 0xc5, 0x3b,
  0xea, 0xf7, 0x42, 0x3d, 0x58, 0x48, 0xc5, 0x3c, 0x7c, 0x81, 0x8a, 0xbd,
  0x95, 0xdd, 0x1e, 0x3d, 0xcb, 0xc9, 0xf3, 0x3d, 0x38, 0x67, 0x51, 0x3d,
  0xa5, 0x8d, 0xb7, 0x3d, 0x5f, 0xb4, 0xe5, 0x3d, 0x4e, 0x0d, 0xd5, 0x3c,
  0xbb, 0xc4, 0x51, 0x3c, 0xc1, 0xaa, 0x92, 0xbd, 0x96, 0x23, 0x18, 0x3b,
  0x4b, 0xe7, 0x56, 0xbd, 0x1e, 0x27, 0xb3, 0xbc, 0x01, 0x42, 0x14, 0xbd,
  0xc2, 0xac, 0x1d, 0xbe, 0xd5, 0x92, 0x25, 0x3c, 0x0d, 0x54, 0x9b, 0x3d,
  0xff, 0xfc, 0x9f, 0xbd, 0x71, 0xe1, 0x03, 0xbe, 0x50, 0x3c, 0x40, 0x3b,
  0x41, 0x30, 0x1c, 0x3d, 0xad, 0xc4, 0xe3, 0xbd, 0xc5, 0x73, 0x2d, 0xbe,
  0x41, 0xf3, 0xd1, 0x3d, 0xf9, 0x2e, 0x56, 0x3d, 0x05, 0x02, 0x4f, 0xbd,
  0xbe, 0xa9, 0x09, 0xbe, 0x7f, 0x8b, 0x87, 0x3d, 0x8b, 0xbf, 0x84, 0xbc,
  0x6b, 0x42, 0x06, 0xbe, 0x14, 0x09, 0xdf, 0xbd, 0xd2, 0x21, 0xb0, 0x3d,
  0x23, 0x7e, 0x5b, 0xbd, 0x1e, 0xff, 0x61, 0xbc, 0x71, 0x3a, 0x47, 0xbe,
  0xa8, 0x2f, 0x07, 0xbd, 0xb1, 0x33, 0xf4, 0xbc, 0xef, 0xae, 0x10, 0xbe,
  0x24, 0x56, 0xc1, 0xbd, 0x66, 0xf8, 0xb2, 0x3c, 0x59, 0x18, 0x9f, 0x3d,
  0x0f, 0x6d, 0xab, 0xbd, 0xc4, 0xc0, 0x75, 0xbc, 0x0b, 0x16, 0xc6, 0x3c,
  0x03, 0x5e, 0x37, 0xbd, 0xa4, 0x58, 0xf6, 0xbd, 0xe0, 0x94, 0x20, 0xbe,
  0xe8, 0xc2, 0x77, 0xbd, 0x2c, 0x68, 0x1b, 0x3d, 0x84, 0xb0, 0xba, 0xbd,
  0x27, 0x99, 0xe2, 0xbd, 0x50, 0x51, 0x1c, 0xbd, 0x4b, 0x55, 0x43, 0x3d,
  0x2a, 0xb3, 0xd4, 0x3d, 0x80, 0x32, 0xa0, 0x3d, 0xcc, 0xcd, 0x36, 0xbd,
  0xb7, 0xe7, 0x1b, 0x3e, 0x4d, 0xd2, 0x5a, 0xbd, 0x75, 0xd7, 0x96, 0xbd,
  0x6c, 0x82, 0x87, 0xbd, 0x59, 0x0a, 0xe8, 0x3d, 0x7d, 0x28, 0xa8, 0xbd,
  0x4b, 0xd5, 0x61, 0xbd, 0xaf, 0x46, 0x99, 0xbd, 0x24, 0xa2, 0x7d, 0x3c,
  0x52, 0x80, 0x84, 0x3c, 0x88, 0x23, 0xa7, 0x3d, 0x5e, 0x5c, 0xbe, 0xbd,
  0xe3, 0x70, 0xd7, 0x3c, 0xd2, 0x7e, 0xcf, 0xbd, 0x4b, 0x9f, 0x78, 0xbd,
  0xd2, 0x6c, 0x06, 0x3d, 0x65, 0xc2, 0x86, 0x3d, 0xbf, 0x95, 0xb7, 0xbd,
  0xd7, 0x0e, 0x6f, 0xbd, 0x65, 0x63, 0x5f, 0xbd, 0xe6, 0x90, 0x90, 0x3d,
  0x3c, 0xd8, 0xdf, 0xbd, 0x25, 0xc9, 0x69, 0xbe, 0x41, 0x47, 0x2b, 0x3d,
  0x05, 0x09, 0x1d, 0xbd, 0x6c, 0x45, 0xdc, 0xbd, 0x83, 0x6f, 0x68, 0xbe,
  0x6b, 0x3d, 0x2f, 0xbc, 0xda, 0xe7, 0xd1, 0xbc, 0x0d, 0x01, 0xba, 0xbd,
  0x50, 0x3a, 0x5b, 0xbe, 0x6e, 0xa0, 0x10, 0xbd, 0x30, 0x45, 0x80, 0x3d,
  0xc0, 0xfb, 0x1e, 0xbe, 0x3a, 0xb6, 0xd2, 0xbd, 0xd9, 0x6c, 0x03, 0xbd,
  0x53, 0xe4, 0x9f, 0x3c, 0xa1, 0x64, 0xe0, 0xbd, 0xd2, 0xd2, 0x1b, 0xbe,
  0x5a, 0xda, 0x8b, 0x3c, 0x7a, 0x1f, 0xa2, 0x3d, 0x5a, 0x22, 0x9a, 0xbd,
  0xb5, 0x34, 0x58, 0xbd, 0xbe, 0x9a, 0x1f, 0xbd, 0x11, 0x19, 0x54, 0xbd,
  0xc8, 0x31, 0x05, 0xbe, 0xbb, 0x0f, 0xd7, 0xbd, 0x6b, 0x4a, 0x55, 0x3c,
  0x5a, 0xef, 0x91, 0x3c, 0x37, 0x03, 0x76, 0xbd, 0x20, 0xf5, 0x03, 0xbd,
  0x2f, 0x60, 0xa9, 0x3a, 0xa3, 0xcd, 0x63, 0xbd, 0xec, 0xfc, 0x5c, 0xbc,
  0xcc, 0xeb, 0x46, 0xbd, 0xa1, 0x90, 0x23, 0x3b, 0xd0, 0x6b, 0x04, 0xbd,
  0x0f, 0x4f, 0xeb, 0x3b, 0xa6, 0xe5, 0xfe, 0x3c, 0x94, 0x25, 0x38, 0xbb,
  0xe6, 0xbd, 0x7d, 0x3b, 0x82, 0xfd, 0x74, 0xbb, 0xff, 0xeb, 0x17, 0x3d,
  0x2c, 0x32, 0xff, 0xbd, 0xcd, 0x02, 0xa9, 0xbc, 0x9b, 0x17, 0x14, 0xbe,
  0xd8, 0xe8, 0x95, 0xbd, 0x1a, 0xde, 0xa6, 0x3d, 0x74, 0xcf, 0x7a, 0xbd,
  0x85, 0xd3, 0x99, 0xbb, 0x72, 0x59, 0x39, 0x3d, 0x84, 0x47, 0x3c, 0xbc,
  0x54, 0xbd, 0xd7, 0x3d, 0x53, 0xb1, 0xb3, 0xbd, 0x4c, 0x49, 0xc5, 0xbd,
  0x24, 0xb4, 0x4b, 0xbd, 0xb8, 0x52, 0x35, 0x3d, 0xba, 0xef, 0xd5, 0xbc,
  0xc9, 0xeb, 0x55, 0xbd, 0x4d, 0x6f, 0x6f, 0xbd, 0x8d, 0x40, 0xf3, 0x3c,
  0xf5, 0x2e, 0x87, 0xbd, 0x83, 0x9b, 0xd4, 0xbd, 0x0f, 0x35, 0x8b, 0x3d,
  0xe4, 0xe5, 0x9a, 0x3d, 0x14, 0x02, 0x19, 0xbd, 0x22, 0x86, 0xe1, 0xbd,
  0x9f, 0xa2, 0x2a, 0x3d, 0xa4, 0x3f, 0xaa, 0x3d, 0x08, 0xc7, 0xc2, 0xbd,
  0x03, 0xba, 0x17, 0xbe, 0xd8, 0xf3, 0xb2, 0xbb, 0x71, 0xc2, 0xbc, 0xbc,
  0x50, 0xca, 0xf7, 0xbd, 0x5d, 0x3e, 0x0e, 0xbe, 0x6b, 0xb6, 0x35, 0x3c,
  0xbe, 0x19, 0x0e, 0xbd, 0x42, 0x1d, 0x58, 0x3b, 0x33, 0x40, 0x09, 0xbe,
  0x7e, 0x6b, 0x85, 0x3d, 0x8a, 0x5f, 0x9f, 0x3c, 0x93, 0xdc, 0xbe, 0xbd,
  0xba, 0x8e, 0x28, 0xbd, 0xe0, 0x6f, 0xec, 0xbc, 0xd8, 0x3c, 0xa4, 0x3d,
  0x65, 0xd6, 0x9d, 0xbd, 0xc4, 0x90, 0xf8, 0xbd, 0x2b, 0x96, 0xb3, 0x3d,
  0xea, 0x8e, 0xee, 0xbc, 0x8e, 0x8f, 0xbd, 0xbd, 0x20, 0x76, 0x4b, 0xbd,
  0x0e, 0x70, 0xab, 0x3d, 0xcc, 0xa0, 0x2a, 0xbd, 0x2e, 0x77, 0x08, 0xbd,
  0xb1, 0x65, 0xe8, 0x3d, 0x68, 0xde, 0x68, 0xbd, 0x78, 0xcb, 0x83, 0x3d,
  0x29, 0x92, 0xc2, 0x3d, 0x2f, 0x63, 0x1e, 0x3d, 0x3d, 0x02, 0xfa, 0x3c,
  0x98, 0xef, 0x0c, 0x3e, 0xda, 0x16, 0x95, 0xba, 0xb8, 0x94, 0xde, 0xbc,
  0xb2, 0x6e, 0xa6, 0xbd, 0x33, 0x42, 0x03, 0xbc, 0x5e, 0x44, 0x88, 0xbd,
  0x1f, 0x88, 0xe0, 0xbd, 0x73, 0xb5, 0x4f, 0xbb, 0x0a, 0xe2, 0xdf, 0x3c,
  0x1b, 0x13, 0x3a, 0x3d, 0x70, 0xfe, 0xbc, 0x3d, 0x63, 0x66, 0xd0, 0xbd,
  0x53, 0x26, 0xca, 0x3d, 0x8c, 0x06, 0x2f, 0xbd, 0x88, 0x72, 0xc4, 0xbd,
  0x4f, 0x24, 0xcd, 0xbc, 0x4d, 0x6f, 0x97, 0x3d, 0x33, 0x73, 0x8d, 0xbd,
  0x92, 0x35, 0x06, 0xbe, 0x93, 0x71, 0x38, 0x3d, 0x25, 0xb1, 0x1b, 0xbd,
  0x55, 0x8a, 0xae, 0xbd, 0x54, 0xdf, 0x72, 0xbd, 0x21, 0xee, 0x03, 0xbc,
  0x70, 0x9d, 0x8f, 0x3d, 0xe2, 0xc7, 0x14, 0xbd, 0xe3, 0x71, 0x3e, 0xbe,
  0x57, 0x96, 0xe2, 0x3c, 0xe4, 0x75, 0x1a, 0x3d, 0xcb, 0x9e, 0x9d, 0xbd,
  0xee, 0x71, 0xc5, 0xbd, 0xe1, 0xbf, 0x38, 0x3d, 0x51, 0xc0, 0x79, 0xbd,
  0x66, 0x8c, 0xfb, 0xbc, 0xfe, 0x94, 0x09, 0xbe, 0x60, 0xf8, 0x83, 0xbd,
  0xae, 0x56, 0xe4, 0xba, 0x8f, 0x31, 0x07, 0x3d, 0xda, 0x9b, 0x51, 0xbd,
  0xb3, 0x47, 0x75, 0x3d, 0x42, 0x7f, 0x8e, 0xbd, 0x93, 0xad, 0xb6, 0xbc,
  0x7b, 0x7d, 0x0f, 0x3c, 0xf1, 0x6b, 0x2e, 0xbc, 0xf4, 0xba, 0xa7, 0x3c,
  0x83, 0xb6, 0x93, 0xbd, 0xc6, 0xb6, 0x02, 0xbc, 0xa3, 0x76, 0x03, 0xbd,
  0xd3, 0x76, 0x83, 0xba, 0x49, 0xf4, 0x56, 0xbd, 0x9e, 0x86, 0x27, 0x3d,
  0xa6, 0x30, 0xb3, 0x39, 0x05, 0x0c, 0xf7, 0x3c, 0x0c, 0x43, 0x13, 0xbd,
  0x32, 0x59, 0x1b, 0x3e, 0xa4, 0x02, 0x14, 0x3d, 0xa0, 0xf3, 0x50, 0x3d,
  0x86, 0x16, 0xcf, 0x3d, 0x57, 0x45, 0xd4, 0x3d, 0x16, 0x62, 0xeb, 0xbc,
  0x52, 0x2c, 0x8f, 0x3c, 0xe0, 0x1c, 0x9c, 0xbc, 0x69, 0xfe, 0x53, 0xbb,
  0x42, 0xe0, 0xb2, 0xbd, 0x5a, 0xf4, 0xee, 0x3c, 0x16, 0xc4, 0xf3, 0xbd,
  0xc8, 0x74, 0x1c, 0xbe, 0x42, 0x39, 0xd4, 0xbc, 0x9e, 0x03, 0x9f, 0xbd,
  0x58, 0x59, 0x5e, 0x3d, 0x4e, 0xa2, 0xc6, 0x3d, 0x57, 0x05, 0xb7, 0xbd,
  0xc2, 0x8c, 0x85, 0xbb, 0x37, 0xda, 0xda, 0xbd, 0x21, 0xa6, 0xac, 0x3c,
  0x58, 0xb9, 0x5e, 0xbd, 0xad, 0x4b, 0x42, 0x3d, 0x2c, 0xc0, 0x2c, 0x3c,
  0x50, 0x89, 0x82, 0xbd, 0x5a, 0xe4, 0x4a, 0x3d, 0xd5, 0xe3, 0x83, 0x3c,
  0xa9, 0xf3, 0xb3, 0xba, 0xf0, 0x5d, 0x8c, 0xbc, 0x3b, 0x6b, 0xda, 0x3c,
  0xa1, 0xcb, 0x08, 0xbd, 0x8c, 0x2c, 0xe1, 0xbc, 0xe0, 0x3d, 0x37, 0xbe,
  0xad, 0x55, 0x9f, 0x3d, 0x53, 0xc1, 0xfc, 0xbc, 0xba, 0xab, 0x96, 0xbd,
  0x4e, 0xa3, 0xe3, 0xbd, 0xfc, 0x12, 0xcf, 0xbc, 0xb6, 0x78, 0xed, 0x3c,
  0xc5, 0x05, 0x1a, 0x3b, 0xc5, 0xf8, 0x26, 0xbd, 0xf6, 0xd7, 0xb4, 0xbc,
  0x88, 0xbc, 0x97, 0xbd, 0xa8, 0xce, 0x0c, 0x3d, 0x89, 0xad, 0xe8, 0xbc,
  0xe5, 0x34, 0xfe, 0xbc, 0xc9, 0x8e, 0x85, 0xbd, 0xb2, 0x61, 0xf4, 0xbc,
  0xee, 0x93, 0x37, 0x3d, 0xc7, 0xc0, 0x5d, 0x3d, 0x62, 0xae, 0x75, 0x3c,
  0x76, 0xe1, 0x2a, 0x3c, 0x96, 0x7a, 0xe1, 0xbd, 0xd7, 0x43, 0x9e, 0x3d,
  0xf3, 0x38, 0x18, 0x3c, 0xef, 0x62, 0xbd, 0xbc, 0xc4, 0x19, 0xc7, 0xbb,
  0xa7, 0x70, 0x3d, 0xbc, 0x66, 0x64, 0x15, 0xbd, 0xba, 0x6e, 0xa1, 0xbd,
  0x69, 0x69, 0xca, 0x3d, 0x1c, 0xee, 0xf9, 0x3c, 0x26, 0xff, 0xff, 0xff,
  0x04, 0x00, 0x00, 0x00, 0x30, 0x00, 0x00, 0x00, 0xb6, 0x68, 0x3d, 0x3f,
  0x62, 0xdf, 0x51, 0xbf, 0xff, 0x2b, 0xf5, 0xbe, 0x54, 0xb4, 0x77, 0x3e,
  0xb4, 0x92, 0xa9, 0xbd, 0x94, 0xd3, 0xc9, 0x3e, 0x61, 0xbf, 0x52, 0x3e,
  0x9f, 0x7e, 0x4c, 0x3f, 0x37, 0x45, 0x1f, 0xbf, 0x0d, 0x79, 0x68, 0x3f,
  0x74, 0xe7, 0xf4, 0x3e, 0xde, 0xb0, 0x09, 0xbf, 0x62, 0xff, 0xff, 0xff,
  0x04, 0x00, 0x00, 0x00, 0x90, 0x00, 0x00, 0x00, 0xde, 0x5c, 0xd0, 0x3e,
  0x29, 0xb8, 0x1c, 0xbe, 0xfe, 0xde, 0x24, 0xbd, 0x26, 0x17, 0x97, 0xbe,
  0x59, 0xa3, 0xb0, 0xbe, 0xc1, 0xfe, 0x16, 0xbe, 0x3a, 0x70, 0x4e, 0xbe,
  0xd7, 0x28, 0x7f, 0xbe, 0x80, 0xc2, 0x51, 0xbe, 0x76, 0xa2, 0x6b, 0x3c,
  0x29, 0xc5, 0x97, 0x3e, 0x56, 0xd6, 0x48, 0x3e, 0x65, 0x9b, 0xad, 0xbc,
  0xe2, 0xcb, 0x84, 0x3e, 0x17, 0x42, 0xec, 0x3d, 0xa3, 0x37, 0x66, 0x3e,
  0xda, 0xef, 0x97, 0x3e, 0xa6, 0x4e, 0x3a, 0x3e, 0x45, 0xce, 0x8c, 0x3e,
  0xe6, 0xd7, 0x9a, 0x3e, 0xfc, 0x1b, 0x10, 0x3e, 0xda, 0xfb, 0xb5, 0x3e,
  0xef, 0xe6, 0xe0, 0x3e, 0xc6, 0x3a, 0x3e, 0xbe, 0x3e, 0xee, 0x78, 0xbe,
  0x68, 0x26, 0xd9, 0x3b, 0x31, 0x93, 0x5c, 0xbd, 0xba, 0x9e, 0x9d, 0xbe,
  0x54, 0x15, 0xb2, 0xbd, 0x7f, 0xf9, 0x16, 0x3e, 0xab, 0x54, 0x6d, 0xbe,
  0xf3, 0xf1, 0x2c, 0xbe, 0x01, 0x5d, 0xb7, 0xbe, 0x06, 0xb1, 0x5b, 0x3e,
  0x0b, 0xab, 0xb6, 0xbd, 0xd6, 0xc1, 0xdb, 0x3d, 0x00, 0x00, 0x06, 0x00,
  0x08, 0x00, 0x04, 0x00, 0x06, 0x00, 0x00, 0x00, 0x04, 0x00, 0x00, 0x00,
  0x10, 0x00, 0x00, 0x00, 0x11, 0x07, 0x9f, 0x3e, 0x19, 0x77, 0x15, 0xbe,
  0x70, 0xea, 0xe0, 0x3b, 0x17, 0x4f, 0x5e, 0x3e, 0x60, 0xf8, 0xff, 0xff,
  0x64, 0xf8, 0xff, 0xff, 0x0f, 0x00, 0x00, 0x00, 0x4d, 0x4c, 0x49, 0x52,
  0x20, 0x43, 0x6f, 0x6e, 0x76, 0x65, 0x72, 0x74, 0x65, 0x64, 0x2e, 0x00,
  0x01, 0x00, 0x00, 0x00, 0x14, 0x00, 0x00, 0x00, 0x00, 0x00, 0x0e, 0x00,
  0x18, 0x00, 0x14, 0x00, 0x10, 0x00, 0x0c, 0x00, 0x08, 0x00, 0x04, 0x00,
  0x0e, 0x00, 0x00, 0x00, 0x14, 0x00, 0x00, 0x00, 0x1c, 0x00, 0x00, 0x00,
  0xd4, 0x01, 0x00, 0x00, 0xd8, 0x01, 0x00, 0x00, 0xdc, 0x01, 0x00, 0x00,
  0x04, 0x00, 0x00, 0x00, 0x6d, 0x61, 0x69, 0x6e, 0x00, 0x00, 0x00, 0x00,
  0x06, 0x00, 0x00, 0x00, 0x7c, 0x01, 0x00, 0x00, 0x18, 0x01, 0x00, 0x00,
  0xb4, 0x00, 0x00, 0x00, 0x8c, 0x00, 0x00, 0x00, 0x3c, 0x00, 0x00, 0x00,
  0x04, 0x00, 0x00, 0x00, 0x0a, 0xff, 0xff, 0xff, 0x14, 0x00, 0x00, 0x00,
  0x00, 0x00, 0x00, 0x08, 0x10, 0x00, 0x00, 0x00, 0x14, 0x00, 0x00, 0x00,
  0x04, 0x00, 0x00, 0x00, 0xec, 0xf8, 0xff, 0xff, 0x01, 0x00, 0x00, 0x00,
  0x0e, 0x00, 0x00, 0x00, 0x03, 0x00, 0x00, 0x00, 0x0d, 0x00, 0x00, 0x00,
  0x03, 0x00, 0x00, 0x00, 0x06, 0x00, 0x00, 0x00, 0x3e, 0xff, 0xff, 0xff,
  0x1c, 0x00, 0x00, 0x00, 0x00, 0x00, 0x00, 0x08, 0x1c, 0x00, 0x00, 0x00,
  0x20, 0x00, 0x00, 0x00, 0x04, 0x00, 0x00, 0x00, 0x00, 0x00, 0x06, 0x00,
  0x08, 0x00, 0x07, 0x00, 0x06, 0x00, 0x00, 0x00, 0x00, 0x00, 0x00, 0x01,
  0x01, 0x00, 0x00, 0x00, 0x0d, 0x00, 0x00, 0x00, 0x03, 0x00, 0x00, 0x00,
  0x0c, 0x00, 0x00, 0x00, 0x04, 0x00, 0x00, 0x00, 0x05, 0x00, 0x00, 0x00,
  0x00, 0x00, 0x0a, 0x00, 0x10, 0x00, 0x0c, 0x00, 0x08, 0x00, 0x04, 0x00,
  0x0a, 0x00, 0x00, 0x00, 0x0c, 0x00, 0x00, 0x00, 0x10, 0x00, 0x00, 0x00,
  0x03, 0x00, 0x00, 0x00, 0x01, 0x00, 0x00, 0x00, 0x0c, 0x00, 0x00, 0x00,
  0x02, 0x00, 0x00, 0x00, 0x0b, 0x00, 0x00, 0x00, 0x07, 0x00, 0x00, 0x00,
  0xae, 0xff, 0xff, 0xff, 0x24, 0x00, 0x00, 0x00, 0x00, 0x00, 0x00, 0x05,
  0x34, 0x00, 0x00, 0x00, 0x38, 0x00, 0x00, 0x00, 0x02, 0x00, 0x00, 0x00,
  0x00, 0x00, 0x0e, 0x00, 0x18, 0x00, 0x17, 0x00, 0x10, 0x00, 0x0c, 0x00,
  0x08, 0x00, 0x04, 0x00, 0x0e, 0x00, 0x00, 0x00, 0x02, 0x00, 0x00, 0x00,
  0x02, 0x00, 0x00, 0x00, 0x02, 0x00, 0x00, 0x00, 0x02, 0x00, 0x00, 0x00,
  0x00, 0x00, 0x00, 0x01, 0x01, 0x00, 0x00, 0x00, 0x0b, 0x00, 0x00, 0x00,
  0x01, 0x00, 0x00, 0x00, 0x0a, 0x00, 0x00, 0x00, 0x00, 0x00, 0x0e, 0x00,
  0x18, 0x00, 0x14, 0x00, 0x10, 0x00, 0x0c, 0x00, 0x0b, 0x00, 0x04, 0x00,
  0x0e, 0x00, 0x00, 0x00, 0x20, 0x00, 0x00, 0x00, 0x00, 0x00, 0x00, 0x01,
  0x2c, 0x00, 0x00, 0x00, 0x30, 0x00, 0x00, 0x00, 0x01, 0x00, 0x00, 0x00,
  0x0c, 0x00, 0x14, 0x00, 0x13, 0x00, 0x0c, 0x00, 0x08, 0x00, 0x07, 0x00,
  0x0c, 0x00, 0x00, 0x00, 0x00, 0x00, 0x00, 0x01, 0x01, 0x00, 0x00, 0x00,
  0x01, 0x00, 0x00, 0x00, 0x00, 0x00, 0x00, 0x01, 0x01, 0x00, 0x00, 0x00,
  0x0a, 0x00, 0x00, 0x00, 0x03, 0x00, 0x00, 0x00, 0x09, 0x00, 0x00, 0x00,
  0x02, 0x00, 0x00, 0x00, 0x01, 0x00, 0x00, 0x00, 0x00, 0x00, 0x0e, 0x00,
  0x14, 0x00, 0x00, 0x00, 0x10, 0x00, 0x0c, 0x00, 0x0b, 0x00, 0x04, 0x00,
  0x0e, 0x00, 0x00, 0x00, 0x1c, 0x00, 0x00, 0x00, 0x00, 0x00, 0x00, 0x0f,
  0x1c, 0x00, 0x00, 0x00, 0x20, 0x00, 0x00, 0x00, 0x0c, 0x00, 0x08, 0x00,
  0x00, 0x00, 0x00, 0x00, 0x00, 0x00, 0x07, 0x00, 0x0c, 0x00, 0x00, 0x00,
  0x00, 0x00, 0x00, 0x01, 0x01, 0x00, 0x00, 0x00, 0x09, 0x00, 0x00, 0x00,
  0x02, 0x00, 0x00, 0x00, 0x00, 0x00, 0x00, 0x00, 0x08, 0x00, 0x00, 0x00,
  0x01, 0x00, 0x00, 0x00, 0x0e, 0x00, 0x00, 0x00, 0x01, 0x00, 0x00, 0x00,
  0x00, 0x00, 0x00, 0x00, 0x0f, 0x00, 0x00, 0x00, 0x48, 0x05, 0x00, 0x00,
  0xf4, 0x04, 0x00, 0x00, 0x94, 0x04, 0x00, 0x00, 0x54, 0x04, 0x00, 0x00,
  0x14, 0x04, 0x00, 0x00, 0xd8, 0x03, 0x00, 0x00, 0x9c, 0x03, 0x00, 0x00,
  0x5c, 0x03, 0x00, 0x00, 0xf0, 0x02, 0x00, 0x00, 0x70, 0x02, 0x00, 0x00,
  0xc8, 0x01, 0x00, 0x00, 0x50, 0x01, 0x00, 0x00, 0xf0, 0x00, 0x00, 0x00,
  0x60, 0x00, 0x00, 0x00, 0x04, 0x00, 0x00, 0x00, 0x0a, 0xfb, 0xff, 0xff,
  0x00, 0x00, 0x00, 0x01, 0x14, 0x00, 0x00, 0x00, 0x1c, 0x00, 0x00, 0x00,
  0x1c, 0x00, 0x00, 0x00, 0x0f, 0x00, 0x00, 0x00, 0x34, 0x00, 0x00, 0x00,
  0x02, 0x00, 0x00, 0x00, 0xff, 0xff, 0xff, 0xff, 0x03, 0x00, 0x00, 0x00,
  0xec, 0xfa, 0xff, 0xff, 0x1b, 0x00, 0x00, 0x00, 0x53, 0x74, 0x61, 0x74,
  0x65, 0x66, 0x75, 0x6c, 0x50, 0x61, 0x72, 0x74, 0x69, 0x74, 0x69, 0x6f,
  0x6e, 0x65, 0x64, 0x43, 0x61, 0x6c, 0x6c, 0x5f, 0x31, 0x3a, 0x30, 0x00,
  0x02, 0x00, 0x00, 0x00, 0x01, 0x00, 0x00, 0x00, 0x03, 0x00, 0x00, 0x00,
  0x62, 0xfb, 0xff, 0xff, 0x00, 0x00, 0x00, 0x01, 0x14, 0x00, 0x00, 0x00,
  0x1c, 0x00, 0x00, 0x00, 0x1c, 0x00, 0x00, 0x00, 0x0e, 0x00, 0x00, 0x00,
  0x68, 0x00, 0x00, 0x00, 0x02, 0x00, 0x00, 0x00, 0xff, 0xff, 0xff, 0xff,
  0x04, 0x00, 0x00, 0x00, 0x44, 0xfb, 0xff, 0xff, 0x4e, 0x00, 0x00, 0x00,
  0x73, 0x65, 0x71, 0x75, 0x65, 0x6e, 0x74, 0x69, 0x61, 0x6c, 0x5f, 0x31,
  0x2f, 0x64, 0x65, 0x6e, 0x73, 0x65, 0x5f, 0x31, 0x2f, 0x4d, 0x61, 0x74,
  0x4d, 0x75, 0x6c, 0x3b, 0x73, 0x65, 0x71, 0x75, 0x65, 0x6e, 0x74, 0x69,
  0x61, 0x6c, 0x5f, 0x31, 0x2f, 0x64, 0x65, 0x6e, 0x73, 0x65, 0x5f, 0x31,
  0x2f, 0x52, 0x65, 0x6c, 0x75, 0x3b, 0x73, 0x65, 0x71, 0x75, 0x65, 0x6e,
  0x74, 0x69, 0x61, 0x6c, 0x5f, 0x31, 0x2f, 0x64, 0x65, 0x6e, 0x73, 0x65,
  0x5f, 0x31, 0x2f, 0x41, 0x64, 0x64, 0x00, 0x00, 0x02, 0x00, 0x00, 0x00,
  0x01, 0x00, 0x00, 0x00, 0x04, 0x00, 0x00, 0x00, 0xee, 0xfb, 0xff, 0xff,
  0x00, 0x00, 0x00, 0x01, 0x14, 0x00, 0x00, 0x00, 0x1c, 0x00, 0x00, 0x00,
  0x1c, 0x00, 0x00, 0x00, 0x0d, 0x00, 0x00, 0x00, 0x38, 0x00, 0x00, 0x00,
  0x02, 0x00, 0x00, 0x00, 0xff, 0xff, 0xff, 0xff, 0x84, 0x03, 0x00, 0x00,
  0xd0, 0xfb, 0xff, 0xff, 0x1e, 0x00, 0x00, 0x00, 0x73, 0x65, 0x71, 0x75,
  0x65, 0x6e, 0x74, 0x69, 0x61, 0x6c, 0x5f, 0x31, 0x2f, 0x66, 0x6c, 0x61,
  0x74, 0x74, 0x65, 0x6e, 0x5f, 0x31, 0x2f, 0x52, 0x65, 0x73, 0x68, 0x61,
  0x70, 0x65, 0x00, 0x00, 0x02, 0x00, 0x00, 0x00, 0x01, 0x00, 0x00, 0x00,
