unsigned char converted_model_tflite[] = {
  0x1c, 0x00, 0x00, 0x00, 0x54, 0x46, 0x4c, 0x33, 0x14, 0x00, 0x20, 0x00,
  0x1c, 0x00, 0x18, 0x00, 0x14, 0x00, 0x10, 0x00, 0x0c, 0x00, 0x00, 0x00,
  0x08, 0x00, 0x04, 0x00, 0x14, 0x00, 0x00, 0x00, 0x1c, 0x00, 0x00, 0x00,
  0x88, 0x00, 0x00, 0x00, 0xe0, 0x00, 0x00, 0x00, 0xec, 0x2c, 0x00, 0x00,
  0xfc, 0x2c, 0x00, 0x00, 0x50, 0x33, 0x00, 0x00, 0x03, 0x00, 0x00, 0x00,
  0x01, 0x00, 0x00, 0x00, 0x04, 0x00, 0x00, 0x00, 0x86, 0xd2, 0xff, 0xff,
  0x0c, 0x00, 0x00, 0x00, 0x1c, 0x00, 0x00, 0x00, 0x3c, 0x00, 0x00, 0x00,
  0x0f, 0x00, 0x00, 0x00, 0x73, 0x65, 0x72, 0x76, 0x69, 0x6e, 0x67, 0x5f,
  0x64, 0x65, 0x66, 0x61, 0x75, 0x6c, 0x74, 0x00, 0x01, 0x00, 0x00, 0x00,
  0x04, 0x00, 0x00, 0x00, 0x94, 0xff, 0xff, 0xff, 0x09, 0x00, 0x00, 0x00,
  0x04, 0x00, 0x00, 0x00, 0x08, 0x00, 0x00, 0x00, 0x6f, 0x75, 0x74, 0x70,
  0x75, 0x74, 0x5f, 0x30, 0x00, 0x00, 0x00, 0x00, 0x01, 0x00, 0x00, 0x00,
  0x04, 0x00, 0x00, 0x00, 0xc6, 0xfd, 0xff, 0xff, 0x04, 0x00, 0x00, 0x00,
  0x0b, 0x00, 0x00, 0x00, 0x69, 0x6e, 0x70, 0x75, 0x74, 0x5f, 0x6c, 0x61,
  0x79, 0x65, 0x72, 0x00, 0x02, 0x00, 0x00, 0x00, 0x34, 0x00, 0x00, 0x00,
  0x04, 0x00, 0x00, 0x00, 0xdc, 0xff, 0xff, 0xff, 0x0c, 0x00, 0x00, 0x00,
  0x04, 0x00, 0x00, 0x00, 0x13, 0x00, 0x00, 0x00, 0x43, 0x4f, 0x4e, 0x56,
  0x45, 0x52, 0x53, 0x49, 0x4f, 0x4e, 0x5f, 0x4d, 0x45, 0x54, 0x41, 0x44,
  0x41, 0x54, 0x41, 0x00, 0x08, 0x00, 0x0c, 0x00, 0x08, 0x00, 0x04, 0x00,
  0x08, 0x00, 0x00, 0x00, 0x0b, 0x00, 0x00, 0x00, 0x04, 0x00, 0x00, 0x00,
  0x13, 0x00, 0x00, 0x00, 0x6d, 0x69, 0x6e, 0x5f, 0x72, 0x75, 0x6e, 0x74,
  0x69, 0x6d, 0x65, 0x5f, 0x76, 0x65, 0x72, 0x73, 0x69, 0x6f, 0x6e, 0x00,
  0x0d, 0x00, 0x00, 0x00, 0x08, 0x2c, 0x00, 0x00, 0x00, 0x2c, 0x00, 0x00,
  0xc0, 0x01, 0x00, 0x00, 0x9c, 0x01, 0x00, 0x00, 0x84, 0x01, 0x00, 0x00,
  0xe4, 0x00, 0x00, 0x00, 0xc4, 0x00, 0x00, 0x00, 0xbc, 0x00, 0x00, 0x00,
  0xb4, 0x00, 0x00, 0x00, 0xac, 0x00, 0x00, 0x00, 0xa4, 0x00, 0x00, 0x00,
  0x84, 0x00, 0x00, 0x00, 0x04, 0x00, 0x00, 0x00, 0x72, 0xfe, 0xff, 0xff,
  0x04, 0x00, 0x00, 0x00, 0x70, 0x00, 0x00, 0x00, 0x10, 0x00, 0x00, 0x00,
  0x00, 0x00, 0x00, 0x00, 0x08, 0x00, 0x0e, 0x00, 0x08, 0x00, 0x04, 0x00,
  0x08, 0x00, 0x00, 0x00, 0x10, 0x00, 0x00, 0x00, 0x24, 0x00, 0x00, 0x00,
  0x00, 0x00, 0x06, 0x00, 0x08, 0x00, 0x04, 0x00, 0x06, 0x00, 0x00, 0x00,
  0x04, 0x00, 0x00, 0x00, 0x00, 0x00, 0x00, 0x00, 0x0c, 0x00, 0x1c, 0x00,
  0x18, 0x00, 0x14, 0x00, 0x10, 0x00, 0x04, 0x00, 0x0c, 0x00, 0x00, 0x00,
  0x4c, 0x13, 0x8a, 0x90, 0x0e, 0x9a, 0x7e, 0xba, 0x00, 0x00, 0x00, 0x00,
  0x02, 0x00, 0x00, 0x00, 0x02, 0x00, 0x00, 0x00, 0x04, 0x00, 0x00, 0x00,
  0x12, 0x00, 0x00, 0x00, 0x32, 0x2e, 0x31, 0x38, 0x2e, 0x30, 0x2d, 0x64,
  0x65, 0x76, 0x32, 0x30, 0x32, 0x34, 0x30, 0x37, 0x30, 0x39, 0x00, 0x00,
  0xee, 0xfe, 0xff, 0xff, 0x04, 0x00, 0x00, 0x00, 0x10, 0x00, 0x00, 0x00,
  0x31, 0x2e, 0x35, 0x2e, 0x30, 0x00, 0x00, 0x00, 0x00, 0x00, 0x00, 0x00,
  0x00, 0x00, 0x00, 0x00, 0x94, 0xce, 0xff, 0xff, 0x98, 0xce, 0xff, 0xff,
  0x9c, 0xce, 0xff, 0xff, 0xa0, 0xce, 0xff, 0xff, 0x1a, 0xff, 0xff, 0xff,
  0x04, 0x00, 0x00, 0x00, 0x10, 0x00, 0x00, 0x00, 0xa0, 0x88, 0x9a, 0x3e,
  0xfa, 0xd9, 0x79, 0xbe, 0x00, 0x1a, 0x19, 0x38, 0xc0, 0x00, 0x8b, 0x3a,
  0x36, 0xff, 0xff, 0xff, 0x04, 0x00, 0x00, 0x00, 0x90, 0x00, 0x00, 0x00,
  0x38, 0x1f, 0x8a, 0x3d, 0x03, 0x40, 0x60, 0xbe, 0xd3, 0x9d, 0x76, 0xbd,
  0x17, 0x70, 0x04, 0x3e, 0x69, 0xd3, 0x94, 0xbe, 0x7c, 0x6f, 0xce, 0xbe,
  0x64, 0xfe, 0x53, 0x3e, 0x51, 0xb9, 0xad, 0x3e, 0x36, 0xe4, 0xa0, 0xbc,
  0x07, 0x03, 0x97, 0x3e, 0xf5, 0xd7, 0x0b, 0xbe, 0xd1, 0x4e, 0xc7, 0x3e,
  0x70, 0x2a, 0x3f, 0x3e, 0xb4, 0x7f, 0xde, 0x3e, 0xef, 0x67, 0x7a, 0x3e,
  0xab, 0x7e, 0xce, 0x3e, 0xb1, 0x1e, 0x07, 0x3e, 0x7c, 0x0b, 0x23, 0x3e,
  0x70, 0x94, 0xbb, 0x3e, 0xdb, 0x34, 0x05, 0x3f, 0xf7, 0xc9, 0x2d, 0xbe,
  0xa9, 0x84, 0xbb, 0xbd, 0x06, 0x75, 0x15, 0x3f, 0xaf, 0x1f, 0x33, 0x3d,
  0x5e, 0x13, 0x86, 0x3e, 0x61, 0x11, 0x54, 0xbe, 0xfa, 0xa0, 0xee, 0xbd,
  0x2a, 0x66, 0x88, 0x3e, 0x28, 0xa7, 0xd8, 0x3d, 0x99, 0x1d, 0xda, 0xbe,
  0x24, 0x1e, 0xc8, 0x3e, 0xb8, 0x7b, 0x58, 0x3d, 0x63, 0xde, 0x92, 0xbd,
  0x32, 0x3b, 0x52, 0x3e, 0xe1, 0xc4, 0x17, 0x3e, 0xbe, 0xbd, 0x94, 0x3e,
  0xd2, 0xff, 0xff, 0xff, 0x04, 0x00, 0x00, 0x00, 0x08, 0x00, 0x00, 0x00,
  0xff, 0xff, 0xff, 0xff, 0x84, 0x03, 0x00, 0x00, 0xe6, 0xff, 0xff, 0xff,
  0x04, 0x00, 0x00, 0x00, 0x0c, 0x00, 0x00, 0x00, 0x15, 0x6c, 0x53, 0xbc,
  0x1b, 0x69, 0xf9, 0xbc, 0xd2, 0x2d, 0x05, 0x3e, 0x00, 0x00, 0x06, 0x00,
  0x08, 0x00, 0x04, 0x00, 0x06, 0x00, 0x00, 0x00, 0x04, 0x00, 0x00, 0x00,
  0x30, 0x2a, 0x00, 0x00, 0x3e, 0xa2, 0xf3, 0xbb, 0xfe, 0x3a, 0x73, 0xbb,
  0x33, 0x9d, 0x4d, 0xbd, 0x15, 0x4a, 0x86, 0xbd, 0x2d, 0x3f, 0x66, 0xbd,
  0x95, 0x2a, 0xf8, 0x3c, 0xae, 0x38, 0xa3, 0xbd, 0x5b, 0x31, 0x87, 0xbc,
  0xa2, 0x1c, 0xa0, 0x3c, 0xd4, 0xca, 0x65, 0x3d, 0xe7, 0xb2, 0x85, 0xbd,
  0x98, 0x05, 0x1d, 0xbd, 0x55, 0x9b, 0xa8, 0xbd, 0xe2, 0x2f, 0x20, 0xbd,
  0x37, 0x38, 0x97, 0x3c, 0x18, 0x20, 0xb5, 0xbc, 0x8e, 0x93, 0x67, 0x3c,
  0xb4, 0xf1, 0x71, 0x3d, 0x32, 0xa8, 0x08, 0xbd, 0x2e, 0x49, 0xb2, 0xbc,
  0x41, 0x2e, 0x56, 0x3d, 0x1d, 0x3f, 0xc7, 0xbc, 0xab, 0x6d, 0xb5, 0xbd,
  0xde, 0x43, 0x14, 0x3d, 0xf3, 0x68, 0x5e, 0x3d, 0x2f, 0xd2, 0x91, 0xbd,
  0x7b, 0x50, 0x35, 0xbd, 0x0d, 0x36, 0x01, 0x3d, 0xff, 0x10, 0x57, 0x3d,
  0x9b, 0x3c, 0x8a, 0x3d, 0x28, 0x38, 0x5e, 0xbd, 0x9a, 0x6d, 0x5b, 0x3d,
  0x74, 0xd3, 0x88, 0x3d, 0x4d, 0x87, 0x8b, 0xbd, 0xcd, 0x38, 0x07, 0xbd,
  0xb5, 0x56, 0x46, 0x3d, 0x0a, 0x07, 0xf0, 0xbc, 0x35, 0x6a, 0x70, 0x3d,
  0x42, 0xd8, 0x86, 0xbb, 0x03, 0x65, 0x8f, 0xbd, 0x1d, 0xb0, 0x31, 0xbd,
  0x15, 0x6b, 0x07, 0xbd, 0xff, 0xb7, 0xc2, 0x3c, 0x7f, 0xe1, 0xfe, 0xbc,
  0x26, 0x46, 0x2c, 0xbd, 0xf6, 0x0d, 0x03, 0x3c, 0x47, 0x16, 0x4c, 0x3c,
  0x18, 0xca, 0xab, 0x3c, 0x39, 0x06, 0xa7, 0xbd, 0x45, 0x90, 0xe4, 0xbb,
  0x52, 0x5d, 0x02, 0xbd, 0xcd, 0xca, 0x3c, 0xbd, 0xeb, 0x82, 0x73, 0xbd,
  0x62, 0xe7, 0x67, 0xbc, 0x40, 0xf6, 0x24, 0xbc, 0x91, 0x23, 0x76, 0x3d,
  0xd2, 0xd5, 0x36, 0x3d, 0x39, 0xa1, 0x5b, 0x3d, 0x26, 0xdc, 0x20, 0x3d,
  0x5d, 0x0f, 0x62, 0xbd, 0x83, 0x3a, 0xa2, 0xbc, 0xe9, 0x99, 0x2b, 0x3d,
  0x40, 0xf5, 0xb2, 0xbd, 0xf9, 0x0e, 0xa3, 0x3c, 0xa7, 0xbc, 0x5e, 0xbd,
  0x76, 0x0f, 0x0f, 0x3c, 0x90, 0x17, 0x97, 0xbd, 0xe9, 0x43, 0x8d, 0xbd,
  0x54, 0x31, 0xe3, 0x3c, 0xac, 0x22, 0x7d, 0xbd, 0xd7, 0x54, 0x84, 0x3d,
  0x46, 0x80, 0xbd, 0xbd, 0xe8, 0xc5, 0x18, 0xbd, 0x8f, 0x24, 0x38, 0x3d,
  0xd5, 0xe9, 0x65, 0xbd, 0x75, 0x4d, 0x26, 0x3c, 0xae, 0x44, 0x9c, 0xbd,
  0xfe, 0x71, 0x90, 0x3d, 0x0c, 0x76, 0xa0, 0xbc, 0x1e, 0xd7, 0x33, 0x3c,
  0x49, 0x6f, 0x2c, 0xbd, 0x6e, 0xc5, 0x4c, 0xbc, 0xec, 0xcb, 0xe7, 0x3c,
  0xdb, 0x24, 0x8a, 0xbd, 0x4a, 0xbf, 0x83, 0xbd, 0x15, 0xff, 0x5a, 0xbc,
  0x48, 0xb4, 0xef, 0xbc, 0xdf, 0xcc, 0x99, 0x3c, 0xd0, 0x09, 0x86, 0xbd,
  0xd0, 0x4a, 0x17, 0x3c, 0xb1, 0x52, 0x8b, 0x3d, 0x17, 0x26, 0x0b, 0x3c,
  0x06, 0x03, 0x75, 0xbd, 0x5e, 0xb9, 0x9b, 0x3d, 0x7d, 0xc8, 0x94, 0x3d,
  0x53, 0xf6, 0xe1, 0x3c, 0xc1, 0xa5, 0x60, 0x3d, 0x37, 0x6c, 0x8b, 0xbd,
  0xf3, 0x38, 0xa4, 0x3c, 0x01, 0x03, 0xe0, 0x3c, 0xac, 0x12, 0x8a, 0x3c,
  0xb9, 0x25, 0x1a, 0x38, 0x03, 0x1b, 0xcd, 0xba, 0x69, 0xa6, 0x02, 0xbb,
  0xb4, 0xa1, 0x88, 0xbc, 0x35, 0xe4, 0x60, 0xbc, 0x0a, 0x26, 0x75, 0x3d,
  0x45, 0x4d, 0x49, 0xbd, 0x6a, 0xbb, 0xcf, 0x3b, 0xa3, 0x59, 0x85, 0xbd,
  0x4d, 0xbd, 0xa0, 0xbd, 0x7f, 0x5f, 0x1e, 0xbd, 0x0f, 0x13, 0xa7, 0xbd,
  0xc5, 0xf4, 0x21, 0xbd, 0x01, 0xbe, 0x27, 0xb9, 0x72, 0x34, 0x39, 0xbd,
  0xe7, 0x1c, 0x0f, 0xbd, 0x75, 0x68, 0x1b, 0x3d, 0x4f, 0x78, 0x84, 0x3d,
  0xfa, 0x06, 0x8f, 0x3d, 0x22, 0x43, 0x39, 0xbd, 0x4f, 0x5c, 0x7b, 0x3c,
  0xc2, 0x79, 0xe8, 0xbb, 0xa2, 0xb1, 0x38, 0xbd, 0x84, 0x12, 0xc0, 0xbc,
  0x76, 0xb8, 0x9b, 0xbc, 0x0a, 0x16, 0xb4, 0xbd, 0x89, 0x9a, 0xb3, 0xbd,
  0x0a, 0x9e, 0x8e, 0xbd, 0x6b, 0x8d, 0x17, 0xbd, 0xf7, 0x21, 0xbe, 0x3c,
  0x12, 0x4f, 0x74, 0xbc, 0x13, 0x05, 0xc8, 0x3c, 0x6b, 0x6d, 0x6b, 0x3d,
  0x0c, 0x3a, 0x2d, 0x3d, 0xbe, 0x33, 0x23, 0x3d, 0x5e, 0xff, 0xba, 0xbd,
  0xb8, 0x34, 0xdb, 0x3c, 0x02, 0x44, 0xb3, 0xbc, 0x66, 0x1f, 0x37, 0x3c,
  0x19, 0x7c, 0x95, 0xbd, 0xb6, 0x0e, 0x3b, 0x3b, 0x98, 0xe6, 0x1f, 0xbd,
  0x79, 0xeb, 0x59, 0xbd, 0x32, 0xf0, 0x8a, 0x3c, 0x1e, 0x96, 0x8e, 0xbd,
  0x4e, 0xe8, 0x80, 0x3d, 0x64, 0x5e, 0x18, 0xbd, 0x79, 0x96, 0x58, 0xbc,
  0x78, 0x62, 0x2f, 0x3d, 0x93, 0x1b, 0x8b, 0x3c, 0x0a, 0x51, 0x06, 0xbd,
  0x90, 0xf5, 0x1a, 0x3d, 0x77, 0x57, 0xa5, 0xbd, 0x1a, 0x1d, 0xee, 0xba,
  0xb5, 0x22, 0x95, 0x3a, 0x2f, 0x22, 0x30, 0xbd, 0xc4, 0x63, 0x3e, 0xbc,
  0x07, 0x6e, 0x85, 0xb9, 0x5c, 0x1c, 0x5e, 0xbd, 0xa8, 0xc8, 0xb5, 0xbd,
  0x23, 0x6c, 0x84, 0x3d, 0x10, 0x85, 0x62, 0xbd, 0xf6, 0x34, 0x80, 0x3d,
  0x4c, 0xd3, 0x37, 0x3c, 0x1b, 0xa5, 0xcd, 0x3c, 0xe5, 0xb2, 0xe8, 0xbc,
  0xa2, 0x28, 0xb5, 0x3c, 0xad, 0xce, 0xab, 0x3b, 0xd7, 0xfb, 0xb6, 0x3c,
  0x08, 0x99, 0x35, 0x3d, 0x6b, 0xb5, 0x05, 0xbd, 0x1c, 0x8e, 0x94, 0xbd,
  0x9e, 0xd6, 0xfb, 0x3c, 0x68, 0xf6, 0xf3, 0x3c, 0x7d, 0x50, 0x08, 0x3c,
  0xfa, 0x3a, 0x2d, 0x3d, 0x1b, 0xbf, 0x26, 0x3d, 0xbd, 0x53, 0x0d, 0x3d,
  0xc3, 0x70, 0x29, 0xbd, 0x2d, 0x17, 0x0b, 0x3c, 0x79, 0x36, 0x4f, 0x3d,
  0x55, 0x48, 0x27, 0x3d, 0x16, 0x7d, 0x3c, 0xbc, 0xe7, 0x04, 0x88, 0x3d,
  0x56, 0x20, 0x46, 0x3d, 0x67, 0x3c, 0x8f, 0xbd, 0x9b, 0x88, 0x9b, 0xbd,
  0xad, 0x99, 0x92, 0x3c, 0xbc, 0x02, 0xba, 0xbd, 0x70, 0x8b, 0xa1, 0x3c,
  0xb4, 0x6f, 0x9c, 0xbd, 0x6b, 0x72, 0xba, 0xbd, 0xc5, 0x41, 0x64, 0xbc,
  0xda, 0x84, 0x3e, 0x3d, 0xb3, 0xae, 0x48, 0x3d, 0x5b, 0xad, 0x11, 0x3d,
  0x55, 0x8f, 0x74, 0xbd, 0x7a, 0x68, 0x86, 0xbd, 0xe2, 0x74, 0x62, 0x3b,
  0x5e, 0x59, 0xa9, 0xbc, 0x92, 0x65, 0x7f, 0x3d, 0x16, 0x58, 0x2f, 0x3d,
  0x8e, 0xde, 0xa4, 0xbd, 0x79, 0x51, 0x15, 0xbd, 0x3e, 0xaa, 0x71, 0xbc,
  0x63, 0x79, 0x00, 0x3c, 0xa0, 0x7b, 0x9f, 0xbd, 0xd7, 0xc2, 0x84, 0xba,
  0x55, 0x26, 0x56, 0x3c, 0xc3, 0x28, 0x66, 0xbd, 0x66, 0xa1, 0x20, 0x3d,
  0xe1, 0xe3, 0xe7, 0x3b, 0x79, 0xe7, 0x82, 0x3d, 0x21, 0x4b, 0x73, 0xbd,
  0xb0, 0xb5, 0x8e, 0xbc, 0x2b, 0x83, 0xc5, 0xbb, 0x50, 0xf5, 0x78, 0x3c,
  0x8c, 0xe2, 0x11, 0x3d, 0x63, 0x82, 0x88, 0xbc, 0x86, 0x48, 0x89, 0x3d,
  0xb3, 0x6c, 0x2f, 0x3d, 0x60, 0x1c, 0x30, 0x3d, 0x18, 0x12, 0x5f, 0xbd,
  0xb6, 0x78, 0x1c, 0xbc, 0x8e, 0xb2, 0x63, 0xbd, 0xf1, 0x01, 0x65, 0xbd,
  0x20, 0x53, 0xff, 0xbb, 0x6a, 0x55, 0x57, 0xbd, 0x62, 0x30, 0x36, 0xbd,
  0x31, 0xce, 0xdd, 0x3c, 0x58, 0x27, 0x8c, 0xbd, 0xbe, 0xee, 0x20, 0xbd,
  0x28, 0x7c, 0x22, 0x3c, 0x77, 0xde, 0x7a, 0x3d, 0x39, 0x85, 0x5c, 0x3b,
  0x67, 0xd4, 0x8e, 0x3d, 0x5e, 0xe2, 0x24, 0xbd, 0x21, 0xfa, 0x91, 0x3d,
  0x04, 0x8c, 0x52, 0x3d, 0x32, 0xf3, 0x97, 0x3b, 0x7a, 0xf0, 0x9b, 0xbd,
  0x5b, 0x53, 0xc7, 0xbc, 0xd9, 0x02, 0x04, 0x3d, 0x4e, 0x31, 0xcf, 0xbc,
  0x4b, 0xa8, 0x4b, 0xbd, 0x74, 0xa8, 0xa2, 0xbd, 0x1b, 0x0d, 0x74, 0x3d,
  0x86, 0x55, 0xc6, 0xbc, 0x38, 0x01, 0x00, 0x3d, 0x7e, 0xd5, 0x92, 0xbd,
  0x89, 0x49, 0x71, 0x3d, 0x92, 0xd1, 0xf5, 0xbc, 0x34, 0x7d, 0x5f, 0x3d,
  0x50, 0xa2, 0x9a, 0xbd, 0x0a, 0x40, 0x06, 0x3d, 0xb7, 0x64, 0xaf, 0xbd,
  0xc1, 0xd9, 0xd7, 0xbc, 0x7d, 0x6a, 0x85, 0xbd, 0x12, 0x22, 0x8e, 0xbd,
  0x92, 0xb1, 0x95, 0xbd, 0x2d, 0xb8, 0x54, 0x3d, 0xb9, 0x82, 0x66, 0x3d,
  0xcf, 0xfd, 0x68, 0xbc, 0x28, 0x85, 0x37, 0xbc, 0x4a, 0x35, 0x0f, 0xbc,
  0xf2, 0xbb, 0xb1, 0xbd, 0xfe, 0xd7, 0x77, 0x3c, 0x9c, 0xa1, 0xaf, 0xbd,
  0x5c, 0x4e, 0xf9, 0x3c, 0xd2, 0x5e, 0x2a, 0xbd, 0x9a, 0xe3, 0xbe, 0xbd,
  0x71, 0x27, 0x2e, 0x3d, 0xc3, 0x74, 0x8d, 0xbc, 0xc7, 0x14, 0xac, 0xbd,
  0xf6, 0xc3, 0xf2, 0x3c, 0x41, 0xa4, 0x6b, 0x3d, 0xe8, 0xb2, 0x64, 0x3d,
  0xb6, 0x7f, 0x8f, 0x3a, 0x47, 0xb9, 0x0f, 0x3d, 0x5a, 0x57, 0x8f, 0xbd,
  0x4d, 0xd0, 0x8a, 0x3d, 0xca, 0x0e, 0x83, 0xbc, 0x66, 0x03, 0x7b, 0xbd,
  0x07, 0x5f, 0x57, 0xbd, 0x3d, 0x74, 0x18, 0x3d, 0x14, 0x48, 0xd1, 0x3c,
  0x7c, 0x86, 0x3b, 0xbd, 0xa9, 0x21, 0xcc, 0xbb, 0xcd, 0x84, 0x89, 0x3c,
  0xcb, 0xbb, 0x4c, 0xbd, 0x74, 0xd1, 0x86, 0xbc, 0x58, 0xec, 0xdc, 0xbc,
  0x3c, 0x09, 0x81, 0xbd, 0xff, 0xa7, 0x52, 0x3d, 0xc4, 0xca, 0x2c, 0x3d,
  0x7a, 0x98, 0xa7, 0x3b, 0x5e, 0x2a, 0x8a, 0xbd, 0x9b, 0xa0, 0xab, 0xbd,
  0x1f, 0xf9, 0x17, 0x3c, 0x3b, 0xd6, 0x88, 0x3d, 0x3f, 0xf5, 0xe6, 0xbc,
  0xdc, 0xd8, 0x00, 0x3d, 0x39, 0xe1, 0x84, 0xbd, 0x00, 0xfb, 0xae, 0xbd,
  0xd8, 0x7e, 0xc8, 0xbc, 0x9a, 0x14, 0x3d, 0xbd, 0x6e, 0x45, 0x33, 0x3d,
  0xcb, 0xb7, 0x6a, 0xbc, 0xf1, 0xd4, 0x3e, 0xbd, 0xf8, 0x86, 0xb0, 0xbd,
  0x53, 0x41, 0xa3, 0xbb, 0xc9, 0x6f, 0x53, 0x3d, 0x7f, 0x2d, 0xdc, 0x3c,
  0xf4, 0x27, 0x29, 0xbd, 0xe2, 0xb9, 0x80, 0xbd, 0xfc, 0x55, 0xb4, 0x3c,
  0x09, 0xa8, 0x04, 0x3c, 0xca, 0xdd, 0xe3, 0x3c, 0x8b, 0xde, 0x8e, 0xbd,
  0xba, 0x83, 0xf5, 0x3b, 0xc9, 0x81, 0x3f, 0xbb, 0xed, 0xde, 0x64, 0xbd,
  0x0f, 0x76, 0xd4, 0x3c, 0x50, 0x11, 0x5b, 0x3d, 0xf9, 0xd8, 0x1b, 0x3c,
  0xb4, 0xa3, 0xf2, 0xbc, 0xe5, 0xdf, 0x00, 0x3d, 0x95, 0xef, 0x0f, 0x3d,
  0xda, 0x30, 0x04, 0xbd, 0x70, 0x8d, 0xf8, 0xbc, 0x2e, 0xdb, 0xa6, 0xbc,
  0xd0, 0x96, 0x8f, 0xbd, 0x40, 0xff, 0x8e, 0xba, 0x86, 0x33, 0x0f, 0xbd,
  0x67, 0x95, 0x5f, 0xbd, 0xfb, 0xdc, 0x42, 0x3c, 0x41, 0x79, 0x2e, 0x3d,
  0x68, 0x4d, 0x95, 0xbb, 0xeb, 0xb5, 0x93, 0xbc, 0xfd, 0x77, 0x82, 0xbd,
  0x9c, 0x64, 0x7f, 0x3d, 0x0b, 0x22, 0x8b, 0x3d, 0x31, 0x25, 0xdb, 0xbc,
  0xd9, 0xf8, 0x37, 0xbd, 0x25, 0x4a, 0xb5, 0xbc, 0x37, 0xe1, 0xa6, 0xbd,
  0x7b, 0xe6, 0x1a, 0xbd, 0x09, 0xe7, 0x96, 0x3d, 0x0f, 0x5f, 0x1a, 0x3c,
  0xb7, 0x5e, 0x98, 0xbd, 0x59, 0x25, 0x63, 0x3d, 0x90, 0x1b, 0xd2, 0xbc,
  0xc0, 0x6d, 0xc0, 0x3c, 0x0b, 0x45, 0x22, 0x3c, 0x71, 0x38, 0x83, 0xbc,
  0x20, 0x34, 0x37, 0x3d, 0xf8, 0xfa, 0x91, 0xbc, 0xbe, 0xb4, 0x42, 0x3d,
  0xcc, 0xcf, 0x91, 0x3d, 0x57, 0xad, 0xa6, 0xbd, 0xdc, 0x8d, 0x05, 0x3c,
  0x1e, 0xf1, 0x70, 0x3d, 0x75, 0x7c, 0x80, 0x3d, 0x12, 0x0b, 0x69, 0x3d,
  0xa7, 0xfb, 0xaa, 0xbc, 0xf6, 0xd2, 0x17, 0x3d, 0x36, 0x42, 0x9a, 0xbd,
  0x8d, 0x6f, 0x03, 0x3c, 0x95, 0xdf, 0x70, 0xbd, 0x54, 0x70, 0x9d, 0xbd,
  0x48, 0x67, 0x88, 0xbd, 0xfa, 0xcc, 0x3a, 0x3d, 0x12, 0xb6, 0x58, 0xbc,
  0xe6, 0x69, 0x78, 0xbd, 0x5b, 0xc0, 0x75, 0x3b, 0x2e, 0x9b, 0x5b, 0x3d,
  0x5c, 0x70, 0xb8, 0xbd, 0x37, 0xd0, 0x30, 0xbc, 0xa6, 0xd0, 0x8d, 0xbd,
  0xef, 0x99, 0x5d, 0x3d, 0xbe, 0x1b, 0xec, 0xbc, 0x21, 0x3d, 0x8a, 0x3b,
  0xb2, 0x1d, 0x8d, 0x3d, 0x67, 0x02, 0x47, 0xbc, 0x63, 0xee, 0xa5, 0xbd,
  0xea, 0x43, 0x6c, 0x3d, 0x6d, 0x1c, 0x69, 0x3c, 0x71, 0x4c, 0x7f, 0x3d,
  0x73, 0xd2, 0x3e, 0x3d, 0xac, 0x06, 0x81, 0x3d, 0xc9, 0x12, 0xaf, 0xbd,
  0x80, 0x3f, 0xb3, 0xbd, 0x69, 0x69, 0x52, 0x3d, 0x41, 0x5d, 0x32, 0x3d,
  0x80, 0xb7, 0x61, 0xbd, 0x96, 0x73, 0x9b, 0xbd, 0x91, 0x77, 0x3e, 0x3d,
  0x93, 0xb8, 0x91, 0xbd, 0x40, 0xd1, 0x85, 0x3d, 0x13, 0x63, 0x33, 0x3d,
  0xd6, 0x09, 0xdf, 0x3c, 0x03, 0xd2, 0x9d, 0x3b, 0xfc, 0xe8, 0xe2, 0xbb,
  0x20, 0x59, 0x83, 0x3d, 0x77, 0xb9, 0x96, 0xbd, 0x71, 0x9b, 0xf5, 0xbc,
  0x03, 0x60, 0x64, 0x3b, 0x49, 0x5e, 0x8c, 0x3d, 0xb7, 0x93, 0x6b, 0xbc,
  0xa7, 0xa9, 0x99, 0xbc, 0x91, 0x4d, 0xac, 0x3d, 0xc7, 0x1c, 0x91, 0xbd,
  0x91, 0x1d, 0xce, 0xba, 0x61, 0x4b, 0x44, 0x3d, 0x36, 0x2c, 0x21, 0x3d,
  0xa9, 0x41, 0x96, 0x3d, 0x00, 0x2d, 0x5c, 0x3d, 0xf7, 0x07, 0x28, 0x3d,
  0xc4, 0x06, 0x9c, 0xbd, 0x7d, 0xdd, 0xfa, 0xb8, 0xf3, 0xd7, 0x20, 0xbd,
  0x9d, 0x84, 0x23, 0x3d, 0x8d, 0xb3, 0xba, 0xbd, 0x81, 0xb1, 0x2b, 0x3d,
  0x82, 0x0b, 0xe5, 0x3c, 0x13, 0x2f, 0xb4, 0xba, 0xdb, 0x52, 0xad, 0xbc,
  0xb8, 0xc4, 0xa1, 0xbd, 0x8f, 0x47, 0x4e, 0xbd, 0xee, 0x5e, 0x9b, 0x3c,
  0xb4, 0xf3, 0x3b, 0xbd, 0x68, 0x00, 0x18, 0x3d, 0x7e, 0xed, 0xb3, 0xbc,
  0x4b, 0xbc, 0x5b, 0xbd, 0xed, 0x3e, 0xb8, 0xbd, 0x93, 0x41, 0x88, 0x3c,
  0x53, 0x9e, 0x3c, 0xbc, 0xd2, 0xfb, 0x10, 0xbd, 0x42, 0x9f, 0x85, 0xbd,
  0x7e, 0x1b, 0x2b, 0xbd, 0x4f, 0x82, 0x9d, 0xbd, 0xa3, 0x59, 0x75, 0xbd,
  0xdf, 0x8d, 0xf8, 0xbc, 0xea, 0xf0, 0xc6, 0x3c, 0x65, 0xff, 0x84, 0x3d,
  0xf4, 0x8d, 0x9b, 0xbc, 0x7e, 0xf9, 0x46, 0x3c, 0x19, 0x4a, 0x83, 0xbd,
  0x5e, 0xb0, 0xd5, 0x3c, 0x30, 0x3f, 0x82, 0xbb, 0x44, 0xeb, 0xa1, 0xbd,
  0x5e, 0xc1, 0x27, 0x3d, 0x97, 0xcb, 0x9d, 0xbc, 0x28, 0x04, 0xa1, 0xbd,
  0x18, 0x42, 0x67, 0x3d, 0x17, 0x6b, 0x37, 0xbb, 0xd7, 0xfd, 0x8f, 0xbc,
  0x90, 0x3b, 0x6d, 0x3d, 0x61, 0x32, 0x3e, 0x3d, 0xfb, 0x92, 0x19, 0xbd,
  0x89, 0xa7, 0x0a, 0xbd, 0xdc, 0x4f, 0x0d, 0x3c, 0x38, 0x24, 0xfc, 0xbb,
  0xff, 0xaf, 0x97, 0xbc, 0x60, 0x9b, 0x3a, 0xbd, 0x1d, 0x1b, 0x57, 0xbd,
  0x8e, 0xe1, 0xa0, 0xbd, 0x00, 0x88, 0x91, 0xbb, 0x3f, 0x1b, 0x96, 0xbd,
  0x07, 0xc9, 0x91, 0xbd, 0x2a, 0x13, 0x1a, 0x3d, 0x6e, 0x7f, 0x07, 0x3d,
  0x9a, 0xcc, 0x44, 0xbd, 0xb2, 0xb8, 0x9d, 0xbc, 0x9f, 0x80, 0x52, 0xbd,
  0x16, 0xad, 0x8d, 0x3b, 0xa1, 0x07, 0x0e, 0x3d, 0xfb, 0x3e, 0x7f, 0x3d,
  0x9b, 0xb7, 0xed, 0xbc, 0x41, 0x2e, 0xfa, 0x3c, 0xde, 0x47, 0x01, 0x3c,
  0x68, 0xe1, 0xf1, 0x3b, 0xea, 0xfe, 0x73, 0x3c, 0x8a, 0xfd, 0x2e, 0xbc,
  0x60, 0x0d, 0x52, 0xbc, 0xf4, 0xac, 0x42, 0xbc, 0x3f, 0x79, 0x6f, 0xbc,
  0x81, 0x31, 0x77, 0xbd, 0x1a, 0xeb, 0x19, 0x3d, 0x4b, 0x97, 0x89, 0xbc,
  0x08, 0xa7, 0x88, 0x3c, 0x6d, 0x06, 0x26, 0xbc, 0xee, 0x1d, 0xb1, 0xbd,
  0x42, 0xec, 0x5b, 0xbd, 0xf6, 0xf2, 0xc8, 0x3b, 0xc9, 0x6a, 0x98, 0xbd,
  0x73, 0x1d, 0x0e, 0x3d, 0xb0, 0xe6, 0x81, 0x3a, 0xa6, 0x0e, 0x52, 0xbd,
  0xfb, 0xfe, 0x4e, 0x3d, 0x25, 0xb6, 0x2a, 0x3d, 0x0f, 0xee, 0x96, 0xbd,
  0x2c, 0x18, 0x99, 0xbd, 0xfc, 0x54, 0x80, 0x3d, 0x93, 0x16, 0x6e, 0xbd,
  0xce, 0xcc, 0x8c, 0xbd, 0xf8, 0x49, 0x51, 0x3c, 0x05, 0xa9, 0xba, 0xba,
  0x7f, 0xbd, 0x5f, 0xbc, 0xf9, 0x06, 0x42, 0xbd, 0x39, 0xdb, 0x5c, 0xbd,
  0x9c, 0x8e, 0x97, 0x3d, 0xb2, 0xe1, 0x4d, 0xbc, 0x1e, 0x51, 0xa9, 0xbd,
  0x1f, 0xd5, 0xbb, 0xbc, 0x36, 0x10, 0x51, 0xbd, 0x10, 0xb5, 0x9d, 0xbd,
  0x1f, 0xc3, 0xa0, 0xbd, 0xfc, 0xb0, 0x49, 0xbd, 0x78, 0x36, 0x9d, 0x3c,
  0xb8, 0x42, 0x00, 0xbd, 0xb3, 0x40, 0xeb, 0x3c, 0x2e, 0x4d, 0x57, 0xbd,
  0x27, 0xe2, 0xda, 0x3c, 0x8c, 0x8f, 0x89, 0x3c, 0x8a, 0x7a, 0x5e, 0xbc,
  0x46, 0x60, 0x9c, 0xbd, 0x05, 0x4d, 0xb4, 0xbd, 0xbe, 0x91, 0xc7, 0xbb,
  0x00, 0x66, 0xa3, 0x3d, 0xdd, 0x0e, 0x6b, 0x3c, 0x3b, 0x82, 0x8f, 0xbd,
  0xd3, 0x32, 0x02, 0x3d, 0xa4, 0xd6, 0x3f, 0xba, 0xe5, 0x32, 0xa9, 0x3d,
  0xc0, 0x56, 0x81, 0x3d, 0x17, 0x7b, 0xa6, 0xbc, 0x5e, 0xc4, 0xb9, 0x3c,
  0x4b, 0xb8, 0x69, 0xbd, 0x0d, 0xee, 0x1c, 0x3d, 0x1b, 0x24, 0x86, 0xbd,
  0xd1, 0x0b, 0x30, 0xbd, 0x23, 0xdf, 0x47, 0xbd, 0xf7, 0xef, 0xcd, 0xbc,
  0xd8, 0x96, 0x9c, 0xbd, 0x0b, 0x46, 0x74, 0xbc, 0x8f, 0xac, 0x62, 0xbc,
  0x58, 0x58, 0xac, 0xbd, 0x27, 0x4b, 0x62, 0xbd, 0x10, 0x55, 0x8d, 0x3d,
  0xa4, 0xde, 0x6a, 0xbd, 0x59, 0x21, 0xdb, 0x3a, 0x4d, 0xb9, 0xf2, 0x3c,
  0xfe, 0xdf, 0x87, 0xbc, 0x73, 0xc5, 0xf9, 0xbc, 0xc6, 0xc1, 0xbf, 0x3c,
  0xa8, 0x8e, 0xde, 0x3c, 0xa7, 0xeb, 0x26, 0xbd, 0x5c, 0x83, 0x8e, 0x3d,
  0x45, 0x54, 0xc1, 0x3c, 0x36, 0x51, 0xab, 0xbd, 0xdb, 0x93, 0xf3, 0xbc,
  0x66, 0x1e, 0x52, 0x3d, 0x66, 0x9c, 0x37, 0x3d, 0x11, 0x18, 0x8b, 0xbd,
  0xdd, 0xce, 0x9a, 0x3d, 0xdc, 0x8c, 0x88, 0xbd, 0x62, 0x97, 0x65, 0x3c,
  0x43, 0xcc, 0x7e, 0xbd, 0x7c, 0xe2, 0x23, 0xbc, 0x17, 0xda, 0xaa, 0x3d,
  0x1c, 0x4c, 0x00, 0x3d, 0x4c, 0x2a, 0x92, 0xbd, 0x74, 0x81, 0x9a, 0xbd,
  0x8a, 0x66, 0xc4, 0x3c, 0xd7, 0xee, 0xd7, 0x3b, 0x44, 0xbf, 0x55, 0xbd,
  0x9a, 0x04, 0x94, 0x3c, 0x78, 0x7b, 0x98, 0x3c, 0x02, 0x71, 0x25, 0x3c,
  0x16, 0x64, 0x3f, 0x3d, 0xd6, 0x41, 0xb5, 0xbc, 0xd2, 0x9c, 0x89, 0xbd,
  0x10, 0x8e, 0xf0, 0xbc, 0xd9, 0x7c, 0x82, 0xbd, 0xea, 0x53, 0x8f, 0xbd,
  0x72, 0x46, 0x9b, 0x3b, 0xe4, 0x3d, 0x8d, 0x3d, 0xf1, 0xbd, 0x2f, 0x3d,
  0xf9, 0x9e, 0x94, 0x3d, 0x0a, 0x8e, 0xb4, 0x3b, 0x61, 0xe7, 0x35, 0x3d,
  0x99, 0xdb, 0x0e, 0x3d, 0x42, 0xc2, 0x3d, 0xbd, 0x31, 0xf8, 0x5f, 0xbd,
  0x60, 0xa0, 0xa6, 0xba, 0x26, 0xdb, 0xa3, 0xbc, 0x6f, 0x16, 0x82, 0xbc,
  0x26, 0x9c, 0x3e, 0xbd, 0xf4, 0x39, 0x03, 0xbc, 0x0f, 0x10, 0x0b, 0x3d,
  0x9e, 0x46, 0xaf, 0xbd, 0xf4, 0xe2, 0xdd, 0x3c, 0x61, 0xa8, 0xae, 0xbd,
  0x96, 0xb1, 0x57, 0xbc, 0x90, 0x41, 0xd7, 0x3b, 0xa8, 0x5e, 0x87, 0xbd,
  0x25, 0xd8, 0x39, 0x3d, 0x56, 0x9e, 0x1c, 0xbd, 0xb8, 0xd6, 0xa7, 0xba,
  0xc4, 0x49, 0x46, 0x3d, 0x4f, 0x13, 0xa0, 0xbc, 0xdc, 0xdd, 0x1f, 0xbd,
  0x93, 0x51, 0x8d, 0x3d, 0xfe, 0x94, 0x72, 0xbc, 0xa1, 0xe1, 0x0c, 0xbd,
  0x49, 0x5d, 0xbe, 0x3c, 0x2a, 0x54, 0x93, 0xbb, 0x72, 0x93, 0x74, 0x3d,
  0xca, 0x81, 0x31, 0xbd, 0xe0, 0x5f, 0x90, 0x3c, 0x7c, 0x23, 0x46, 0xbd,
  0x0e, 0xa8, 0x8f, 0xbc, 0x5a, 0x4f, 0x96, 0x3d, 0xcb, 0x6d, 0x5e, 0xbd,
  0xa5, 0x24, 0x4d, 0x3d, 0x67, 0x68, 0x0a, 0x3d, 0xcf, 0x94, 0x81, 0x3d,
  0x92, 0x9e, 0x97, 0x3d, 0x6f, 0xf9, 0x09, 0xbc, 0x97, 0x3d, 0x0e, 0x3d,
  0xe8, 0xe2, 0x0f, 0xbd, 0xa8, 0xff, 0x83, 0xbd, 0x4f, 0x19, 0x59, 0x3c,
  0x88, 0xc3, 0x83, 0xbd, 0x88, 0xa7, 0x35, 0xbd, 0xa5, 0x87, 0x92, 0xbd,
  0xec, 0xf1, 0xc5, 0xbc, 0xad, 0xbf, 0x85, 0xbd, 0x59, 0x6a, 0x51, 0x3c,
  0x66, 0xd1, 0x4c, 0x3d, 0x6d, 0x26, 0xab, 0x3d, 0x16, 0x2d, 0x0d, 0x3c,
  0x8c, 0xed, 0x11, 0xbc, 0x79, 0xd5, 0x2d, 0xbd, 0x49, 0xfb, 0x3e, 0x3b,
  0xba, 0x64, 0x93, 0xbd, 0x56, 0xe2, 0x07, 0xbd, 0x92, 0x08, 0xf3, 0xbb,
  0x56, 0x6d, 0x9c, 0x3d, 0x36, 0x5c, 0x81, 0xbd, 0x2f, 0xf9, 0x3b, 0x3d,
  0xb6, 0xc3, 0xea, 0xbc, 0x43, 0xaf, 0x62, 0xbb, 0x4a, 0xb3, 0x54, 0x3c,
  0x69, 0x52, 0x0f, 0xbd, 0xc9, 0x8c, 0x93, 0x3d, 0x0b, 0x6a, 0x54, 0x3d,
  0xbd, 0x33, 0x48, 0xbd, 0x5b, 0xfd, 0xbd, 0x3c, 0x93, 0xe6, 0x54, 0xbd,
  0x73, 0x73, 0x8d, 0xbd, 0x02, 0xb6, 0x6b, 0x3d, 0x87, 0xfa, 0xaa, 0xbd,
  0x61, 0x67, 0x16, 0x3d, 0x43, 0x39, 0xa9, 0xbc, 0x75, 0xe9, 0x50, 0xbc,
  0x6e, 0xb4, 0xe3, 0xbc, 0xd7, 0x57, 0xa1, 0xbd, 0x6d, 0x82, 0x84, 0x3d,
  0x75, 0xd7, 0xf1, 0x3c, 0x09, 0x67, 0x05, 0xbd, 0x2d, 0x9c, 0x4b, 0x3d,
  0x9f, 0x73, 0x05, 0x3b, 0x72, 0x26, 0x2d, 0xbd, 0x61, 0xa6, 0x2c, 0x3c,
  0x2a, 0xd7, 0x8b, 0x3d, 0xbb, 0x1a, 0x14, 0xbd, 0x0d, 0x55, 0xb7, 0x3c,
  0x42, 0x6d, 0xa0, 0x3c, 0xa8, 0x73, 0x12, 0xbd, 0xff, 0x08, 0x87, 0xbc,
  0xdc, 0xba, 0x8d, 0x3d, 0x36, 0x8c, 0xa9, 0xbd, 0xbe, 0x38, 0x4e, 0x3d,
  0xf1, 0xb3, 0xd6, 0xbc, 0xb5, 0xec, 0x9c, 0x3c, 0xd8, 0x9a, 0xb2, 0xb9,
  0xde, 0xc0, 0xb1, 0x3c, 0xd2, 0xe5, 0x36, 0xbd, 0x5d, 0x73, 0xc8, 0x3c,
  0x37, 0x6e, 0x55, 0xbd, 0xce, 0xab, 0x0d, 0xbc, 0xd1, 0x98, 0x5d, 0xbd,
  0x48, 0x20, 0x84, 0xbd, 0xb3, 0x21, 0xe2, 0xbc, 0x06, 0xf5, 0xf5, 0xbb,
  0x74, 0xdb, 0x4c, 0xbc, 0x57, 0x9b, 0x40, 0xbd, 0xdf, 0x97, 0x27, 0x3b,
  0x13, 0x5f, 0x8b, 0xbd, 0x4e, 0xe5, 0xc4, 0x3b, 0x4d, 0xd8, 0x0f, 0xbc,
  0x3d, 0xd1, 0x8d, 0xbc, 0xe6, 0x62, 0x9f, 0xbd, 0x79, 0x7d, 0x25, 0xbd,
  0x28, 0xaf, 0x9e, 0x3d, 0x5b, 0xe8, 0x31, 0x3c, 0xad, 0xb2, 0x27, 0x3d,
  0x2c, 0xcf, 0xbf, 0xbc, 0x05, 0x24, 0x2e, 0xbd, 0xa4, 0xb6, 0x8c, 0xbc,
  0x62, 0xbf, 0xca, 0xbc, 0x56, 0x63, 0x8b, 0xbd, 0x4f, 0xe9, 0x43, 0x3d,
  0x4d, 0xef, 0x9a, 0xbc, 0x92, 0x3b, 0x98, 0x3d, 0x02, 0xe5, 0x54, 0x3c,
  0x25, 0x4d, 0x9b, 0x3d, 0x2b, 0xc6, 0x96, 0xbd, 0xf3, 0xc9, 0x90, 0xbd,
  0x22, 0xd7, 0xe7, 0x3c, 0x51, 0x9a, 0x0d, 0x3d, 0x05, 0x99, 0x9e, 0xbb,
  0xfc, 0xa0, 0x46, 0x3d, 0x1a, 0x12, 0x77, 0x3c, 0xce, 0x51, 0x2b, 0xbc,
  0xc0, 0xae, 0xaa, 0xbd, 0x4d, 0xc0, 0xd7, 0x3b, 0x26, 0x71, 0xa1, 0x3b,
  0xc6, 0xdc, 0x3c, 0xbd, 0xb0, 0x91, 0x7a, 0x3d, 0xe4, 0x36, 0x17, 0x3c,
  0xbf, 0x81, 0xa2, 0xbd, 0xee, 0xbf, 0x99, 0xbd, 0x93, 0xbd, 0x47, 0x3d,
  0x16, 0x00, 0x8f, 0xbc, 0xa9, 0x16, 0x05, 0xbd, 0x22, 0x5e, 0x5a, 0xbc,
  0x62, 0x0d, 0x19, 0xbd, 0x49, 0xcd, 0xec, 0xbc, 0x9c, 0xc2, 0x7f, 0x3d,
  0x1e, 0xea, 0x9c, 0xbd, 0xe6, 0x18, 0x83, 0x3b, 0x20, 0xac, 0x05, 0x3d,
  0xf9, 0xf5, 0x57, 0x3d, 0x62, 0x73, 0xa4, 0xbd, 0x55, 0x95, 0xe7, 0xbc,
  0xae, 0x41, 0x89, 0x3d, 0x0a, 0xab, 0xc8, 0xbc, 0x0e, 0xed, 0x98, 0x3d,
  0x94, 0x85, 0x8a, 0xbd, 0x4a, 0x2a, 0xa8, 0xbc, 0xf2, 0xfd, 0x74, 0xbc,
  0x64, 0xee, 0x91, 0x3d, 0x9b, 0x19, 0x26, 0x3d, 0x0d, 0x1f, 0x8e, 0xbc,
  0x42, 0x46, 0x7e, 0x3c, 0x76, 0x90, 0x6e, 0x3d, 0x13, 0x1d, 0x9b, 0x3d,
  0x0e, 0x13, 0x20, 0x3d, 0xbd, 0x0d, 0x8b, 0xbd, 0x23, 0x46, 0x40, 0x3d,
  0x46, 0x51, 0x3c, 0x3c, 0xdc, 0xe8, 0x72, 0xbd, 0xe8, 0x45, 0xab, 0xbd,
  0x34, 0x1a, 0x24, 0xbd, 0x7e, 0xbf, 0x81, 0x3d, 0xfe, 0xca, 0x74, 0x3c,
  0x33, 0x0b, 0x5c, 0x3d, 0x1e, 0x07, 0x65, 0xbd, 0xb5, 0x4f, 0x34, 0xbd,
  0x58, 0x5a, 0x48, 0x3d, 0xb6, 0xd9, 0xdd, 0x3c, 0xb1, 0x07, 0x91, 0xbd,
  0x39, 0x41, 0x83, 0x3c, 0x82, 0xe6, 0x70, 0x3d, 0x0f, 0xb2, 0x84, 0x3d,
  0xd9, 0xae, 0x85, 0x3c, 0xdc, 0x01, 0xf3, 0x3c, 0x72, 0x36, 0xac, 0xbc,
  0xc5, 0x53, 0x20, 0xbd, 0x0c, 0xd3, 0x6e, 0x3d, 0x56, 0x37, 0x70, 0xbd,
  0x64, 0x65, 0x1f, 0x3d, 0x39, 0x5d, 0x3e, 0x3d, 0x40, 0xf9, 0x85, 0xbd,
  0x66, 0x5b, 0x8c, 0xbc, 0xa8, 0xf5, 0x18, 0xbd, 0x61, 0xf0, 0x97, 0xbd,
  0x96, 0xba, 0x34, 0x3d, 0xb9, 0x04, 0x87, 0xbc, 0xff, 0x1f, 0x5a, 0x3d,
  0x61, 0x68, 0x30, 0x3d, 0x9b, 0x48, 0xe1, 0xbb, 0x16, 0xfc, 0x86, 0xbd,
  0xfe, 0x7e, 0x9f, 0xbd, 0x7e, 0xd8, 0x64, 0x3d, 0x81, 0xea, 0xf3, 0xbc,
  0xc1, 0x7c, 0x11, 0xbd, 0xc7, 0xa4, 0x96, 0xbd, 0x36, 0xf4, 0xd9, 0xbc,
  0x94, 0xc7, 0x42, 0xbd, 0x04, 0xd8, 0xa4, 0xbd, 0x9b, 0x70, 0xb5, 0x3c,
  0xe9, 0x16, 0x80, 0xbc, 0x3b, 0x5f, 0x64, 0x3d, 0xc0, 0xbd, 0xcf, 0x3c,
  0x03, 0xc1, 0x3b, 0x3d, 0xde, 0x34, 0x37, 0x3d, 0xa4, 0x98, 0x07, 0xbc,
  0x21, 0x0d, 0x9b, 0xbd, 0xbd, 0x9c, 0x9b, 0x3d, 0x64, 0xa0, 0x22, 0xbd,
  0xbd, 0x13, 0x4f, 0x3d, 0x2a, 0xa6, 0x7f, 0x3d, 0x4d, 0x17, 0x82, 0xbd,
  0x22, 0x8f, 0xcd, 0xbc, 0x84, 0x86, 0x69, 0xbd, 0xc7, 0xb2, 0x50, 0x3d,
  0xcd, 0x55, 0xb2, 0x3c, 0x38, 0x51, 0xd0, 0xbc, 0x92, 0xf1, 0x96, 0x3d,
  0x20, 0x85, 0x62, 0x3d, 0x40, 0x17, 0xed, 0x3c, 0xee, 0xd8, 0xaa, 0xbd,
  0x46, 0x9a, 0x8f, 0x3d, 0xec, 0xe1, 0xa9, 0x3c, 0xe7, 0x5c, 0xc6, 0x3c,
  0x0f, 0x35, 0x90, 0xbd, 0xb2, 0xd6, 0x9b, 0xbd, 0xa4, 0x0d, 0xab, 0xbb,
  0x93, 0xdc, 0xba, 0x3c, 0x81, 0x1c, 0x9d, 0x3d, 0x1b, 0x87, 0x7a, 0xbd,
  0x89, 0x97, 0x97, 0xbd, 0xb9, 0x20, 0x07, 0xbd, 0xb8, 0xe3, 0x56, 0xbd,
  0xf1, 0xa5, 0x9c, 0xbd, 0x60, 0x31, 0x27, 0x3d, 0x89, 0xac, 0xd8, 0xb9,
  0xb4, 0x85, 0x1b, 0x3d, 0x40, 0x7e, 0x4d, 0xbd, 0x3f, 0x3b, 0x94, 0xbd,
  0x90, 0x86, 0x9c, 0xbd, 0xa2, 0x51, 0x3c, 0x3d, 0xf6, 0x2b, 0x12, 0x3d,
  0xd0, 0x53, 0xc2, 0xbd, 0xc1, 0x1c, 0xd4, 0x3c, 0x66, 0xbf, 0xb5, 0x3b,
  0x43, 0xee, 0xba, 0x3c, 0x6f, 0xa0, 0xee, 0xbc, 0xdb, 0x0b, 0x26, 0x3c,
  0x05, 0x6d, 0xa2, 0xbd, 0x0f, 0xc9, 0xc3, 0xbb, 0x62, 0x19, 0x54, 0x3d,
  0xd4, 0xb3, 0x79, 0xbd, 0x05, 0x1f, 0x98, 0xbd, 0x7b, 0xbc, 0xea, 0xbb,
  0xe0, 0x08, 0x11, 0x3d, 0xa3, 0x80, 0x0c, 0xbd, 0x36, 0xed, 0xba, 0xbc,
  0x8b, 0xfe, 0xb1, 0xbc, 0x99, 0x0a, 0x02, 0xbd, 0xdc, 0xa9, 0x84, 0x3c,
  0x79, 0xb8, 0xe5, 0x3c, 0x20, 0xed, 0x3d, 0xbd, 0xf9, 0x4a, 0x4a, 0x3d,
  0x37, 0x6b, 0xbb, 0x3c, 0x92, 0x92, 0x99, 0x3c, 0x39, 0x24, 0xc6, 0x3c,
  0x9c, 0xfa, 0x89, 0xbd, 0xfc, 0x6e, 0x5a, 0x3d, 0xcc, 0x3e, 0xbf, 0x3c,
  0xa3, 0x78, 0x99, 0xbc, 0xfa, 0x3c, 0xbd, 0xbc, 0x3f, 0x12, 0xa4, 0xbd,
  0xbb, 0xfe, 0x39, 0xbd, 0xcc, 0xf8, 0x55, 0x3d, 0x25, 0xfd, 0x90, 0x3d,
  0xea, 0x64, 0xcb, 0xbc, 0x1d, 0xe6, 0x50, 0xbd, 0xff, 0xaa, 0xa6, 0xbd,
  0xee, 0x0a, 0xdc, 0x3b, 0x17, 0x5c, 0x87, 0xbd, 0x7a, 0x91, 0x2f, 0x3d,
  0x0e, 0x99, 0xb0, 0x3b, 0x99, 0x14, 0xe1, 0x3c, 0xe6, 0xf3, 0x3e, 0x3d,
  0x65, 0xec, 0x7b, 0x3c, 0xdc, 0xa9, 0x32, 0x3d, 0xbf, 0x52, 0x22, 0x3d,
  0x8a, 0x62, 0x91, 0x3c, 0x95, 0x2c, 0x20, 0xbd, 0x33, 0x71, 0x45, 0xbd,
  0x23, 0x1b, 0x9c, 0x3d, 0xbc, 0xd0, 0x9f, 0x3d, 0x11, 0x03, 0x10, 0xbc,
  0x3c, 0x40, 0x5f, 0x3d, 0x06, 0x80, 0xab, 0x3c, 0x6f, 0xc5, 0xd6, 0xbc,
  0x8f, 0x4a, 0xee, 0xbd, 0x13, 0x3d, 0xae, 0xbc, 0x9e, 0x36, 0x3e, 0xbc,
  0xc4, 0xbe, 0xdf, 0x3c, 0x38, 0xd8, 0x7c, 0xbd, 0x2e, 0x0e, 0x98, 0x3c,
  0x57, 0x5c, 0xad, 0xbc, 0x18, 0x7c, 0x99, 0xbc, 0xa0, 0x46, 0x90, 0x3c,
  0xbb, 0x51, 0x8a, 0xbc, 0x2b, 0x40, 0x09, 0x3e, 0x30, 0x12, 0x8b, 0x3d,
  0x4d, 0xbe, 0xf4, 0x3d, 0xdf, 0xd7, 0xbc, 0x3d, 0xb3, 0xeb, 0x27, 0x3d,
  0xba, 0x62, 0x27, 0xbd, 0xc5, 0x7b, 0x06, 0x3e, 0x93, 0x1d, 0x5f, 0x3d,
  0x6a, 0x3a, 0x74, 0x3b, 0xa0, 0xe7, 0x71, 0xbc, 0xc2, 0x21, 0xfb, 0xbc,
  0xa7, 0x92, 0x94, 0xbd, 0x84, 0xe8, 0xf6, 0xbb, 0x64, 0x99, 0x0a, 0xbe,
  0x04, 0xf0, 0xdf, 0xbd, 0x7e, 0x75, 0x64, 0xbd, 0x7b, 0xda, 0x2c, 0xbd,
  0x15, 0x33, 0x99, 0xbd, 0x50, 0xbd, 0x67, 0xbe, 0x07, 0x52, 0x1d, 0xbe,
  0xe2, 0xb8, 0xc1, 0xbd, 0xa1, 0x99, 0x11, 0xbd, 0xb0, 0x3d, 0x51, 0xbe,
  0xc7, 0x53, 0xba, 0xbd, 0xc8, 0xa7, 0xef, 0xbc, 0xf1, 0x7b, 0xfd, 0xbd,
  0x4f, 0x74, 0x36, 0xbe, 0xe2, 0xb9, 0x40, 0xbe, 0xa8, 0x67, 0xa7, 0xbc,
  0x43, 0x8d, 0x89, 0xbd, 0xb6, 0x5f, 0x29, 0xbe, 0x55, 0xd9, 0xb6, 0xbd,
  0x50, 0x67, 0x1c, 0x3d, 0xf9, 0x56, 0x87, 0xbc, 0x19, 0xae, 0xe9, 0x3d,
  0x68, 0x1e, 0xb1, 0x3d, 0x2a, 0x80, 0x5b, 0x3d, 0x6d, 0xdc, 0x69, 0x3d,
  0x24, 0x3f, 0x4a, 0x3d, 0xaa, 0x67, 0x94, 0x3b, 0x8a, 0x5c, 0xbd, 0xbb,
  0xc6, 0x0c, 0x35, 0x3d, 0xe8, 0x16, 0x02, 0x3e, 0x14, 0x08, 0x06, 0x3e,
  0x55, 0x00, 0x8a, 0xbd, 0x30, 0xe4, 0xa6, 0xbd, 0x4f, 0x09, 0x53, 0x3e,
  0x4a, 0x33, 0x4a, 0x3b, 0x6e, 0xb0, 0xd2, 0x3c, 0x09, 0xd5, 0x10, 0xbd,
  0xaa, 0x83, 0x5f, 0x3d, 0x4c, 0x82, 0x01, 0x3e, 0x72, 0xdf, 0x7b, 0xbc,
  0x0f, 0x99, 0x2a, 0x3d, 0x80, 0x85, 0xa1, 0xbc, 0x04, 0x45, 0x9a, 0xbc,
  0xc4, 0x4b, 0xee, 0x3c, 0x6f, 0x1c, 0x17, 0x3d, 0xb8, 0xfd, 0x98, 0x3d,
  0xc3, 0x6a, 0x1a, 0xbd, 0x9e, 0x11, 0xd3, 0x3d, 0x41, 0x95, 0x91, 0x3d,
  0xde, 0xfe, 0x32, 0x3e, 0xe7, 0xf9, 0x96, 0x3d, 0x22, 0xff, 0xa9, 0x3d,
  0xb8, 0x33, 0xb6, 0x3d, 0x97, 0xbf, 0xe2, 0x3d, 0xa6, 0x2d, 0x9f, 0x3d,
  0xf5, 0x92, 0xc2, 0xbc, 0x4f, 0x62, 0xb6, 0xbd, 0x83, 0x62, 0x54, 0x3c,
  0x87, 0x72, 0xc4, 0xbc, 0x15, 0xc2, 0x14, 0xbd, 0xb5, 0xeb, 0x45, 0xbd,
  0xe7, 0x5a, 0x66, 0xbd, 0xbe, 0x09, 0xd8, 0xbb, 0x94, 0x35, 0x9a, 0xbc,
  0x02, 0x38, 0xd9, 0xbd, 0xfd, 0x0b, 0xb9, 0xbd, 0xa3, 0xb8, 0xdd, 0xbd,
  0x13, 0x16, 0x0d, 0xbc, 0xee, 0x45, 0x1b, 0xbd, 0x0f, 0xe9, 0x03, 0xbe,
  0x72, 0x0d, 0x4d, 0xbe, 0x19, 0x5b, 0x00, 0x3d, 0x4a, 0x0f, 0xb0, 0xbc,
  0xd0, 0x9b, 0x1f, 0xbe, 0x05, 0x10, 0x04, 0xbe, 0x4f, 0x01, 0x91, 0x3d,
  0x95, 0xe2, 0x17, 0xbe, 0xbf, 0x4a, 0xc0, 0xbb, 0x44, 0xec, 0xe3, 0xbb,
  0xc5, 0x9a, 0xcd, 0x3c, 0xe5, 0x44, 0xfa, 0xbc, 0x48, 0x1e, 0x58, 0x3d,
  0x3c, 0xaa, 0x34, 0x3d, 0xf1, 0x0a, 0x9f, 0x3d, 0xc5, 0x0f, 0x78, 0xbb,
  0x90, 0xe1, 0xe8, 0x3d, 0x6e, 0xb7, 0x86, 0xbd, 0xb0, 0x80, 0xd4, 0x3d,
  0x04, 0x3d, 0x91, 0xb8, 0x9d, 0x20, 0x42, 0x3d, 0x71, 0x1f, 0xaf, 0x3d,
  0xf8, 0x4e, 0xfd, 0x3b, 0x6e, 0x7a, 0x0c, 0xbc, 0xc3, 0xd1, 0x9e, 0x3d,
  0xc9, 0xf7, 0x60, 0x3d, 0xda, 0x3e, 0xeb, 0x3d, 0x1d, 0x26, 0x06, 0x3d,
  0x52, 0xc6, 0xbb, 0x3d, 0xa9, 0xee, 0x10, 0x3d, 0x47, 0xc4, 0x48, 0xbd,
  0xf1, 0x6f, 0x5e, 0xbb, 0x78, 0x46, 0xa9, 0x3b, 0xd1, 0x79, 0x4c, 0x3d,
  0x14, 0xfe, 0x8c, 0xbd, 0xde, 0xca, 0x88, 0x3c, 0x0a, 0x2e, 0x64, 0xbd,
  0xea, 0xca, 0xb2, 0x3c, 0x2e, 0x5e, 0x96, 0x3d, 0x57, 0xf1, 0x91, 0x3d,
  0x64, 0x6a, 0x07, 0x3e, 0xc0, 0xfd, 0x0d, 0x3e, 0xc9, 0x0c, 0xa5, 0x3d,
  0x42, 0xa2, 0xf3, 0x3d, 0x1c, 0xdb, 0x21, 0x3e, 0x97, 0x71, 0x7b, 0x3d,
  0x6e, 0x96, 0x04, 0x3e, 0x85, 0xb2, 0x67, 0x3d, 0x0f, 0xbe, 0x0c, 0x3c,
  0xa6, 0x92, 0x9e, 0x3d, 0xdd, 0x17, 0x95, 0x3d, 0xdd, 0xdf, 0xab, 0xbd,
  0x71, 0x61, 0x2e, 0xbd, 0xf8, 0x97, 0x3b, 0x3a, 0x84, 0x51, 0x31, 0x3d,
  0x22, 0xcb, 0xeb, 0xbd, 0xf2, 0x31, 0x30, 0xbe, 0x5d, 0xee, 0xea, 0xbc,
  0x73, 0xa5, 0x8f, 0x3d, 0xaa, 0xca, 0x03, 0xbe, 0xcd, 0x13, 0xd9, 0xbd,
  0xbd, 0xe7, 0xa0, 0xbd, 0x41, 0x80, 0x0c, 0xbc, 0xde, 0x30, 0x5a, 0x3b,
  0x4f, 0xf2, 0x42, 0xbe, 0x5e, 0x6b, 0x0e, 0xbd, 0x50, 0xe9, 0xaf, 0xbb,
  0x42, 0xa6, 0xb4, 0xbd, 0x9f, 0x00, 0xd1, 0xbb, 0xee, 0x00, 0x14, 0xbd,
  0xff, 0x74, 0x05, 0xbd, 0x10, 0x0b, 0xa7, 0xbd, 0x71, 0x4a, 0x9e, 0x3d,
  0x69, 0xb2, 0x2a, 0x3d, 0x3e, 0x1f, 0x2c, 0x3d, 0xe8, 0x64, 0x37, 0xbd,
  0xd8, 0xc8, 0x69, 0x3d, 0x66, 0x61, 0xff, 0xbd, 0x1c, 0x7d, 0x91, 0xbc,
  0x2a, 0x7c, 0xab, 0x3c, 0x85, 0xfe, 0x7c, 0xbd, 0x9e, 0x87, 0x02, 0x3d,
  0x8d, 0x9b, 0x64, 0x3c, 0x9a, 0xa3, 0x0b, 0x3c, 0x2e, 0x70, 0x0e, 0xbc,
  0xad, 0x2e, 0x0d, 0x3d, 0xb2, 0xef, 0x72, 0x3d, 0xc9, 0x07, 0x90, 0x3d,
  0x0d, 0xac, 0xa4, 0x3d, 0xad, 0xb2, 0xca, 0x3c, 0x8c, 0x28, 0xa7, 0xbd,
  0xe0, 0xe6, 0xda, 0xbd, 0x36, 0x5a, 0x17, 0xbe, 0x14, 0x66, 0x70, 0xbc,
  0xf1, 0x41, 0xf3, 0x3b, 0xd1, 0x42, 0x9b, 0x3d, 0x85, 0x26, 0x58, 0x3d,
  0x61, 0xe1, 0xf0, 0xbd, 0xe4, 0xd6, 0x01, 0x3d, 0xa0, 0x3c, 0xd3, 0x3b,
  0x21, 0x26, 0xe8, 0x3d, 0x5a, 0x52, 0xb1, 0xbb, 0xd5, 0x52, 0x0f, 0x3e,
  0x15, 0xfe, 0x91, 0x3d, 0x34, 0x55, 0x9d, 0x3d, 0xa8, 0xae, 0xe4, 0x3d,
  0x07, 0x99, 0x5a, 0x3d, 0x1a, 0xb2, 0x77, 0x3c, 0xc4, 0x2f, 0xd5, 0x3d,
  0xbc, 0xdf, 0x08, 0x3c, 0x02, 0x29, 0xce, 0x3d, 0x4e, 0x07, 0xea, 0xbc,
  0xba, 0xfe, 0xdb, 0xbd, 0x96, 0x0e, 0x3f, 0x39, 0xc2, 0xbe, 0x8a, 0xbd,
  0x26, 0xd0, 0x8b, 0x3c, 0x8b, 0xc7, 0x4c, 0xbd, 0xd5, 0xec, 0x79, 0xbd,
  0x6b, 0x86, 0x45, 0xbd, 0x60, 0xd1, 0x97, 0xbd, 0x35, 0x1b, 0xd0, 0xbd,
  0xd7, 0x56, 0x03, 0x3d, 0xb5, 0x8e, 0xbd, 0x3d, 0xbf, 0x74, 0x91, 0xbd,
  0x72, 0xd0, 0xbc, 0x3d, 0xa9, 0x53, 0x7f, 0xbd, 0xc4, 0xb4, 0xdb, 0xbc,
  0x44, 0xd3, 0xa6, 0xbc, 0xde, 0xa2, 0xa4, 0xbd, 0x93, 0xa5, 0xb3, 0xbd,
  0x4f, 0xee, 0x7e, 0x3c, 0xc2, 0xf7, 0x9b, 0xbb, 0xa7, 0x67, 0x82, 0x3c,
  0x85, 0xb8, 0x71, 0x3c, 0xc1, 0xb7, 0x3d, 0xbd, 0x7a, 0xbd, 0x32, 0x3c,
  0xeb, 0xd7, 0x00, 0xbe, 0xec, 0x82, 0x52, 0xbc, 0xe9, 0x71, 0xad, 0x3c,
  0x5d, 0x9c, 0xd6, 0x3c, 0xf4, 0x42, 0x8a, 0x3c, 0x27, 0x9f, 0xf4, 0xbd,
  0x5c, 0x1d, 0x0e, 0xbd, 0xdf, 0x84, 0xa7, 0x3b, 0x36, 0x42, 0xf4, 0xbc,
  0x5b, 0x11, 0x02, 0xbe, 0x55, 0x01, 0x22, 0xb9, 0x37, 0x70, 0x4a, 0xbb,
  0x65, 0x9f, 0x04, 0x3e, 0x34, 0xf1, 0xe0, 0xbc, 0x22, 0x5f, 0x5e, 0x3c,
  0xc5, 0x43, 0xa1, 0xbd, 0x33, 0x12, 0x62, 0xbd, 0xf8, 0xb7, 0x88, 0xbd,
  0x5c, 0xcd, 0x94, 0x3d, 0x4a, 0x67, 0x14, 0x3d, 0x26, 0x25, 0x4b, 0x3d,
  0x83, 0x94, 0x1a, 0x3d, 0xf1, 0x56, 0x9d, 0xbc, 0x39, 0xc1, 0xbd, 0x3d,
  0x36, 0xd2, 0x31, 0x3d, 0xd6, 0xb6, 0xc0, 0x3d, 0xb7, 0x55, 0xf9, 0xbc,
  0x09, 0x70, 0x84, 0xbc, 0x9d, 0x4e, 0x5e, 0xb9, 0x4c, 0x70, 0xdd, 0x3d,
  0x00, 0xc9, 0x29, 0x3c, 0x00, 0xf2, 0x76, 0x3c, 0xdf, 0x05, 0x3f, 0xbb,
  0xfc, 0x53, 0xdf, 0x3d, 0xb9, 0x94, 0x6c, 0x3d, 0xc4, 0x35, 0x70, 0xbc,
  0xd0, 0xd8, 0x65, 0x3c, 0x7d, 0xa9, 0x9d, 0xbd, 0x2f, 0x6a, 0x21, 0x3b,
  0x3d, 0x21, 0x5a, 0xbc, 0xcf, 0x3f, 0x93, 0xbd, 0x1b, 0xa2, 0x74, 0x3b,
  0x25, 0x1a, 0x94, 0x3c, 0x2b, 0x6c, 0x02, 0xbd, 0x28, 0xc0, 0xaa, 0xbc,
  0x8e, 0xf9, 0xa8, 0xbd, 0xa1, 0xc2, 0x32, 0xbc, 0xdd, 0x18, 0xf9, 0xbb,
  0xd1, 0xd4, 0x45, 0xbd, 0x3d, 0x9f, 0x51, 0x3c, 0xbe, 0x77, 0xcc, 0xbb,
  0xc1, 0x96, 0x58, 0xbd, 0xae, 0xe4, 0xeb, 0xbc, 0x1b, 0x9a, 0x45, 0xbc,
  0x82, 0x97, 0x63, 0x3c, 0x44, 0x90, 0x04, 0xbe, 0x04, 0x07, 0x54, 0xbc,
  0x64, 0x49, 0x12, 0xbd, 0x3c, 0xae, 0xd4, 0xba, 0xea, 0x62, 0x62, 0xbd,
  0x5f, 0x52, 0xa8, 0xbd, 0x9a, 0x04, 0xb5, 0x3c, 0x8b, 0x7f, 0x6b, 0xbc,
  0xad, 0x91, 0xf5, 0xbd, 0x61, 0x4e, 0x19, 0x3c, 0x83, 0xcb, 0x03, 0xbb,
  0xd4, 0x17, 0x0d, 0xbd, 0x0e, 0x33, 0xb1, 0xbc, 0x02, 0xfd, 0xf6, 0xbd,
  0x34, 0xc9, 0x59, 0xbd, 0xe0, 0xf6, 0x91, 0x3c, 0x3d, 0x18, 0xed, 0xbc,
  0xe1, 0xaa, 0xc1, 0x3d, 0x0d, 0xb4, 0xbd, 0x3d, 0xf6, 0xf4, 0xb2, 0x3c,
  0xf4, 0xca, 0x6a, 0xbc, 0xfc, 0x65, 0xc0, 0xbd, 0x28, 0x8b, 0x88, 0xbd,
  0xce, 0x98, 0xbd, 0xbd, 0xea, 0x6f, 0x76, 0xbd, 0xe1, 0xce, 0xe1, 0xbb,
  0x88, 0x82, 0xad, 0xbd, 0xd4, 0xf9, 0xa2, 0x3d, 0x84, 0x36, 0x94, 0x3d,
  0x85, 0xd9, 0x1a, 0x3c, 0x38, 0x2e, 0x44, 0x3c, 0x86, 0x10, 0x11, 0x3d,
  0x34, 0x29, 0xca, 0x3c, 0x92, 0xfd, 0x07, 0x3d, 0xe7, 0x1a, 0xdb, 0x3d,
  0x7f, 0xdb, 0x0c, 0x3e, 0x2c, 0x45, 0x13, 0x3d, 0xbc, 0x0e, 0x00, 0x3d,
  0x14, 0xa9, 0xa0, 0x3d, 0xf3, 0xb7, 0x2d, 0xbd, 0x35, 0x83, 0xc4, 0xbd,
  0xd9, 0xb0, 0x40, 0x3d, 0xd4, 0x1a, 0x35, 0xbc, 0xef, 0x55, 0x45, 0xbd,
  0x5d, 0x07, 0x55, 0xbd, 0x70, 0xe9, 0x69, 0xbb, 0xe0, 0x78, 0x05, 0x3d,
  0x5b, 0x86, 0xa7, 0x3b, 0xc0, 0xbf, 0x11, 0xbd, 0xc3, 0x00, 0x2a, 0xbd,
  0x45, 0x58, 0x8d, 0xbd, 0xda, 0xfd, 0x38, 0x3d, 0x2f, 0xfa, 0xab, 0x3d,
  0xd1, 0x81, 0x7f, 0x3d, 0xb6, 0xa8, 0x7a, 0xbd, 0x84, 0xcd, 0x49, 0x3d,
  0x8b, 0xce, 0xbe, 0xbd, 0x2d, 0x9e, 0x01, 0xbe, 0x22, 0x61, 0x13, 0x3d,
  0x50, 0x61, 0x55, 0x3c, 0x89, 0x87, 0x9c, 0xbd, 0xfb, 0x1b, 0xc9, 0xbb,
  0xed, 0x90, 0xb5, 0xbd, 0xf7, 0xa3, 0xd5, 0xbc, 0xcc, 0x85, 0x4a, 0xbb,
  0xe0, 0x50, 0xb0, 0xbd, 0x7e, 0x5d, 0xcf, 0x3c, 0xf1, 0x12, 0x0d, 0xbc,
  0xab, 0xa3, 0x03, 0xbd, 0x41, 0x52, 0xb9, 0xbd, 0xc0, 0x98, 0x5d, 0xbd,
  0xbe, 0xab, 0x22, 0xbd, 0x6c, 0x36, 0xc9, 0xbd, 0x98, 0x5a, 0xae, 0xbc,
  0x80, 0x44, 0xb9, 0xbd, 0x8a, 0x86, 0xd3, 0x3d, 0xab, 0x91, 0x67, 0x3d,
  0x2d, 0x87, 0xe7, 0x3c, 0xea, 0xa7, 0x75, 0x3c, 0xc3, 0x25, 0x80, 0xbd,
  0x56, 0x33, 0xb1, 0x3b, 0x93, 0x0d, 0x8f, 0xbd, 0xde, 0x37, 0x0e, 0xbc,
  0x77, 0x10, 0x18, 0x3d, 0x38, 0x45, 0x41, 0xbc, 0xf0, 0xab, 0x96, 0xba,
  0xd1, 0xb4, 0x98, 0xbc, 0xdf, 0x6e, 0x92, 0x3d, 0xd5, 0xff, 0xd3, 0x3c,
  0x13, 0x6a, 0x7a, 0x3d, 0x39, 0x1b, 0xc2, 0xbc, 0x21, 0x85, 0x66, 0x3c,
  0x98, 0x9b, 0xbd, 0xbc, 0xf5, 0xd6, 0x4a, 0xbc, 0xf9, 0xee, 0x8e, 0x3c,
  0x01, 0xdb, 0xfc, 0x3d, 0xc5, 0x1e, 0xc4, 0x3b, 0x5b, 0x60, 0x7f, 0x3d,
  0x90, 0x8e, 0x9a, 0x3d, 0x91, 0x16, 0x0d, 0xbd, 0x3a, 0xf7, 0xa5, 0xbd,
  0xf1, 0xe0, 0x49, 0x3d, 0x30, 0x90, 0xf2, 0xbc, 0x55, 0x9d, 0x7a, 0x3b,
  0x4d, 0xcc, 0x13, 0x3d, 0x60, 0x98, 0xc1, 0xbd, 0xbd, 0x3f, 0x81, 0xbc,
  0xb2, 0xfb, 0x4d, 0x3d, 0x74, 0xb8, 0x7a, 0x3d, 0x67, 0x3f, 0x90, 0xbd,
  0x65, 0xe7, 0x50, 0xbd, 0x14, 0x86, 0x32, 0x3b, 0xa4, 0x6d, 0x33, 0x3c,
  0xca, 0xaf, 0x96, 0xbc, 0xe4, 0xf8, 0xea, 0xbc, 0x13, 0xc5, 0x1d, 0xbd,
  0xa3, 0x56, 0x85, 0xbd, 0xf1, 0xb6, 0x90, 0xbd, 0x5d, 0xf3, 0x15, 0xbd,
  0xa4, 0x6b, 0x64, 0x3d, 0x75, 0x1e, 0xf0, 0xbd, 0x44, 0x0d, 0x02, 0xbe,
  0x42, 0xc0, 0xf3, 0x3b, 0x43, 0xec, 0x49, 0xbd, 0xdd, 0xe3, 0xb4, 0xbb,
  0x17, 0x3f, 0xd2, 0xbd, 0xa5, 0x7b, 0x99, 0xbd, 0x6b, 0x75, 0x43, 0xbd,
  0x8f, 0xf9, 0xd8, 0xbd, 0xee, 0x8a, 0xcd, 0xbd, 0x40, 0xaf, 0xeb, 0xbc,
  0x3c, 0xc7, 0xe0, 0x3c, 0x39, 0xdb, 0x91, 0x3c, 0xb1, 0xfe, 0xda, 0xbc,
  0xb9, 0xb5, 0x85, 0xbc, 0xb6, 0x5a, 0x13, 0xbd, 0x92, 0xdb, 0xc5, 0x3d,
  0xd0, 0x85, 0x9d, 0x3d, 0x36, 0xc6, 0xaf, 0x3d, 0xfe, 0xf9, 0x38, 0xbb,
  0x7c, 0xea, 0x42, 0x3b, 0xcc, 0xf0, 0xbc, 0x3c, 0x25, 0x1d, 0x6b, 0xbc,
  0xa4, 0x89, 0x26, 0x3d, 0x65, 0x89, 0xb5, 0x3c, 0x78, 0x8f, 0x1d, 0xbd,
  0x74, 0xbf, 0xab, 0xbc, 0x52, 0xf5, 0xab, 0xbc, 0x7e, 0x99, 0x3d, 0x3d,
  0x29, 0x18, 0x8d, 0xbd, 0xc0, 0x9e, 0x0b, 0x3d, 0xda, 0xed, 0x1f, 0x3e,
  0x4c, 0x4d, 0x00, 0x3e, 0x7b, 0x88, 0x45, 0xbc, 0x6a, 0x0d, 0x01, 0x3e,
  0x4a, 0xe5, 0xac, 0x3d, 0x97, 0xc4, 0x99, 0x3d, 0x66, 0x1c, 0xdb, 0x3d,
  0x7b, 0x36, 0x92, 0x3d, 0x19, 0x23, 0xac, 0x3d, 0xc1, 0xa3, 0x45, 0x3b,
  0x9d, 0x5f, 0x5c, 0xbc, 0xea, 0x1e, 0x30, 0x3c, 0x4a, 0x95, 0x8f, 0xbd,
  0x92, 0xa4, 0x72, 0x3c, 0x67, 0x64, 0x62, 0x3c, 0xe5, 0x95, 0x26, 0xbd,
  0x5c, 0xae, 0x35, 0x3d, 0x45, 0x10, 0x29, 0x3d, 0x27, 0xc3, 0x00, 0xbd,
  0x23, 0x84, 0x32, 0x3c, 0x4a, 0xbe, 0xa3, 0x3d, 0xb7, 0x7f, 0x93, 0xbc,
  0x42, 0xa4, 0x5c, 0x3c, 0xcd, 0x0f, 0x23, 0x3d, 0x99, 0x85, 0x3c, 0xba,
  0xcf, 0x5d, 0xd6, 0x3c, 0x63, 0x8e, 0xbe, 0xbc, 0x6f, 0xe6, 0x8a, 0xbd,
  0x42, 0x22, 0x8e, 0x3d, 0x5d, 0xd0, 0xd9, 0xbd, 0x7b, 0xe2, 0x4f, 0xbd,
  0x16, 0x81, 0x83, 0xbc, 0x25, 0x46, 0x9e, 0x3c, 0x6e, 0xaf, 0x1b, 0xbe,
  0x9b, 0xe2, 0xd2, 0xbd, 0x2b, 0x28, 0x2f, 0xbb, 0x14, 0x74, 0x24, 0x3d,
  0xb7, 0x66, 0x52, 0xbd, 0xf7, 0xa3, 0x93, 0xbd, 0xaf, 0xb2, 0xb5, 0xbd,
  0x12, 0xa2, 0x6d, 0x3d, 0x26, 0x20, 0xc7, 0xbd, 0x64, 0x74, 0xdf, 0x3d,
  0x13, 0x4a, 0xbb, 0x3d, 0xed, 0x31, 0x80, 0x3b, 0x16, 0x5a, 0xd0, 0x3d,
  0xf3, 0x56, 0xa6, 0x3d, 0x00, 0x6b, 0x13, 0xbd, 0xae, 0xab, 0x0f, 0x3d,
  0x37, 0x9c, 0x43, 0xbd, 0x35, 0x6a, 0x14, 0x3c, 0x6d, 0x1b, 0x26, 0xbd,
  0x71, 0x1f, 0xaa, 0x3b, 0xd4, 0x18, 0x2c, 0xbd, 0x25, 0xfa, 0x87, 0xbd,
  0x71, 0x2b, 0x94, 0xbd, 0x15, 0x12, 0xdb, 0x3c, 0x14, 0xab, 0x94, 0xbc,
  0xa0, 0xe1, 0x00, 0x3e, 0x5b, 0x1d, 0x02, 0x3e, 0x68, 0xea, 0xbb, 0x3d,
  0x0c, 0x08, 0x29, 0x3d, 0xbb, 0xcd, 0x19, 0x3d, 0x97, 0x8d, 0xff, 0x3c,
  0xce, 0x2f, 0x97, 0x3d, 0xb1, 0x8e, 0xd7, 0xbb, 0xfb, 0xe4, 0xc3, 0x3d,
  0x31, 0x18, 0x5f, 0xbd, 0x24, 0xaa, 0x44, 0x3d, 0xd9, 0x7f, 0x43, 0x3d,
  0x66, 0x30, 0xe5, 0x3c, 0x1f, 0x48, 0x6b, 0x3c, 0xc8, 0x40, 0x8f, 0x3d,
  0x37, 0x59, 0xf5, 0x3c, 0x88, 0x42, 0x60, 0xbd, 0x08, 0x6d, 0xbe, 0xbd,
  0xbb, 0xa0, 0x57, 0xbd, 0xb5, 0x7f, 0x3b, 0x3c, 0x80, 0xcf, 0xec, 0xbc,
  0xc8, 0xc4, 0x79, 0xbd, 0x4f, 0xf5, 0xc3, 0x3c, 0x1c, 0xe0, 0x88, 0x3c,
  0x4b, 0xca, 0x53, 0x3c, 0xb7, 0xd1, 0xc5, 0xbc, 0x50, 0x8a, 0x16, 0x3d,
  0xf5, 0x78, 0x30, 0xbc, 0xb0, 0xa5, 0x4f, 0xbd, 0xfc, 0xac, 0xc0, 0xbd,
  0x86, 0x77, 0x41, 0xbd, 0xa9, 0x81, 0xea, 0xbc, 0x71, 0x4a, 0x96, 0xbd,
  0xda, 0x48, 0x0b, 0xbe, 0x87, 0x9d, 0x6e, 0x3d, 0xf8, 0x3b, 0xb5, 0xbd,
  0x6a, 0x2c, 0x1b, 0xbd, 0x30, 0xeb, 0x32, 0x3c, 0xd7, 0x0c, 0x3f, 0xbd,
  0x99, 0x2f, 0xd6, 0xbd, 0x2a, 0xbf, 0xd1, 0xbc, 0x1f, 0xd5, 0x5e, 0x3d,
  0x9e, 0x2d, 0x8b, 0x3d, 0x27, 0x87, 0xe3, 0x3c, 0xbf, 0xc9, 0x49, 0x3d,
  0xbb, 0x9c, 0xac, 0xbd, 0x4a, 0xd4, 0x4d, 0x3d, 0x8c, 0x7a, 0xbe, 0x3d,
  0xb4, 0xd5, 0xd4, 0x3c, 0xc3, 0xf4, 0x2d, 0xbd, 0xd2, 0x32, 0xc8, 0xbc,
  0x2c, 0x3c, 0x06, 0x3c, 0xb6, 0xe2, 0x4c, 0xbd, 0x4a, 0xd1, 0x99, 0x3d,
  0x48, 0x58, 0x88, 0x3b, 0x7d, 0xa5, 0x82, 0x3d, 0x00, 0x4c, 0x55, 0x3d,
  0x7f, 0x24, 0xa6, 0x3d, 0x9b, 0xa9, 0x44, 0x3b, 0x97, 0xc4, 0x63, 0xbc,
  0x93, 0xbd, 0x4f, 0x3d, 0x4f, 0x94, 0xd7, 0x3d, 0x34, 0xc7, 0xdc, 0x3d,
  0xdc, 0x0a, 0xce, 0x3c, 0x44, 0x98, 0x94, 0xbc, 0x15, 0x12, 0x17, 0xbd,
  0x79, 0x64, 0x7c, 0xbd, 0xb5, 0x51, 0x96, 0xbd, 0x3b, 0x59, 0xd2, 0x3c,
  0xcd, 0xcf, 0xe6, 0xbc, 0xa4, 0x6a, 0x8f, 0x3c, 0xf8, 0x93, 0xe8, 0xbd,
  0x7d, 0x06, 0x29, 0xbe, 0x2b, 0xa7, 0x39, 0xbd, 0x2f, 0xeb, 0xb4, 0xbd,
  0x13, 0x89, 0x90, 0xbd, 0xe1, 0x5e, 0x14, 0xbe, 0x3a, 0xc8, 0x2d, 0xbe,
  0x34, 0x44, 0xc7, 0xbd, 0x7b, 0x60, 0x4e, 0xbd, 0xa7, 0xe3, 0x6a, 0xbd,
  0xb0, 0xe3, 0x20, 0xbe, 0xa4, 0xfc, 0x5e, 0x3c, 0x59, 0xaa, 0xb8, 0xbd,
  0xe9, 0x59, 0xd2, 0xbc, 0x8f, 0xa1, 0x25, 0x3c, 0xbe, 0x77, 0xbb, 0xbd,
  0x27, 0x23, 0x94, 0xbd, 0xb6, 0xa0, 0x14, 0xbd, 0x94, 0xf2, 0x2f, 0xbd,
  0x66, 0x25, 0x9b, 0xbd, 0x62, 0x1a, 0x31, 0xbd, 0x4b, 0x3e, 0xf6, 0xbb,
  0x32, 0xbb, 0xb3, 0xbd, 0x73, 0xea, 0x4d, 0x3d, 0x5c, 0x77, 0xdf, 0xbc,
  0x28, 0xd3, 0xe3, 0xbd, 0x32, 0xba, 0x02, 0x3d, 0x79, 0xe9, 0xb3, 0x3d,
  0xf9, 0x1b, 0x15, 0x3d, 0xbc, 0x2f, 0x76, 0xbd, 0xe4, 0xe6, 0x24, 0xbd,
  0x0a, 0x5c, 0xb8, 0x3d, 0x10, 0xff, 0x92, 0xbd, 0xdb, 0x18, 0x93, 0x3c,
  0xc3, 0x4a, 0x73, 0x3d, 0x9d, 0x60, 0x56, 0x3d, 0x05, 0x21, 0x55, 0xbc,
  0x47, 0x91, 0xf2, 0x3c, 0x0b, 0x1c, 0x41, 0xbd, 0x26, 0x7b, 0xf6, 0x3d,
  0x47, 0x64, 0x00, 0x3d, 0xfe, 0xa2, 0xd9, 0x3d, 0x41, 0x82, 0x33, 0x3d,
  0xa9, 0xf9, 0x9e, 0x3c, 0x55, 0x05, 0xac, 0x3c, 0x24, 0xc3, 0x8c, 0xbc,
  0x43, 0xb6, 0x5b, 0x3b, 0x2a, 0x8b, 0x82, 0x3c, 0xc2, 0xba, 0xef, 0x3c,
  0x70, 0x9b, 0x84, 0x3b, 0xf7, 0x01, 0x16, 0x3e, 0x16, 0xa5, 0x80, 0xbc,
  0x0b, 0xc6, 0x31, 0x3d, 0x54, 0xaa, 0xb4, 0x3c, 0x7e, 0x45, 0x10, 0xbd,
  0x7a, 0x6d, 0x48, 0x3d, 0xb8, 0x6a, 0x9c, 0xbd, 0x45, 0x87, 0xba, 0xbd,
  0x09, 0x8d, 0x2f, 0xbd, 0x96, 0xc3, 0x83, 0x3d, 0xdd, 0x29, 0xb2, 0x3c,
  0xfc, 0xda, 0x6f, 0xbd, 0xd3, 0x53, 0x0b, 0xbe, 0x2d, 0xbc, 0xc4, 0xbd,
  0x12, 0x36, 0xbf, 0xbd, 0xfc, 0x0b, 0x77, 0xbd, 0x65, 0x30, 0x09, 0xbe,
  0x96, 0x2a, 0xe2, 0xbc, 0xdb, 0x62, 0x8f, 0xbd, 0x58, 0xa5, 0x52, 0xbe,
  0x2a, 0xb6, 0x48, 0xbe, 0xc6, 0x30, 0x18, 0xbd, 0x36, 0xca, 0x8d, 0x3c,
  0x82, 0xbd, 0x46, 0xbd, 0xf6, 0xc5, 0x2f, 0xbe, 0x34, 0xd7, 0x4d, 0x3d,
  0xd3, 0x88, 0x58, 0xbd, 0xa2, 0x0d, 0x04, 0xbd, 0x63, 0xf4, 0x0f, 0xbd,
  0xde, 0x58, 0x2d, 0x3b, 0x50, 0xaf, 0x84, 0x3c, 0x7e, 0xe3, 0xd9, 0xbd,
  0xd0, 0x2f, 0xbd, 0x3c, 0xa0, 0xfe, 0x41, 0x3d, 0xca, 0x3c, 0x00, 0x3d,
  0x82, 0x3a, 0xb3, 0xbd, 0x81, 0x2d, 0xb1, 0xbc, 0x37, 0x59, 0x62, 0x3c,
  0x96, 0xa7, 0x1c, 0xbd, 0x15, 0x7c, 0x7f, 0x3d, 0x8d, 0xc2, 0x60, 0xbc,
  0x5a, 0x10, 0x20, 0x3d, 0x11, 0x63, 0xd0, 0x3c, 0x91, 0x61, 0xa5, 0xbd,
  0x94, 0x54, 0xe2, 0x3c, 0x94, 0x07, 0x81, 0xbc, 0x97, 0x10, 0xcf, 0xbc,
  0x4a, 0xaf, 0x2b, 0x3d, 0x78, 0xa9, 0x5c, 0xbd, 0x06, 0x5a, 0x01, 0xbd,
  0xdb, 0x5c, 0x61, 0xbc, 0x1c, 0x31, 0x5f, 0x3b, 0xe9, 0x61, 0x96, 0x3d,
  0x66, 0x39, 0x00, 0x38, 0xf5, 0x0b, 0x5f, 0x3c, 0x3a, 0x85, 0x8d, 0xbc,
  0xdf, 0x41, 0xa4, 0x3d, 0xf7, 0x6f, 0xa1, 0x3d, 0x7f, 0x42, 0x56, 0xbd,
  0xa0, 0x28, 0xcf, 0x3d, 0x72, 0x7c, 0xc2, 0x3d, 0xd9, 0xac, 0xed, 0x3d,
  0x77, 0x15, 0xb7, 0x3b, 0x90, 0x88, 0x92, 0xbd, 0x5e, 0xc9, 0x9a, 0xbb,
  0xed, 0x93, 0x10, 0xbd, 0x95, 0xa0, 0xef, 0xbd, 0xa8, 0xb9, 0xf0, 0xbd,
  0x2b, 0x86, 0x5c, 0xbc, 0x67, 0x6c, 0xa5, 0xbd, 0x64, 0x6e, 0xa2, 0xbc,
  0x4d, 0x89, 0x04, 0xbc, 0x09, 0xda, 0xfe, 0x3c, 0x2c, 0x32, 0xf0, 0x3c,
  0x48, 0x38, 0x86, 0xbc, 0x29, 0x97, 0x0d, 0xbe, 0x1b, 0x48, 0x06, 0xbd,
  0x38, 0xcb, 0x9e, 0xbc, 0x6e, 0xc9, 0x8e, 0x3c, 0x71, 0x8d, 0x09, 0xbe,
  0x8c, 0x3a, 0x01, 0xbe, 0x1d, 0x8c, 0xcf, 0xbc, 0x6d, 0xc2, 0xf4, 0xbc,
  0xbf, 0xd7, 0x13, 0xbd, 0xdc, 0xf5, 0x0c, 0xbe, 0xbc, 0x5d, 0xf2, 0x3c,
  0x82, 0x5d, 0xda, 0xbc, 0xa9, 0x40, 0x06, 0xbe, 0x53, 0x88, 0xc3, 0xbd,
  0x66, 0x3a, 0x8c, 0x3d, 0x87, 0xa2, 0x9b, 0xbc, 0xe7, 0xef, 0x08, 0xbd,
  0x57, 0x5c, 0xde, 0xbd, 0xd3, 0xae, 0x28, 0xbd, 0xc0, 0x90, 0x9e, 0xbd,
  0x39, 0x96, 0xae, 0xbc, 0xa9, 0x07, 0xdb, 0x3c, 0xc8, 0xc6, 0x73, 0x3d,
  0x50, 0xbf, 0x11, 0x3d, 0xfb, 0x63, 0x46, 0xbd, 0xae, 0xf5, 0x85, 0x3b,
  0x7f, 0xec, 0xeb, 0x3d, 0x73, 0x0c, 0x9a, 0x3c, 0x8c, 0xb3, 0xb3, 0x3d,
  0x83, 0x3b, 0x94, 0x3c, 0xc3, 0x36, 0x01, 0xbc, 0x67, 0x4a, 0xba, 0x3d,
  0x81, 0x5d, 0x34, 0x3d, 0xc9, 0x2d, 0xe0, 0xbc, 0x42, 0xa1, 0x56, 0x3d,
  0xd2, 0xbc, 0x65, 0xbc, 0x24, 0xdb, 0x29, 0x3c, 0xdb, 0x3c, 0x82, 0x3d,
  0x5d, 0x95, 0x54, 0xbc, 0x98, 0xfd, 0xb6, 0xbc, 0x02, 0x31, 0xc1, 0xbc,
  0xcf, 0x4d, 0x8f, 0xbd, 0xf4, 0x20, 0x21, 0xbd, 0x69, 0x69, 0x45, 0x3d,
  0xb1, 0x14, 0x8b, 0xbb, 0x03, 0x76, 0x62, 0xbd, 0xbe, 0xe9, 0xd8, 0x3c,
  0x8d, 0x2c, 0x00, 0xbc, 0xe6, 0x74, 0x5f, 0xbd, 0x05, 0xd9, 0x33, 0x3d,
  0x09, 0x49, 0x01, 0xbd, 0xf0, 0x50, 0xcf, 0xbd, 0xe9, 0x7f, 0x11, 0xbe,
  0xc0, 0xaa, 0xe5, 0xbd, 0x15, 0x06, 0x3d, 0xbd, 0x41, 0x53, 0x3e, 0x3d,
  0x88, 0xf5, 0x0d, 0xbe, 0xe5, 0x60, 0x31, 0xbd, 0x5f, 0xfe, 0x2a, 0xbd,
  0x85, 0x58, 0x4a, 0x3d, 0x0d, 0x8e, 0xd8, 0x3b, 0x2f, 0x59, 0x85, 0x3c,
  0x73, 0xe0, 0x33, 0x3d, 0xee, 0x7a, 0x10, 0x3d, 0xc0, 0x14, 0xff, 0xbd,
  0x0a, 0x04, 0x2d, 0xbd, 0xd4, 0x25, 0x98, 0xbd, 0xb2, 0xde, 0x19, 0x3d,
  0x57, 0xdf, 0xa3, 0xbd, 0x4f, 0x7f, 0x06, 0xbe, 0x43, 0x26, 0xa9, 0xbc,
  0x73, 0xd7, 0x4d, 0xbd, 0xa3, 0x18, 0x98, 0xbd, 0x26, 0xb9, 0x0e, 0xbd,
  0x29, 0xdd, 0xfb, 0x3c, 0x51, 0x37, 0xe7, 0x3b, 0x5e, 0x57, 0xf8, 0x3c,
  0xab, 0x25, 0xc4, 0xbd, 0x0e, 0xc6, 0x94, 0x3d, 0x6d, 0xb7, 0xe2, 0xbb,
  0x95, 0xb1, 0xaa, 0x3c, 0x71, 0x66, 0x4a, 0xbd, 0x5c, 0x52, 0x86, 0x3c,
  0xea, 0x0d, 0x4c, 0xbc, 0x63, 0xf7, 0xd2, 0x3c, 0x5a, 0xaa, 0x96, 0xbd,
  0x37, 0x3c, 0xf9, 0x3d, 0x7d, 0x21, 0x70, 0xbd, 0x32, 0xe3, 0xc8, 0x3d,
  0x3e, 0x1b, 0x38, 0x3e, 0xac, 0x25, 0xba, 0xbc, 0x80, 0x97, 0x65, 0x3d,
  0x84, 0x96, 0xf0, 0x3d, 0xcc, 0xb8, 0x69, 0x3c, 0x84, 0x59, 0x87, 0x3d,
  0x45, 0x83, 0x9a, 0x3c, 0x3e, 0xa4, 0xf7, 0x3d, 0xdd, 0xdd, 0x3b, 0x3d,
  0xfe, 0x9d, 0x9c, 0xbd, 0x42, 0x57, 0x01, 0xbe, 0x32, 0x77, 0x05, 0xbd,
  0x9d, 0xfe, 0xf8, 0xbc, 0xc7, 0x74, 0x72, 0x3d, 0xaf, 0x0f, 0x97, 0x3b,
  0x87, 0x0c, 0x08, 0xbd, 0x09, 0xaa, 0xff, 0xbc, 0x5e, 0x55, 0x94, 0x3d,
  0x35, 0x1c, 0xc9, 0xbd, 0x23, 0x40, 0xca, 0xbd, 0xe8, 0x2b, 0x8b, 0xbb,
  0xd5, 0x0e, 0x8a, 0xbd, 0x8e, 0x70, 0x19, 0xbe, 0xa8, 0x34, 0x64, 0xbd,
  0xd8, 0x5e, 0xf5, 0xbc, 0xcf, 0x11, 0x32, 0x3d, 0x03, 0xb3, 0xcc, 0xbd,
  0xde, 0xfc, 0xa6, 0xbd, 0x69, 0x76, 0x00, 0xbe, 0x79, 0x15, 0xed, 0x3c,
  0x27, 0xa4, 0xf1, 0xbd, 0xb6, 0x4c, 0x99, 0xbd, 0xf2, 0x6e, 0x2c, 0xbd,
  0x62, 0xe7, 0x81, 0x3d, 0x16, 0x79, 0xa5, 0xbd, 0x63, 0x8b, 0x32, 0xbe,
  0x80, 0xe6, 0x11, 0xbe, 0x11, 0x59, 0xa5, 0xbd, 0xab, 0xd1, 0x72, 0xbd,
  0x83, 0x35, 0x19, 0xbd, 0x15, 0x28, 0xb7, 0xbd, 0xe2, 0x6b, 0x5e, 0x3d,
  0x7f, 0xa2, 0xbc, 0xbd, 0x6e, 0xaa, 0x84, 0xbd, 0xdb, 0x66, 0xd5, 0xbd,
  0x97, 0xbe, 0x4b, 0x3b, 0x82, 0x8a, 0xde, 0x3b, 0xe6, 0x6b, 0xea, 0x3c,
  0x22, 0xc3, 0x83, 0x3c, 0x4a, 0x5b, 0x63, 0x3d, 0x31, 0x40, 0xab, 0xbd,
  0x32, 0xad, 0x23, 0xbd, 0xbd, 0xf1, 0x8f, 0x3d, 0x7d, 0x20, 0x0d, 0xbd,
  0xca, 0xb7, 0x44, 0x3d, 0x71, 0xac, 0x10, 0xbd, 0x98, 0xaa, 0xd7, 0xbd,
  0x08, 0x3f, 0xbb, 0x3d, 0xc9, 0x2e, 0xa6, 0xbd, 0x30, 0x06, 0x10, 0x3e,
  0xa3, 0x1d, 0x7e, 0x3e, 0xee, 0xbc, 0xce, 0x3c, 0x1f, 0xf7, 0x44, 0xbc,
  0xb3, 0x9c, 0x72, 0x3d, 0x6c, 0xca, 0x93, 0x3d, 0x05, 0x95, 0x64, 0xba,
  0x7a, 0xeb, 0x8a, 0xbc, 0x55, 0x3e, 0x59, 0x3c, 0xd6, 0x7d, 0x46, 0x3d,
  0x49, 0x0a, 0x1c, 0xbc, 0x29, 0xaa, 0x66, 0x3c, 0x47, 0x6a, 0xcf, 0xbd,
  0x62, 0xee, 0x01, 0x3d, 0x0f, 0xdb, 0x22, 0x3d, 0xc5, 0x2b, 0xad, 0xbd,
  0xbc, 0xe2, 0xfd, 0x3d, 0xe2, 0x3b, 0xc0, 0x3d, 0x3b, 0xfe, 0xce, 0x3d,
  0x25, 0xa6, 0xf7, 0xbd, 0x65, 0xd8, 0x16, 0xbd, 0xc5, 0x0e, 0xb6, 0x3d,
  0xc4, 0xd0, 0x66, 0x3d, 0xfb, 0x39, 0x97, 0xbd, 0x19, 0xf8, 0x11, 0xbe,
  0x44, 0xde, 0xe1, 0xbd, 0x57, 0x20, 0x57, 0xbd, 0x60, 0xcc, 0x07, 0xbe,
  0xe1, 0x69, 0x2d, 0xbe, 0x53, 0x96, 0x00, 0xbe, 0xb0, 0xf3, 0x00, 0xba,
  0x57, 0xd5, 0xe5, 0xbc, 0xa8, 0x35, 0x5b, 0xbe, 0xfd, 0x31, 0x54, 0xbe,
  0x40, 0x2c, 0x80, 0xbd, 0x7a, 0x11, 0x78, 0xbd, 0xb7, 0x28, 0x36, 0xbe,
  0x57, 0x98, 0xa1, 0xbd, 0x1c, 0x60, 0x6f, 0x3d, 0xb8, 0xd2, 0xb1, 0xbd,
  0x54, 0x86, 0x03, 0xbe, 0xd5, 0x9d, 0xb4, 0xbd, 0xd0, 0xfb, 0xac, 0x3b,
  0xd4, 0xbf, 0xc2, 0xbd, 0x76, 0xed, 0x31, 0x3c, 0x55, 0xc2, 0xea, 0xbb,
  0x8d, 0xe6, 0xa2, 0xbd, 0xbb, 0x79, 0x28, 0x3d, 0xcb, 0xe1, 0x26, 0xbd,
  0x2c, 0x70, 0xa3, 0xbd, 0x85, 0x2e, 0x9e, 0x3d, 0x8c, 0xcb, 0x62, 0x3d,
  0x62, 0xa7, 0x1c, 0xbe, 0x6d, 0xff, 0x4e, 0x3d, 0x52, 0x78, 0x83, 0x3a,
  0xb4, 0x7b, 0x95, 0xbb, 0x5a, 0xc3, 0x3d, 0x3c, 0x85, 0x24, 0xee, 0xbd,
  0xfa, 0xcd, 0x0d, 0x3e, 0x6c, 0x86, 0x33, 0xbb, 0x3e, 0x3f, 0x6c, 0x3e,
  0xe6, 0xad, 0xde, 0x3d, 0xe0, 0x73, 0x99, 0xbd, 0xc7, 0x2a, 0xef, 0xbb,
  0x3c, 0x4f, 0x41, 0x3e, 0x7f, 0x21, 0x58, 0x3c, 0xd1, 0xf5, 0x08, 0x3e,
  0xdd, 0xda, 0x0b, 0x3d, 0x5e, 0x39, 0xb2, 0x3d, 0x5f, 0xdc, 0x59, 0x3b,
  0xa1, 0xa5, 0x21, 0x3d, 0x0c, 0x22, 0xb9, 0xbc, 0xb3, 0xac, 0x85, 0xbd,
  0xb0, 0x55, 0x62, 0xbc, 0x41, 0x1b, 0xb2, 0xbd, 0x76, 0x59, 0x00, 0xbe,
  0xb1, 0x14, 0xac, 0xbd, 0x8e, 0xd2, 0x7c, 0xbe, 0xd5, 0x68, 0x27, 0xbb,
  0xbb, 0xec, 0x43, 0xbd, 0x45, 0xe2, 0xe0, 0xbd, 0xcf, 0x53, 0x2a, 0xbe,
  0xe4, 0xf3, 0x7e, 0x3d, 0x4f, 0x4a, 0xb9, 0xbc, 0x01, 0x8e, 0xb5, 0xbd,
  0x3b, 0x82, 0x2b, 0xbb, 0x88, 0x4d, 0x5b, 0x3d, 0xa8, 0xa5, 0xdf, 0xbc,
  0x47, 0xce, 0x15, 0x3d, 0x93, 0x68, 0x8f, 0x3d, 0x55, 0x73, 0x02, 0x3e,
  0xa4, 0x58, 0x00, 0x3d, 0x6f, 0x38, 0x06, 0xbd, 0x94, 0x5b, 0x0e, 0xbd,
  0x88, 0xba, 0xe4, 0x3d, 0xa2, 0xe8, 0x81, 0xbc, 0x6b, 0xa2, 0x72, 0x3d,
  0x1a, 0xf7, 0xc7, 0x3c, 0xaa, 0x21, 0x0d, 0x3e, 0xeb, 0x32, 0x46, 0xbc,
  0xe6, 0x9f, 0x9e, 0xbc, 0xda, 0x5d, 0xd4, 0x3c, 0x01, 0xfd, 0xe9, 0x3d,
  0x1b, 0x79, 0x94, 0x3d, 0x61, 0x9c, 0xeb, 0x3c, 0x2d, 0x20, 0x25, 0x3d,
  0x7c, 0x17, 0x01, 0x3d, 0x9d, 0xe2, 0xd0, 0xbb, 0x44, 0x1b, 0x90, 0xbd,
  0x37, 0xfc, 0xaf, 0x3c, 0xda, 0xf7, 0x18, 0x3d, 0x63, 0xdb, 0xfb, 0xbc,
  0x6b, 0xcb, 0xf0, 0xbd, 0xf3, 0x80, 0xf1, 0x3c, 0x6c, 0x10, 0x80, 0x3c,
  0x33, 0x44, 0xe5, 0x3a, 0x07, 0xfa, 0x10, 0xbe, 0xc1, 0xa4, 0x8c, 0xbd,
  0x8b, 0x19, 0x9b, 0x3d, 0x79, 0xd7, 0xe9, 0xbd, 0x99, 0x09, 0x18, 0xbe,
  0x5e, 0x6f, 0x54, 0xbd, 0xb0, 0xe9, 0x35, 0xbd, 0xde, 0x1f, 0x03, 0xbc,
  0xe4, 0x7d, 0x8c, 0xbd, 0x3b, 0x2d, 0x29, 0xbd, 0x57, 0x1c, 0x08, 0x3d,
  0xb0, 0x7a, 0x95, 0xbd, 0x4a, 0x02, 0x46, 0x3c, 0x30, 0x11, 0x8f, 0x3d,
  0x7d, 0xb7, 0x3f, 0xbd, 0xda, 0x6b, 0x62, 0xbd, 0x75, 0xd2, 0xa7, 0x3b,
  0x5c, 0x56, 0xb5, 0xbd, 0x34, 0x1c, 0x84, 0x3b, 0x80, 0xa1, 0x7e, 0xbd,
  0x3d, 0x2a, 0x60, 0xbe, 0xe8, 0x03, 0x7f, 0xbe, 0x28, 0xc4, 0xde, 0xbd,
  0x9f, 0x74, 0x2f, 0xbd, 0xca, 0xf4, 0x5e, 0xbe, 0xa2, 0x00, 0xcb, 0xbd,
  0xeb, 0xe6, 0xd0, 0x3d, 0xc2, 0x89, 0x31, 0xbd, 0x00, 0x55, 0x5c, 0x3d,
  0xac, 0xf5, 0xb7, 0xbd, 0xe2, 0xe8, 0xc3, 0x3d, 0x5e, 0x70, 0x2e, 0x3c,
  0x80, 0x17, 0xbf, 0x3d, 0x81, 0x20, 0xc9, 0x3c, 0x2d, 0xe5, 0xa1, 0x3d,
  0xda, 0x2a, 0x1b, 0xbc, 0xca, 0x12, 0x07, 0xbd, 0x55, 0x60, 0xc5, 0x3d,
  0xfb, 0x79, 0x2c, 0x3e, 0x2f, 0xfd, 0x32, 0xba, 0xdc, 0xf3, 0xc2, 0x3c,
  0x12, 0x05, 0x1d, 0x3d, 0xd1, 0x13, 0x2b, 0x3e, 0x20, 0x44, 0xd8, 0x3c,
  0x79, 0x5c, 0x7f, 0x3d, 0x07, 0x27, 0x1e, 0x3d, 0xbe, 0x31, 0xe4, 0x3d,
  0x31, 0x31, 0xd6, 0xbc, 0xbd, 0xe6, 0x88, 0x3d, 0x2d, 0x18, 0x50, 0x3b,
  0xdf, 0xfb, 0x28, 0x3e, 0xcf, 0x16, 0xb0, 0x3d, 0xbc, 0x47, 0xdd, 0xbd,
  0x9f, 0xb7, 0x53, 0xbc, 0x92, 0x23, 0x2c, 0x3e, 0x9f, 0xd7, 0x7b, 0x3d,
  0x51, 0x85, 0xf2, 0x3b, 0x15, 0xe4, 0x39, 0x3d, 0xf0, 0x56, 0xe9, 0x3d,
  0x2e, 0xe6, 0x75, 0x3d, 0x37, 0x88, 0xbb, 0xbc, 0x9c, 0x0e, 0x1b, 0x3d,
  0xf7, 0xf8, 0xec, 0x3d, 0x8c, 0x76, 0xce, 0xbc, 0x0b, 0xdc, 0x86, 0xbd,
  0x2d, 0x2c, 0xd1, 0x3c, 0x97, 0x9d, 0x8d, 0xbd, 0xeb, 0xb2, 0x98, 0xbd,
  0xfc, 0xec, 0x0e, 0xbe, 0x4a, 0xd4, 0x57, 0xbb, 0xec, 0x36, 0xd9, 0x3d,
  0x56, 0x3f, 0x88, 0x3d, 0x43, 0x4c, 0xaf, 0x3d, 0xae, 0xa2, 0x15, 0x3c,
  0x94, 0xc5, 0x68, 0x3d, 0xd4, 0x44, 0x69, 0x3d, 0xec, 0x1a, 0x7b, 0x3d,
  0x04, 0xe9, 0x2d, 0x3d, 0x9c, 0x13, 0x9d, 0xbd, 0xbf, 0x53, 0x9c, 0xbd,
  0xd3, 0xaf, 0xeb, 0xbd, 0x1c, 0xa7, 0xf8, 0xbd, 0x41, 0x67, 0xd1, 0x3b,
  0xb0, 0xa4, 0x2d, 0xbc, 0x11, 0x88, 0x48, 0xbe, 0x11, 0xe7, 0x55, 0xbe,
  0xdf, 0x1a, 0x62, 0x3d, 0xa1, 0xa8, 0x2d, 0xbd, 0xb5, 0x14, 0x02, 0x3d,
  0xe5, 0x85, 0xd2, 0xbc, 0x62, 0x17, 0xd8, 0x3d, 0x73, 0x04, 0x5f, 0xbd,
  0x05, 0x31, 0xaf, 0xbd, 0xf2, 0x43, 0x84, 0x3d, 0x13, 0xce, 0x87, 0x3c,
  0x1e, 0x54, 0x9c, 0xbb, 0xe2, 0x29, 0xeb, 0xbc, 0x14, 0xb8, 0xd8, 0xbc,
  0x59, 0x36, 0x98, 0xbc, 0x84, 0x47, 0xa1, 0xbd, 0xeb, 0x0b, 0x1d, 0x3a,
  0xe1, 0x08, 0xd6, 0xbc, 0x9b, 0xd0, 0x13, 0xbc, 0xf7, 0x49, 0x48, 0x3d,
  0x9f, 0x7a, 0x09, 0xbd, 0x67, 0x8c, 0x81, 0x3d, 0x5e, 0xd3, 0xe1, 0x3c,
  0x94, 0x02, 0xb1, 0x3d, 0x07, 0x77, 0x95, 0x3d, 0x71, 0x87, 0x46, 0x3d,
  0x4b, 0x74, 0xcc, 0x3c, 0x23, 0x5b, 0x2e, 0x3d, 0x9c, 0x35, 0x75, 0xbd,
  0x40, 0xec, 0x1e, 0xbc, 0x09, 0xe9, 0xa9, 0x3d, 0x11, 0x92, 0x50, 0xbd,
  0x6f, 0x4b, 0x4f, 0xbd, 0x37, 0xeb, 0x19, 0xbd, 0xac, 0xed, 0x04, 0x3e,
  0x43, 0x98, 0x85, 0xbc, 0x4e, 0x36, 0x00, 0x3d, 0x55, 0xe5, 0xc0, 0xbc,
  0x19, 0x42, 0x54, 0xbc, 0x9a, 0x31, 0x76, 0xbd, 0xde, 0xdb, 0x0f, 0x3d,
  0x7d, 0x25, 0xe4, 0xbc, 0x3c, 0x7a, 0x5e, 0x39, 0xb1, 0x31, 0x83, 0x3d,
  0xd4, 0x16, 0x8a, 0xbd, 0x3b, 0x4d, 0x7f, 0x3d, 0x3d, 0x85, 0x1a, 0x3e,
  0x6c, 0x2a, 0x99, 0x3d, 0x01, 0x95, 0xe5, 0x3d, 0x65, 0xfe, 0xc3, 0x3d,
  0x2c, 0x3e, 0x03, 0x3c, 0x0c, 0x12, 0xfb, 0x3b, 0xe2, 0x94, 0x40, 0x3c,
  0x33, 0xce, 0xeb, 0x3c, 0x93, 0xb7, 0x8b, 0xbd, 0xaf, 0xe5, 0x82, 0xbd,
  0x05, 0xc0, 0x8d, 0xbc, 0xd0, 0x92, 0x23, 0xbd, 0x64, 0x4f, 0x6f, 0x3c,
  0xa2, 0x02, 0xfa, 0x3b, 0x16, 0x5a, 0xcf, 0xbc, 0x9e, 0xb2, 0x65, 0xba,
  0xe4, 0x56, 0x3c, 0x3d, 0x94, 0x7f, 0x29, 0x38, 0xc0, 0x4f, 0x46, 0xbd,
  0x22, 0x24, 0xe6, 0xbd, 0x90, 0xd6, 0x2d, 0x3d, 0xd0, 0x9f, 0x75, 0x3c,
  0x80, 0x95, 0xb7, 0x3d, 0x82, 0x07, 0xa6, 0x3d, 0xfa, 0xa2, 0x9d, 0x3d,
  0xb8, 0xd6, 0x44, 0x3d, 0x56, 0xe4, 0xcc, 0xbc, 0x70, 0x2d, 0x77, 0x3d,
  0xed, 0xa5, 0x0b, 0x3e, 0x2a, 0x03, 0x07, 0x3d, 0x41, 0xdf, 0x7f, 0xbb,
  0xd3, 0x7f, 0x8d, 0x3d, 0x9a, 0x80, 0x22, 0x3e, 0xb9, 0x12, 0x83, 0x3c,
  0xcf, 0xae, 0x25, 0x3d, 0x52, 0xbb, 0x4b, 0xbd, 0x9d, 0x8a, 0xe8, 0x3d,
  0x50, 0x54, 0x86, 0x3d, 0xc7, 0xe6, 0xa4, 0xbc, 0x77, 0xdc, 0x22, 0x3c,
  0xc3, 0xd7, 0x7e, 0x3d, 0x8b, 0x0b, 0xaa, 0x3d, 0xcf, 0xa4, 0x34, 0xbd,
  0xdd, 0xc2, 0xe4, 0x3b, 0x30, 0x24, 0x49, 0x3d, 0xbe, 0xb5, 0x87, 0xbd,
  0x12, 0x61, 0x5e, 0x3b, 0xb3, 0x00, 0x83, 0xbd, 0xda, 0x54, 0xe3, 0x3d,
  0x66, 0x6f, 0x75, 0xbc, 0xb2, 0x5b, 0xaa, 0xbc, 0x1d, 0xbd, 0xe7, 0x3c,
  0xb7, 0x8f, 0x85, 0x3c, 0x47, 0x3d, 0xd5, 0xbd, 0xd8, 0x68, 0x48, 0x3d,
  0xe3, 0xc4, 0x3e, 0xbd, 0xeb, 0x03, 0xf5, 0xbc, 0x52, 0x78, 0x02, 0x3c,
  0x75, 0x9a, 0xa7, 0xbd, 0x8b, 0x5d, 0x9e, 0x3c, 0xdd, 0x09, 0xd8, 0xbb,
  0xf5, 0xa0, 0xd7, 0x3d, 0xd5, 0xb2, 0x9d, 0x3d, 0x95, 0x9b, 0x52, 0x3d,
  0x4e, 0xcf, 0x8a, 0x3d, 0xd4, 0xd0, 0xa4, 0x3d, 0x2f, 0xe7, 0xba, 0x3d,
  0x10, 0x4b, 0xfb, 0x3d, 0x39, 0xb2, 0x3d, 0x3b, 0xaf, 0x22, 0xae, 0xbd,
  0x4b, 0x8f, 0x93, 0xbd, 0x46, 0xd3, 0x11, 0xbc, 0xf2, 0x58, 0x8e, 0xbd,
  0x18, 0xce, 0xda, 0xbd, 0x81, 0x61, 0xbd, 0xbd, 0xa2, 0x9e, 0x09, 0x3c,
  0x57, 0x33, 0x10, 0xbd, 0xfe, 0xbf, 0x0c, 0xbb, 0xd4, 0xb7, 0x58, 0xbd,
  0xac, 0x10, 0x17, 0xbd, 0x50, 0x31, 0xe1, 0x3c, 0xf5, 0x03, 0x88, 0xbd,
  0x49, 0x2d, 0xa9, 0x3d, 0x18, 0x75, 0xba, 0x3c, 0xdd, 0xf8, 0xdc, 0x3d,
  0x6e, 0x1d, 0xa3, 0x3a, 0xa0, 0x74, 0xe8, 0x3c, 0x94, 0x5f, 0xb4, 0xbc,
  0x65, 0x27, 0x06, 0x3e, 0x9f, 0x95, 0x96, 0xbc, 0xb8, 0xdf, 0xd3, 0x3d,
  0x67, 0x04, 0x1a, 0x3d, 0xd6, 0xba, 0x8b, 0x3c, 0x7a, 0x20, 0x49, 0xbd,
  0x9b, 0x19, 0xd5, 0x3c, 0x58, 0xea, 0xd6, 0x3d, 0x3b, 0x74, 0x2f, 0xbc,
  0xed, 0x11, 0x91, 0x3d, 0xa1, 0xb1, 0x8b, 0x3d, 0x62, 0x69, 0x44, 0xbd,
  0x39, 0xb7, 0x0b, 0x3d, 0x19, 0x8e, 0x2d, 0x3d, 0xd7, 0x25, 0x05, 0xbd,
  0x4d, 0x16, 0x04, 0x3d, 0x79, 0x07, 0xf6, 0x3d, 0x21, 0x49, 0xfd, 0x3b,
  0x2d, 0x85, 0x01, 0xbd, 0xb4, 0x05, 0x5a, 0xbd, 0xaa, 0xfa, 0x13, 0x3d,
  0x11, 0x25, 0xf3, 0x3c, 0xb2, 0xe0, 0x47, 0xbd, 0xbf, 0x81, 0x17, 0x3b,
  0xb3, 0x39, 0x19, 0x3e, 0x2b, 0xb3, 0x0b, 0x3d, 0xa4, 0x56, 0xab, 0xbd,
  0x59, 0xab, 0xe5, 0xbb, 0xa7, 0xcb, 0xf9, 0x3c, 0xf2, 0xed, 0xb3, 0x3d,
  0x17, 0xb7, 0x22, 0xbd, 0x05, 0x26, 0x06, 0xbd, 0x1c, 0x40, 0x19, 0x3e,
  0x83, 0xec, 0xa6, 0x3b, 0x6f, 0x6c, 0xbe, 0x3d, 0xea, 0xfc, 0x1a, 0x3b,
  0x7f, 0xb1, 0x9d, 0x3d, 0xc7, 0xd6, 0x9f, 0x3d, 0x89, 0x16, 0x59, 0xbc,
  0xc6, 0x9b, 0xd4, 0x3d, 0xb3, 0x26, 0x41, 0xbb, 0x81, 0x5e, 0x13, 0xbd,
  0xaa, 0xeb, 0x24, 0xbb, 0xa0, 0xaf, 0x06, 0xbc, 0x9d, 0xe0, 0x94, 0xbc,
  0x45, 0xa6, 0x0f, 0x3d, 0xae, 0x65, 0x35, 0x3b, 0x93, 0x2f, 0x77, 0x3d,
  0xfd, 0xd7, 0xd2, 0xbc, 0xb9, 0x53, 0x7a, 0x3c, 0xea, 0x5a, 0x05, 0xbd,
  0xe5, 0xef, 0x57, 0xbd, 0xe6, 0x31, 0x10, 0x3d, 0x48, 0x57, 0x56, 0xbd,
  0x18, 0x62, 0x9f, 0x3c, 0x7d, 0xdc, 0x8b, 0xbc, 0xdd, 0xa2, 0x92, 0x3d,
  0xe4, 0x3b, 0x93, 0x3d, 0xdd, 0xe6, 0x84, 0x3d, 0x08, 0xe7, 0x9e, 0xbc,
  0x7b, 0xf9, 0xa3, 0x3d, 0x6e, 0xef, 0xc5, 0xba, 0xb7, 0xd2, 0x1d, 0x3d,
  0x1b, 0xdd, 0x08, 0xbd, 0x4d, 0x20, 0x2a, 0x3d, 0xe1, 0x2a, 0x53, 0x3d,
  0x08, 0x3a, 0x61, 0xbd, 0xcb, 0x64, 0x69, 0x3d, 0x12, 0xaf, 0x0c, 0x3e,
  0x5a, 0x7b, 0xb3, 0x3d, 0x3a, 0xe5, 0xeb, 0xbc, 0x28, 0x58, 0x5b, 0x3d,
  0x1a, 0x8d, 0x0e, 0x3e, 0x33, 0x75, 0x6c, 0x3d, 0x93, 0xc4, 0x83, 0xbd,
  0x72, 0x57, 0x0f, 0xbd, 0xdb, 0xae, 0x9c, 0x3b, 0xef, 0xd0, 0xa7, 0xbd,
  0x7f, 0x4e, 0x9e, 0x3d, 0xdd, 0x1e, 0x36, 0x3d, 0xe7, 0x47, 0xef, 0x3d,
  0x85, 0x34, 0x5a, 0x3d, 0xea, 0xee, 0x81, 0xbd, 0x07, 0xe3, 0x7b, 0xbd,
  0xf8, 0x0a, 0x55, 0xbc, 0x69, 0x40, 0x62, 0xbd, 0xe6, 0xe7, 0x27, 0x3d,
  0xad, 0x48, 0x0b, 0x3d, 0x0c, 0xd1, 0xe8, 0x3c, 0xbe, 0xf2, 0xa3, 0x3d,
  0x5e, 0xdc, 0xee, 0xbc, 0xcc, 0x45, 0xba, 0xbc, 0xa8, 0x80, 0xa1, 0xbc,
  0x51, 0xc0, 0x9a, 0x3c, 0xdb, 0xce, 0xbe, 0x3d, 0x42, 0xf0, 0xb8, 0x3d,
  0x86, 0x85, 0x1e, 0x3e, 0x6b, 0x14, 0xf9, 0x3d, 0xa9, 0x0f, 0xc5, 0x3d,
  0xf6, 0xed, 0x98, 0x3c, 0xa9, 0x33, 0xa5, 0x3d, 0xc8, 0xc9, 0xa3, 0x3d,
  0xea, 0xdd, 0x28, 0x3d, 0x71, 0x15, 0xf7, 0xbc, 0x72, 0x50, 0x77, 0x3d,
  0xb2, 0xee, 0x59, 0x3c, 0x17, 0x31, 0xc7, 0xbd, 0x4f, 0x34, 0x5b, 0x3d,
  0xe4, 0xd1, 0x69, 0xbd, 0xa0, 0xb9, 0x9c, 0xbd, 0x1d, 0x38, 0xf3, 0xbd,
  0xdb, 0xab, 0xd6, 0x3c, 0x02, 0x1c, 0x11, 0x3e, 0x3a, 0x13, 0x2f, 0x3c,
  0x8d, 0xd3, 0xe7, 0x3c, 0x07, 0x65, 0xb5, 0xbb, 0x9f, 0x65, 0xd3, 0x3d,
  0xf5, 0xd8, 0x54, 0xbd, 0x84, 0xe0, 0x84, 0xbd, 0x14, 0x17, 0x6d, 0xbd,
  0xab, 0x69, 0xba, 0x3d, 0xd4, 0xb5, 0x62, 0xbc, 0x13, 0x48, 0x39, 0x3d,
  0xa4, 0x23, 0x70, 0x3d, 0xd1, 0xcd, 0x39, 0x3d, 0xc0, 0x98, 0x13, 0x3d,
  0x58, 0xc2, 0x93, 0x3d, 0xe9, 0x97, 0x1c, 0x3d, 0x69, 0x03, 0x18, 0x3d,
  0x7e, 0xf4, 0x15, 0xbd, 0x3f, 0xef, 0xaa, 0xbb, 0xda, 0x5f, 0x0a, 0xbb,
  0x6a, 0x82, 0xf0, 0x3d, 0x77, 0xb1, 0xd0, 0x3a, 0x54, 0xaa, 0x4d, 0xbc,
  0x61, 0x96, 0xc6, 0x3d, 0xac, 0xf9, 0x12, 0x3d, 0x7d, 0x81, 0x78, 0xbb,
  0xe6, 0xf3, 0x89, 0xbc, 0x34, 0xa3, 0x2b, 0xbd, 0xa7, 0x4a, 0x01, 0x3e,
  0xc6, 0x06, 0x30, 0xbd, 0x80, 0xc0, 0x06, 0x3b, 0x78, 0x18, 0x17, 0xbd,
  0x74, 0x3a, 0x1a, 0x3e, 0x61, 0x57, 0x2a, 0x3d, 0x88, 0x61, 0xf2, 0x3c,
  0xf9, 0x64, 0x27, 0x3d, 0xb5, 0x41, 0xaf, 0x3d, 0x16, 0xe0, 0x5a, 0x3d,
  0xc7, 0x57, 0x7b, 0x3c, 0x5e, 0xe3, 0x5f, 0x3c, 0xd6, 0x55, 0x76, 0x3d,
  0xf2, 0xfc, 0x3c, 0x3d, 0x36, 0x21, 0x0a, 0xbd, 0x4e, 0x5f, 0x31, 0x3d,
  0xab, 0xf3, 0xc3, 0x3d, 0x00, 0xd5, 0x86, 0x3d, 0xba, 0x4f, 0x1e, 0x3d,
  0xd4, 0x21, 0xa1, 0x3d, 0x2b, 0x18, 0xce, 0x3d, 0x10, 0x9c, 0xc1, 0xbc,
  0x4b, 0x6c, 0x50, 0x3d, 0xc8, 0x45, 0x43, 0x3d, 0x33, 0xe4, 0x18, 0x3d,
  0x97, 0xb8, 0xfd, 0xba, 0x5f, 0x1d, 0x81, 0xbd, 0xef, 0x6c, 0xd4, 0xbc,
  0xb9, 0x75, 0x91, 0xbc, 0x35, 0x8c, 0x60, 0xbb, 0x02, 0xa0, 0x54, 0x3c,
  0xec, 0xd3, 0xcc, 0x3c, 0x30, 0x20, 0x98, 0x3a, 0x1e, 0x87, 0x90, 0x3d,
  0x01, 0x9f, 0x66, 0xbd, 0xef, 0xa6, 0xad, 0xbc, 0x33, 0x68, 0x77, 0x3d,
  0x41, 0xf3, 0x9c, 0xbd, 0xbb, 0xe6, 0x27, 0xbd, 0x8c, 0xa7, 0x3b, 0xbd,
  0x34, 0x1f, 0x46, 0x3e, 0x45, 0x06, 0x6f, 0xbd, 0xc3, 0xc8, 0x0f, 0xbc,
  0xb1, 0x90, 0x3d, 0xbd, 0xc6, 0x89, 0x02, 0x3e, 0x28, 0xb3, 0x9d, 0xbd,
  0x35, 0x1b, 0x42, 0x3b, 0xae, 0xdc, 0x0a, 0x3c, 0xab, 0xb5, 0x1a, 0x3e,
  0x8b, 0x4d, 0x00, 0xbd, 0x84, 0xe3, 0x4f, 0xbd, 0x8d, 0xd1, 0x25, 0x3c,
  0xcc, 0xb6, 0x52, 0x3d, 0xf5, 0xf9, 0x54, 0xbd, 0xcd, 0x8a, 0x90, 0x3d,
  0x01, 0x89, 0x37, 0xbd, 0xf6, 0x43, 0xa0, 0x3d, 0xc4, 0xab, 0x9e, 0x3d,
  0xb5, 0xe1, 0x67, 0x3d, 0x4f, 0x6a, 0x3d, 0x3d, 0x9f, 0xf2, 0x85, 0x3c,
  0x7c, 0x19, 0x92, 0xbd, 0xb6, 0x02, 0x96, 0xbd, 0x36, 0xe0, 0xcb, 0xbc,
  0xa0, 0xa4, 0xf2, 0x3d, 0x54, 0xb0, 0x1b, 0xbd, 0xf6, 0x64, 0xb6, 0xbd,
  0xb6, 0x25, 0xa0, 0xbd, 0xb7, 0xfe, 0x34, 0x3d, 0x36, 0xe4, 0x7f, 0x3b,
  0x83, 0x83, 0xe4, 0x3c, 0x4d, 0x35, 0x84, 0x3d, 0xbb, 0x17, 0x02, 0x3e,
  0xd3, 0xba, 0xe8, 0x3d, 0xc3, 0x50, 0x04, 0x3d, 0x41, 0x4f, 0x7e, 0x3c,
  0xea, 0x07, 0x2a, 0x3d, 0x24, 0x01, 0xe9, 0x3c, 0x59, 0xc8, 0x2d, 0x3d,
  0xe0, 0xee, 0xd3, 0x3c, 0x0d, 0x5b, 0xa5, 0x3d, 0xaa, 0x62, 0x9a, 0x3c,
  0x08, 0xb9, 0x93, 0xbd, 0x85, 0x03, 0xf3, 0xb8, 0x86, 0xeb, 0xd8, 0x3d,
  0xb4, 0x62, 0xce, 0x3c, 0x2b, 0x25, 0x90, 0xbc, 0xd0, 0x21, 0x53, 0xbd,
  0x50, 0xfa, 0x41, 0x3d, 0xc1, 0x9a, 0xa3, 0xbd, 0x92, 0xb5, 0x97, 0xbd,
  0xe8, 0xe1, 0x42, 0xbd, 0xe8, 0x5a, 0xc8, 0x3c, 0x09, 0x88, 0xda, 0x3c,
  0x32, 0xfe, 0x6e, 0xbd, 0x87, 0x73, 0xf0, 0x3c, 0x34, 0xc7, 0x3f, 0x3d,
  0x5a, 0x34, 0xe8, 0xbc, 0x93, 0x28, 0x5d, 0xbd, 0xd8, 0xad, 0x60, 0x3d,
  0xb0, 0x24, 0x85, 0x3b, 0x92, 0x9d, 0xd4, 0xbd, 0x4c, 0xe2, 0x23, 0xbb,
  0x85, 0xac, 0x4d, 0x3d, 0x43, 0x8f, 0x2d, 0x3e, 0xe9, 0x48, 0xfb, 0xbc,
  0x8f, 0x36, 0x57, 0xbd, 0xfe, 0xeb, 0x31, 0x3d, 0xb5, 0xcc, 0x2a, 0x3e,
  0x16, 0x16, 0x78, 0x3d, 0x9d, 0x1d, 0xdb, 0xbc, 0x11, 0xcc, 0x3a, 0x3d,
  0xf0, 0xc4, 0x8f, 0x3c, 0x0d, 0xea, 0xa3, 0xbd, 0xc8, 0x97, 0x80, 0x3c,
  0xfd, 0x3b, 0x9d, 0x3d, 0xe8, 0xfc, 0xc0, 0x3d, 0xa9, 0x17, 0x5e, 0x3c,
  0x54, 0x5e, 0x81, 0xbc, 0x40, 0x9f, 0x32, 0xbb, 0x34, 0x96, 0x9d, 0x3d,
  0xce, 0x3e, 0x47, 0x3d, 0x20, 0x5d, 0x28, 0xbc, 0x54, 0xf6, 0xe5, 0x3b,
  0x76, 0xa2, 0xaa, 0x3d, 0xdb, 0x39, 0x23, 0x3d, 0x0f, 0x6d, 0x8d, 0x3c,
  0x34, 0x6f, 0x87, 0x3c, 0x0a, 0xef, 0x9c, 0x3d, 0x5a, 0x22, 0xad, 0x3d,
  0x86, 0x9c, 0xd1, 0xbb, 0x08, 0xa3, 0xe2, 0x3c, 0xea, 0xd1, 0x75, 0x3c,
  0xb2, 0x7f, 0xf2, 0xbb, 0x21, 0xe1, 0xd8, 0x3c, 0x8d, 0x73, 0x36, 0x3d,
  0x1f, 0x64, 0x39, 0x3d, 0xb4, 0x03, 0xc5, 0x3d, 0xb7, 0x52, 0x38, 0x3d,
  0x8a, 0xbb, 0x3f, 0x3d, 0xb9, 0x8e, 0xe0, 0x3b, 0x7b, 0x7d, 0x13, 0xbc,
  0x54, 0x66, 0xa7, 0xbd, 0xf7, 0x5a, 0x23, 0x3d, 0xf6, 0x03, 0xfc, 0x3d,
  0xeb, 0x2f, 0x4d, 0xbc, 0x7f, 0xac, 0xce, 0xbb, 0x80, 0x2c, 0x84, 0xbd,
  0x5a, 0xc0, 0xce, 0x3d, 0x6f, 0x03, 0x87, 0x3c, 0xa4, 0xa4, 0x16, 0x3c,
  0xa5, 0xae, 0xd2, 0x3d, 0xf6, 0x35, 0xe7, 0x3d, 0xce, 0x91, 0x49, 0xb9,
  0x0f, 0xc5, 0x1e, 0x3d, 0xc5, 0xb0, 0x41, 0x3d, 0xae, 0x64, 0xbe, 0x3d,
  0xce, 0x19, 0x9f, 0xbd, 0x48, 0x15, 0xbc, 0x3d, 0x7e, 0x1e, 0x79, 0x3d,
  0xb5, 0x34, 0x49, 0x3e, 0x94, 0xf2, 0xb4, 0xba, 0xfd, 0x7b, 0x0d, 0x3d,
  0xc4, 0x19, 0x0e, 0x3b, 0xd7, 0x42, 0x30, 0x3e, 0x0a, 0xf2, 0x2c, 0xbd,
  0x11, 0xda, 0xc4, 0x3c, 0xbf, 0x0b, 0x5a, 0x3d, 0x22, 0xbe, 0xf9, 0x3d,
  0x4e, 0x7e, 0xf9, 0xbb, 0xed, 0xc9, 0xae, 0x3d, 0x71, 0x41, 0x85, 0x3d,
  0xfb, 0xd2, 0x08, 0xbb, 0xee, 0xb0, 0x1d, 0xbc, 0xdd, 0x92, 0xca, 0x3c,
  0xb4, 0xf0, 0x7f, 0xba, 0xb7, 0x54, 0xd1, 0x3d, 0x08, 0xff, 0x59, 0x3d,
  0x44, 0xb9, 0x00, 0x3d, 0x3a, 0xb0, 0x1b, 0xbc, 0x0c, 0x71, 0x4b, 0x3d,
  0x16, 0x55, 0xd3, 0xbd, 0x46, 0x1d, 0x6d, 0x3c, 0xd8, 0x29, 0x8f, 0xbd,
  0x46, 0x14, 0xf5, 0x3d, 0x6a, 0x3c, 0x81, 0xbd, 0x44, 0x67, 0xc0, 0xbd,
  0xcb, 0xfd, 0xf4, 0x3c, 0x92, 0xc8, 0x0f, 0x3c, 0x3d, 0x23, 0x4c, 0x3d,
  0x93, 0xf6, 0x72, 0x3d, 0xc9, 0x1c, 0x91, 0x3d, 0x40, 0xd8, 0x38, 0x3b,
  0xcc, 0x9f, 0x28, 0xbc, 0x4f, 0x89, 0x23, 0x3d, 0x85, 0x06, 0x8f, 0x3b,
  0x52, 0x39, 0x84, 0x3d, 0x88, 0x8f, 0x25, 0x3d, 0xc2, 0x00, 0xf7, 0x3c,
  0xfa, 0xd3, 0xb8, 0xbc, 0xc5, 0xeb, 0xc2, 0x3c, 0x52, 0x0d, 0x02, 0x3d,
  0x0d, 0x8b, 0x56, 0x3d, 0x7e, 0x8a, 0x0a, 0xbd, 0x82, 0xf5, 0xf0, 0x3c,
  0x45, 0x8b, 0x00, 0x3d, 0xdd, 0xef, 0x99, 0x3d, 0x96, 0xcc, 0x03, 0xbd,
  0xa9, 0x1e, 0x22, 0x3e, 0xf4, 0x16, 0x7e, 0x3d, 0x83, 0xfa, 0x17, 0x3d,
  0x3f, 0x08, 0x20, 0xbd, 0xb4, 0xe4, 0x64, 0x3d, 0xb2, 0x9a, 0x01, 0x3d,
  0xbd, 0xb1, 0x81, 0x3d, 0xe4, 0xb8, 0xbe, 0x3d, 0x01, 0x9f, 0xef, 0x3d,
  0x02, 0xd8, 0xc6, 0xbd, 0xc0, 0xf4, 0xd6, 0x3c, 0xb2, 0x68, 0xef, 0xbb,
  0x22, 0xb7, 0xd2, 0x3d, 0x83, 0x63, 0x16, 0xbd, 0x98, 0x34, 0x1d, 0x3d,
  0x34, 0x6f, 0xc3, 0x3c, 0x8d, 0xfc, 0xd8, 0x3d, 0xbd, 0x10, 0x17, 0xbc,
  0xb2, 0xf9, 0x6d, 0x3d, 0x1f, 0x54, 0x9e, 0xbb, 0xbf, 0xaf, 0x6e, 0xbc,
  0x21, 0x0b, 0x37, 0x3c, 0x83, 0x5c, 0x9c, 0xbd, 0x8c, 0xb4, 0x6b, 0x3d,
  0xdb, 0xff, 0xf9, 0x3d, 0x74, 0xb8, 0xa9, 0xbd, 0x33, 0x36, 0xb5, 0xbc,
  0x4c, 0x2c, 0xac, 0x3c, 0x08, 0x59, 0x1e, 0x3e, 0xca, 0x64, 0x44, 0xbd,
  0x94, 0xd1, 0x7f, 0x3d, 0xb7, 0xae, 0x4b, 0xbc, 0xa1, 0x78, 0x93, 0x3b,
  0x10, 0x6e, 0xf8, 0xbc, 0xef, 0x85, 0xab, 0xbd, 0x6c, 0x3a, 0xd4, 0x3c,
  0x18, 0x87, 0x66, 0x3c, 0x28, 0x3e, 0x88, 0xbd, 0x84, 0x16, 0x5c, 0xbd,
  0x0a, 0x70, 0xc7, 0xbd, 0x6d, 0xf5, 0x63, 0x3d, 0x74, 0x46, 0x0b, 0xbd,
  0xb1, 0xd7, 0x0f, 0xbd, 0xa8, 0x6b, 0x01, 0xbc, 0xa0, 0x89, 0x50, 0x3c,
  0xbe, 0x9a, 0x26, 0xbd, 0xa1, 0x1b, 0xc0, 0x3d, 0xcf, 0xe0, 0x03, 0x3e,
  0xff, 0x0b, 0x51, 0x3d, 0xac, 0x0a, 0x84, 0x3d, 0x51, 0x39, 0xb0, 0x3d,
  0x51, 0x1d, 0xed, 0x3d, 0x34, 0xca, 0xcb, 0x3d, 0x33, 0x75, 0xe8, 0xbc,
  0xa9, 0xdd, 0xc2, 0xbd, 0x43, 0x08, 0x63, 0x3c, 0x1b, 0xc5, 0xbf, 0x3d,
  0xbe, 0x53, 0x3c, 0xbd, 0x5e, 0x11, 0xa9, 0xb9, 0x49, 0x6c, 0x9c, 0xbd,
  0x4c, 0xc0, 0x37, 0x3e, 0xff, 0xbd, 0x84, 0x3d, 0xc9, 0x39, 0x82, 0x3a,
  0xac, 0x60, 0x24, 0xbc, 0xbf, 0xe9, 0x1e, 0x3e, 0x54, 0x11, 0x8a, 0xbd,
  0x75, 0xf9, 0x13, 0xbc, 0xf9, 0xcf, 0x6c, 0x3d, 0xd7, 0x8c, 0x99, 0x3d,
  0xff, 0xb7, 0x83, 0x3c, 0x9b, 0xfa, 0xd6, 0x3c, 0xc1, 0xcc, 0xae, 0x3d,
  0xeb, 0x5e, 0x0a, 0x3e, 0x00, 0x40, 0x56, 0xbd, 0x42, 0x5d, 0xf1, 0x3c,
  0x58, 0x59, 0x2d, 0x3d, 0x5f, 0xff, 0x16, 0x3e, 0x52, 0x6f, 0x10, 0xbd,
  0x64, 0x90, 0xad, 0xbd, 0xf6, 0x54, 0x8e, 0x3d, 0x4d, 0xbb, 0xce, 0x3b,
  0x28, 0x50, 0x53, 0xbd, 0x53, 0x21, 0x4f, 0x3c, 0xc9, 0xff, 0x30, 0xbd,
  0x1b, 0xdf, 0x17, 0x3d, 0xdf, 0x0b, 0xa3, 0xbd, 0x00, 0xde, 0x2a, 0x3d,
  0xef, 0xa0, 0x8f, 0x3d, 0x2a, 0xe4, 0x3e, 0x3d, 0x13, 0x83, 0x61, 0xbd,
  0xa4, 0x51, 0x6f, 0xbd, 0xd2, 0x5b, 0x82, 0xbd, 0x0f, 0x91, 0xe0, 0x3d,
  0x6b, 0xf5, 0x48, 0x3d, 0x8c, 0xa4, 0x58, 0xbd, 0xb1, 0x8a, 0x0f, 0x3c,
  0x49, 0x27, 0xc2, 0x3d, 0x65, 0x78, 0x74, 0x3c, 0x90, 0xc7, 0xd8, 0xbd,
  0xee, 0x82, 0xc3, 0x3b, 0xda, 0x21, 0x17, 0xbd, 0x13, 0x96, 0x59, 0x3d,
  0x7a, 0xc9, 0x99, 0xbd, 0xf2, 0x92, 0x3f, 0xbd, 0xfb, 0xc5, 0x1f, 0x3d,
  0x2a, 0x6f, 0x34, 0x3d, 0xb1, 0x97, 0x5d, 0xbb, 0xc0, 0x69, 0x7d, 0xbc,
  0x85, 0x6c, 0x02, 0x3e, 0x1d, 0x18, 0xc3, 0x3c, 0x8a, 0x17, 0x86, 0x3d,
  0xc0, 0x1f, 0xe8, 0x3d, 0xc7, 0x96, 0xe3, 0x3d, 0x46, 0xbc, 0x87, 0xbd,
  0xa9, 0x6f, 0x4d, 0x39, 0x97, 0x13, 0x09, 0xbc, 0xe6, 0x49, 0xe0, 0x3d,
  0x78, 0xd3, 0x80, 0xbd, 0xa3, 0x68, 0xcf, 0xbd, 0x9e, 0x5f, 0xb2, 0xbc,
  0x47, 0x10, 0x21, 0x3d, 0x47, 0x36, 0x35, 0xbd, 0x2d, 0xac, 0x10, 0xbd,
  0xc2, 0x9a, 0x4a, 0x3d, 0xc7, 0x78, 0x00, 0x3e, 0x43, 0x92, 0x51, 0x3d,
  0xa2, 0xd8, 0x1f, 0x3d, 0x6f, 0x73, 0xb1, 0xbd, 0xcd, 0x1a, 0x16, 0x3e,
  0x41, 0x42, 0xca, 0xbd, 0x36, 0xc6, 0x85, 0x3d, 0x3b, 0x9d, 0x46, 0xbd,
  0xd5, 0xa2, 0x8a, 0x3d, 0x53, 0x83, 0x64, 0xbc, 0x5d, 0x28, 0x6e, 0xbd,
  0x86, 0x8e, 0x64, 0x3d, 0x5f, 0x49, 0xc6, 0x3d, 0xf6, 0xb7, 0xce, 0xbd,
  0xff, 0xd1, 0xdb, 0x3c, 0x4c, 0x6d, 0x91, 0xbc, 0xda, 0x2f, 0x18, 0x3d,
  0xb9, 0x51, 0x94, 0xbb, 0xbe, 0xb9, 0xef, 0xbb, 0xe4, 0xc1, 0x96, 0x3c,
  0x15, 0xd0, 0xb9, 0x3d, 0xde, 0x5b, 0x76, 0xbd, 0x4e, 0x55, 0x74, 0x3b,
  0x4a, 0xde, 0x0b, 0xbd, 0xda, 0xaa, 0x19, 0x3e, 0x7f, 0x1d, 0x8f, 0xbd,
  0xec, 0x9c, 0x67, 0xbd, 0x95, 0x31, 0x8b, 0xbc, 0xc2, 0xcd, 0xee, 0x3d,
  0x0d, 0xc3, 0xdb, 0xbd, 0x1f, 0x4f, 0x60, 0xbd, 0xd0, 0x81, 0x86, 0xbd,
  0xda, 0xa6, 0xbb, 0x3d, 0x5b, 0x2f, 0x93, 0xbc, 0x3a, 0x8e, 0xd7, 0xbd,
  0xb4, 0xc5, 0xee, 0xbb, 0xfa, 0x5a, 0x6a, 0xbd, 0xdc, 0x87, 0x0d, 0x3d,
  0xe1, 0x2c, 0x93, 0xbd, 0x50, 0x2d, 0x45, 0x3d, 0x86, 0x98, 0x20, 0x3b,
  0x65, 0x0e, 0x16, 0x3d, 0x8b, 0x06, 0x43, 0x3d, 0xc7, 0xae, 0x3b, 0x3d,
  0x4f, 0x57, 0x88, 0x3d, 0xc3, 0xb4, 0xe9, 0x3c, 0x55, 0x86, 0xc6, 0x3d,
  0xce, 0x72, 0xdb, 0x3c, 0x89, 0x7e, 0xc8, 0x3c, 0x59, 0x42, 0xc6, 0xbd,
  0xf6, 0xf8, 0x67, 0xbd, 0xff, 0x4a, 0xdc, 0x3c, 0x6f, 0xf8, 0x9e, 0xbc,
  0x0c, 0xec, 0xad, 0xbd, 0x5c, 0x86, 0x69, 0xbd, 0x6d, 0xe1, 0xb4, 0xbd,
  0xe3, 0xe2, 0xcd, 0x3d, 0xe5, 0x71, 0x01, 0x3c, 0xb8, 0xb9, 0xe4, 0x3c,
  0x8c, 0x65, 0xa2, 0x3c, 0x0c, 0x38, 0x17, 0x3e, 0x96, 0x88, 0xb2, 0xbb,
  0xfe, 0xf6, 0x93, 0x3d, 0xe7, 0x07, 0xf1, 0x3c, 0x86, 0x05, 0xe3, 0x3d,
  0x0d, 0x06, 0x91, 0xbc, 0xaf, 0x9c, 0xe2, 0x3c, 0x46, 0x65, 0x1c, 0x3d,
  0x1b, 0x36, 0xc8, 0x3a, 0xea, 0x6c, 0xd8, 0x3a, 0xd9, 0x00, 0xc7, 0xbd,
  0x60, 0x50, 0x48, 0x3c, 0xeb, 0x68, 0x30, 0xbc, 0x1f, 0x30, 0xa2, 0xbd,
  0x69, 0xe0, 0xab, 0xbd, 0x18, 0xb8, 0x3a, 0xbc, 0x0d, 0xf4, 0xac, 0xbb,
  0x25, 0xac, 0x98, 0xbd, 0x3c, 0x3a, 0xa4, 0xbd, 0x58, 0x22, 0x74, 0xbd,
  0xa5, 0x55, 0x12, 0x3d, 0x27, 0x4e, 0xa4, 0x3c, 0xc6, 0xd8, 0xcb, 0xbd,
  0xac, 0x58, 0x4e, 0xbd, 0xe8, 0x02, 0xb4, 0x3d, 0xd7, 0x42, 0x99, 0xbd,
  0x44, 0xc9, 0x19, 0xbd, 0xeb, 0x6a, 0x4a, 0xbc, 0xaf, 0x01, 0x4a, 0x3d,
  0xc3, 0x82, 0xa7, 0xbd, 0x9a, 0xf4, 0x16, 0x3d, 0x55, 0x9f, 0x51, 0x3d,
  0x43, 0xcd, 0x72, 0x3d, 0x80, 0x97, 0xce, 0xbd, 0x11, 0x0c, 0x9c, 0xbd,
  0x71, 0xf0, 0x0c, 0xbe, 0xb1, 0x96, 0x9f, 0x3d, 0x36, 0x95, 0xbd, 0x3d,
  0x9d, 0x65, 0x1f, 0xbc, 0xae, 0x58, 0x41, 0x3d, 0x21, 0xa3, 0xab, 0x3c,
  0x7a, 0x73, 0x20, 0x3c, 0x98, 0xa0, 0x96, 0x3b, 0xa4, 0x21, 0x58, 0xbd,
  0xf5, 0x60, 0x0e, 0x3d, 0x67, 0x7d, 0xb2, 0x3d, 0x76, 0xf9, 0xbc, 0x3d,
  0xd2, 0x66, 0x63, 0xb9, 0x6c, 0x24, 0xf2, 0x3d, 0xe5, 0x00, 0xa7, 0x3c,
  0x9a, 0xc1, 0x97, 0xba, 0x13, 0x19, 0xa6, 0xbd, 0x52, 0x47, 0x9e, 0xbc,
  0x92, 0xcf, 0x4c, 0xbd, 0xfe, 0x72, 0x07, 0xbd, 0xe0, 0xb2, 0x9d, 0x3c,
  0xcc, 0xf8, 0x02, 0x3e, 0x41, 0xb7, 0x25, 0xbd, 0x1d, 0x2b, 0xb8, 0xbd,
  0x10, 0x4d, 0xd5, 0xbd, 0x78, 0x96, 0xab, 0x3d, 0xb6, 0xe1, 0x97, 0xbd,
  0xbe, 0xcc, 0xe5, 0x3b, 0x76, 0x56, 0x3c, 0x3d, 0x2d, 0xb7, 0xef, 0x3d,
  0xf3, 0x1b, 0x00, 0xbe, 0x8d, 0xe9, 0x4d, 0x3b, 0x9f, 0xde, 0x75, 0xbd,
  0x89, 0x9b, 0x45, 0x3d, 0xb4, 0xbc, 0xc3, 0xbc, 0xb8, 0x25, 0xc5, 0xbd,
  0xe2, 0x8c, 0x36, 0xba, 0xb7, 0xe5, 0xc2, 0x3c, 0xc5, 0xf1, 0x85, 0x3b,
  0xd5, 0x0e, 0xe6, 0xbc, 0x5e, 0x91, 0x60, 0x3c, 0xe1, 0xae, 0x87, 0xbb,
  0x5e, 0x06, 0x72, 0xbd, 0x1f, 0x03, 0x91, 0x38, 0xae, 0x0b, 0xfe, 0xbd,
  0x97, 0x13, 0x07, 0xbc, 0x67, 0xdb, 0xa1, 0xbd, 0x9e, 0x13, 0xc8, 0xbd,
  0x35, 0xcf, 0xfd, 0xbd, 0xdc, 0xe7, 0x5f, 0xbb, 0xdb, 0xd2, 0x09, 0xbc,
  0xce, 0x8a, 0xf7, 0x3c, 0xaa, 0x3f, 0xcf, 0xbd, 0xe0, 0xac, 0xb8, 0x3d,
  0x89, 0xb9, 0x0c, 0xbc, 0xa7, 0x96, 0x23, 0xbc, 0x01, 0x25, 0x67, 0xbc,
  0x6c, 0x3c, 0xd7, 0x3c, 0xf7, 0x8b, 0x08, 0xbe, 0xbb, 0xbe, 0x98, 0xbd,
  0x80, 0xae, 0x5a, 0xbb, 0xcc, 0xf9, 0xff, 0xff, 0xd0, 0xf9, 0xff, 0xff,
  0x0f, 0x00, 0x00, 0x00, 0x4d, 0x4c, 0x49, 0x52, 0x20, 0x43, 0x6f, 0x6e,
  0x76, 0x65, 0x72, 0x74, 0x65, 0x64, 0x2e, 0x00, 0x01, 0x00, 0x00, 0x00,
  0x14, 0x00, 0x00, 0x00, 0x00, 0x00, 0x0e, 0x00, 0x18, 0x00, 0x14, 0x00,
  0x10, 0x00, 0x0c, 0x00, 0x08, 0x00, 0x04, 0x00, 0x0e, 0x00, 0x00, 0x00,
  0x14, 0x00, 0x00, 0x00, 0x1c, 0x00, 0x00, 0x00, 0x58, 0x01, 0x00, 0x00,
  0x5c, 0x01, 0x00, 0x00, 0x60, 0x01, 0x00, 0x00, 0x04, 0x00, 0x00, 0x00,
  0x6d, 0x61, 0x69, 0x6e, 0x00, 0x00, 0x00, 0x00, 0x04, 0x00, 0x00, 0x00,
  0xf0, 0x00, 0x00, 0x00, 0x8c, 0x00, 0x00, 0x00, 0x54, 0x00, 0x00, 0x00,
  0x04, 0x00, 0x00, 0x00, 0x8e, 0xff, 0xff, 0xff, 0x1c, 0x00, 0x00, 0x00,
  0x00, 0x00, 0x00, 0x08, 0x1c, 0x00, 0x00, 0x00, 0x20, 0x00, 0x00, 0x00,
  0x03, 0x00, 0x00, 0x00, 0x00, 0x00, 0x06, 0x00, 0x08, 0x00, 0x07, 0x00,
  0x06, 0x00, 0x00, 0x00, 0x00, 0x00, 0x00, 0x01, 0x01, 0x00, 0x00, 0x00,
  0x09, 0x00, 0x00, 0x00, 0x03, 0x00, 0x00, 0x00, 0x08, 0x00, 0x00, 0x00,
  0x01, 0x00, 0x00, 0x00, 0x02, 0x00, 0x00, 0x00, 0x00, 0x00, 0x0a, 0x00,
  0x10, 0x00, 0x0c, 0x00, 0x08, 0x00, 0x04, 0x00, 0x0a, 0x00, 0x00, 0x00,
  0x0c, 0x00, 0x00, 0x00, 0x10, 0x00, 0x00, 0x00, 0x02, 0x00, 0x00, 0x00,
  0x01, 0x00, 0x00, 0x00, 0x08, 0x00, 0x00, 0x00, 0x02, 0x00, 0x00, 0x00,
  0x07, 0x00, 0x00, 0x00, 0x03, 0x00, 0x00, 0x00, 0x00, 0x00, 0x0e, 0x00,
  0x1a, 0x00, 0x14, 0x00, 0x10, 0x00, 0x0c, 0x00, 0x0b, 0x00, 0x04, 0x00,
  0x0e, 0x00, 0x00, 0x00, 0x24, 0x00, 0x00, 0x00, 0x00, 0x00, 0x00, 0x05,
  0x34, 0x00, 0x00, 0x00, 0x38, 0x00, 0x00, 0x00, 0x01, 0x00, 0x00, 0x00,
  0x00, 0x00, 0x0e, 0x00, 0x18, 0x00, 0x17, 0x00, 0x10, 0x00, 0x0c, 0x00,
  0x08, 0x00, 0x04, 0x00, 0x0e, 0x00, 0x00, 0x00, 0x02, 0x00, 0x00, 0x00,
  0x02, 0x00, 0x00, 0x00, 0x02, 0x00, 0x00, 0x00, 0x02, 0x00, 0x00, 0x00,
  0x00, 0x00, 0x00, 0x01, 0x01, 0x00, 0x00, 0x00, 0x07, 0x00, 0x00, 0x00,
  0x01, 0x00, 0x00, 0x00, 0x06, 0x00, 0x00, 0x00, 0x00, 0x00, 0x0e, 0x00,
  0x14, 0x00, 0x00, 0x00, 0x10, 0x00, 0x0c, 0x00, 0x0b, 0x00, 0x04, 0x00,
  0x0e, 0x00, 0x00, 0x00, 0x1c, 0x00, 0x00, 0x00, 0x00, 0x00, 0x00, 0x01,
  0x28, 0x00, 0x00, 0x00, 0x2c, 0x00, 0x00, 0x00, 0x0c, 0x00, 0x14, 0x00,
  0x13, 0x00, 0x0c, 0x00, 0x08, 0x00, 0x07, 0x00, 0x0c, 0x00, 0x00, 0x00,
  0x00, 0x00, 0x00, 0x01, 0x01, 0x00, 0x00, 0x00, 0x01, 0x00, 0x00, 0x00,
  0x00, 0x00, 0x00, 0x01, 0x01, 0x00, 0x00, 0x00, 0x06, 0x00, 0x00, 0x00,
  0x03, 0x00, 0x00, 0x00, 0x00, 0x00, 0x00, 0x00, 0x04, 0x00, 0x00, 0x00,
  0x05, 0x00, 0x00, 0x00, 0x01, 0x00, 0x00, 0x00, 0x09, 0x00, 0x00, 0x00,
  0x01, 0x00, 0x00, 0x00, 0x00, 0x00, 0x00, 0x00, 0x0a, 0x00, 0x00, 0x00,
  0x58, 0x04, 0x00, 0x00, 0x00, 0x04, 0x00, 0x00, 0xac, 0x03, 0x00, 0x00,
  0x6c, 0x03, 0x00, 0x00, 0xa4, 0x02, 0x00, 0x00, 0x00, 0x02, 0x00, 0x00,
  0x38, 0x01, 0x00, 0x00, 0xc0, 0x00, 0x00, 0x00, 0x60, 0x00, 0x00, 0x00,
  0x04, 0x00, 0x00, 0x00, 0xe6, 0xfb, 0xff, 0xff, 0x00, 0x00, 0x00, 0x01,
  0x14, 0x00, 0x00, 0x00, 0x1c, 0x00, 0x00, 0x00, 0x1c, 0x00, 0x00, 0x00,
  0x0a, 0x00, 0x00, 0x00, 0x34, 0x00, 0x00, 0x00, 0x02, 0x00, 0x00, 0x00,
  0xff, 0xff, 0xff, 0xff, 0x03, 0x00, 0x00, 0x00, 0xc8, 0xfb, 0xff, 0xff,
  0x1b, 0x00, 0x00, 0x00, 0x53, 0x74, 0x61, 0x74, 0x65, 0x66, 0x75, 0x6c,
  0x50, 0x61, 0x72, 0x74, 0x69, 0x74, 0x69, 0x6f, 0x6e, 0x65, 0x64, 0x43,
  0x61, 0x6c, 0x6c, 0x5f, 0x31, 0x3a, 0x30, 0x00, 0x02, 0x00, 0x00, 0x00,
  0x01, 0x00, 0x00, 0x00, 0x03, 0x00, 0x00, 0x00, 0x3e, 0xfc, 0xff, 0xff,
  0x00, 0x00, 0x00, 0x01, 0x14, 0x00, 0x00, 0x00, 0x1c, 0x00, 0x00, 0x00,
  0x1c, 0x00, 0x00, 0x00, 0x09, 0x00, 0x00, 0x00, 0x38, 0x00, 0x00, 0x00,
  0x02, 0x00, 0x00, 0x00, 0xff, 0xff, 0xff, 0xff, 0x84, 0x03, 0x00, 0x00,
  0x20, 0xfc, 0xff, 0xff, 0x1e, 0x00, 0x00, 0x00, 0x73, 0x65, 0x71, 0x75,
  0x65, 0x6e, 0x74, 0x69, 0x61, 0x6c, 0x5f, 0x31, 0x2f, 0x66, 0x6c, 0x61,
  0x74, 0x74, 0x65, 0x6e, 0x5f, 0x31, 0x2f, 0x52, 0x65, 0x73, 0x68, 0x61,
  0x70, 0x65, 0x00, 0x00, 0x02, 0x00, 0x00, 0x00, 0x01, 0x00, 0x00, 0x00,
  0x84, 0x03, 0x00, 0x00, 0x9a, 0xfc, 0xff, 0xff, 0x00, 0x00, 0x00, 0x01,
  0x14, 0x00, 0x00, 0x00, 0x24, 0x00, 0x00, 0x00, 0x24, 0x00, 0x00, 0x00,
  0x08, 0x00, 0x00, 0x00, 0x48, 0x00, 0x00, 0x00, 0x04, 0x00, 0x00, 0x00,
  0xff, 0xff, 0xff, 0xff, 0x0f, 0x00, 0x00, 0x00, 0x0f, 0x00, 0x00, 0x00,
  0x04, 0x00, 0x00, 0x00, 0x84, 0xfc, 0xff, 0xff, 0x26, 0x00, 0x00, 0x00,
  0x73, 0x65, 0x71, 0x75, 0x65, 0x6e, 0x74, 0x69, 0x61, 0x6c, 0x5f, 0x31,
  0x2f, 0x6d, 0x61, 0x78, 0x5f, 0x70, 0x6f, 0x6f, 0x6c, 0x69, 0x6e, 0x67,
  0x32, 0x64, 0x5f, 0x31, 0x2f, 0x4d, 0x61, 0x78, 0x50, 0x6f, 0x6f, 0x6c,
  0x32, 0x64, 0x00, 0x00, 0x04, 0x00, 0x00, 0x00, 0x01, 0x00, 0x00, 0x00,
  0x0f, 0x00, 0x00, 0x00, 0x0f, 0x00, 0x00, 0x00, 0x04, 0x00, 0x00, 0x00,
  0x0e, 0xfd, 0xff, 0xff, 0x00, 0x00, 0x00, 0x01, 0x14, 0x00, 0x00, 0x00,
  0x24, 0x00, 0x00, 0x00, 0x24, 0x00, 0x00, 0x00, 0x07, 0x00, 0x00, 0x00,
  0x98, 0x00, 0x00, 0x00, 0x04, 0x00, 0x00, 0x00, 0xff, 0xff, 0xff, 0xff,
  0x1e, 0x00, 0x00, 0x00, 0x1e, 0x00, 0x00, 0x00, 0x04, 0x00, 0x00, 0x00,
  0xf8, 0xfc, 0xff, 0xff, 0x75, 0x00, 0x00, 0x00, 0x73, 0x65, 0x71, 0x75,
  0x65, 0x6e, 0x74, 0x69, 0x61, 0x6c, 0x5f, 0x31, 0x2f, 0x63, 0x6f, 0x6e,
  0x76, 0x32, 0x64, 0x5f, 0x31, 0x2f, 0x52, 0x65, 0x6c, 0x75, 0x3b, 0x73,
  0x65, 0x71, 0x75, 0x65, 0x6e, 0x74, 0x69, 0x61, 0x6c, 0x5f, 0x31, 0x2f,
  0x63, 0x6f, 0x6e, 0x76, 0x32, 0x64, 0x5f, 0x31, 0x2f, 0x61, 0x64, 0x64,
  0x3b, 0x73, 0x65, 0x71, 0x75, 0x65, 0x6e, 0x74, 0x69, 0x61, 0x6c, 0x5f,
  0x31, 0x2f, 0x63, 0x6f, 0x6e, 0x76, 0x32, 0x64, 0x5f, 0x31, 0x2f, 0x63,
  0x6f, 0x6e, 0x76, 0x6f, 0x6c, 0x75, 0x74, 0x69, 0x6f, 0x6e, 0x3b, 0x73,
  0x65, 0x71, 0x75, 0x65, 0x6e, 0x74, 0x69, 0x61, 0x6c, 0x5f, 0x31, 0x2f,
  0x63, 0x6f, 0x6e, 0x76, 0x32, 0x64, 0x5f, 0x31, 0x2f, 0x52, 0x65, 0x73,
  0x68, 0x61, 0x70, 0x65, 0x32, 0x00, 0x00, 0x00, 0x04, 0x00, 0x00, 0x00,
  0x01, 0x00, 0x00, 0x00, 0x1e, 0x00, 0x00, 0x00, 0x1e, 0x00, 0x00, 0x00,
  0x04, 0x00, 0x00, 0x00, 0x26, 0xfe, 0xff, 0xff, 0x00, 0x00, 0x00, 0x01,
  0x10, 0x00, 0x00, 0x00, 0x10, 0x00, 0x00, 0x00, 0x06, 0x00, 0x00, 0x00,
  0x84, 0x00, 0x00, 0x00, 0xa4, 0xfd, 0xff, 0xff, 0x75, 0x00, 0x00, 0x00,
  0x73, 0x65, 0x71, 0x75, 0x65, 0x6e, 0x74, 0x69, 0x61, 0x6c, 0x5f, 0x31,
  0x2f, 0x63, 0x6f, 0x6e, 0x76, 0x32, 0x64, 0x5f, 0x31, 0x2f, 0x52, 0x65,
  0x6c, 0x75, 0x3b, 0x73, 0x65, 0x71, 0x75, 0x65, 0x6e, 0x74, 0x69, 0x61,
  0x6c, 0x5f, 0x31, 0x2f, 0x63, 0x6f, 0x6e, 0x76, 0x32, 0x64, 0x5f, 0x31,
  0x2f, 0x61, 0x64, 0x64, 0x3b, 0x73, 0x65, 0x71, 0x75, 0x65, 0x6e, 0x74,
  0x69, 0x61, 0x6c, 0x5f, 0x31, 0x2f, 0x63, 0x6f, 0x6e, 0x76, 0x32, 0x64,
  0x5f, 0x31, 0x2f, 0x63, 0x6f, 0x6e, 0x76, 0x6f, 0x6c, 0x75, 0x74, 0x69,
  0x6f, 0x6e, 0x3b, 0x73, 0x65, 0x71, 0x75, 0x65, 0x6e, 0x74, 0x69, 0x61,
  0x6c, 0x5f, 0x31, 0x2f, 0x63, 0x6f, 0x6e, 0x76, 0x32, 0x64, 0x5f, 0x31,
  0x2f, 0x52, 0x65, 0x73, 0x68, 0x61, 0x70, 0x65, 0x31, 0x00, 0x00, 0x00,
  0x01, 0x00, 0x00, 0x00, 0x04, 0x00, 0x00, 0x00, 0xc6, 0xfe, 0xff, 0xff,
  0x00, 0x00, 0x00, 0x01, 0x10, 0x00, 0x00, 0x00, 0x10, 0x00, 0x00, 0x00,
  0x05, 0x00, 0x00, 0x00, 0x84, 0x00, 0x00, 0x00, 0x44, 0xfe, 0xff, 0xff,
  0x74, 0x00, 0x00, 0x00, 0x73, 0x65, 0x71, 0x75, 0x65, 0x6e, 0x74, 0x69,
  0x61, 0x6c, 0x5f, 0x31, 0x2f, 0x63, 0x6f, 0x6e, 0x76, 0x32, 0x64, 0x5f,
  0x31, 0x2f, 0x52, 0x65, 0x6c, 0x75, 0x3b, 0x73, 0x65, 0x71, 0x75, 0x65,
  0x6e, 0x74, 0x69, 0x61, 0x6c, 0x5f, 0x31, 0x2f, 0x63, 0x6f, 0x6e, 0x76,
  0x32, 0x64, 0x5f, 0x31, 0x2f, 0x61, 0x64, 0x64, 0x3b, 0x73, 0x65, 0x71,
  0x75, 0x65, 0x6e, 0x74, 0x69, 0x61, 0x6c, 0x5f, 0x31, 0x2f, 0x63, 0x6f,
  0x6e, 0x76, 0x32, 0x64, 0x5f, 0x31, 0x2f, 0x63, 0x6f, 0x6e, 0x76, 0x6f,
  0x6c, 0x75, 0x74, 0x69, 0x6f, 0x6e, 0x3b, 0x73, 0x65, 0x71, 0x75, 0x65,
  0x6e, 0x74, 0x69, 0x61, 0x6c, 0x5f, 0x31, 0x2f, 0x63, 0x6f, 0x6e, 0x76,
  0x32, 0x64, 0x5f, 0x31, 0x2f, 0x52, 0x65, 0x73, 0x68, 0x61, 0x70, 0x65,
  0x00, 0x00, 0x00, 0x00, 0x04, 0x00, 0x00, 0x00, 0x04, 0x00, 0x00, 0x00,
  0x03, 0x00, 0x00, 0x00, 0x03, 0x00, 0x00, 0x00, 0x01, 0x00, 0x00, 0x00,
  0x00, 0x00, 0x16, 0x00, 0x1c, 0x00, 0x18, 0x00, 0x17, 0x00, 0x10, 0x00,
  0x0c, 0x00, 0x08, 0x00, 0x00, 0x00, 0x00, 0x00, 0x00, 0x00, 0x07, 0x00,
  0x16, 0x00, 0x00, 0x00, 0x00, 0x00, 0x00, 0x01, 0x14, 0x00, 0x00, 0x00,
  0x14, 0x00, 0x00, 0x00, 0x04, 0x00, 0x00, 0x00, 0x00, 0x00, 0x00, 0x02,
  0x1c, 0x00, 0x00, 0x00, 0x0c, 0xff, 0xff, 0xff, 0x0f, 0x00, 0x00, 0x00,
  0x61, 0x72, 0x69, 0x74, 0x68, 0x2e, 0x63, 0x6f, 0x6e, 0x73, 0x74, 0x61,
  0x6e, 0x74, 0x32, 0x00, 0x01, 0x00, 0x00, 0x00, 0x02, 0x00, 0x00, 0x00,
  0xc6, 0xff, 0xff, 0xff, 0x00, 0x00, 0x00, 0x01, 0x10, 0x00, 0x00, 0x00,
  0x10, 0x00, 0x00, 0x00, 0x03, 0x00, 0x00, 0x00, 0x1c, 0x00, 0x00, 0x00,
  0x44, 0xff, 0xff, 0xff, 0x0f, 0x00, 0x00, 0x00, 0x61, 0x72, 0x69, 0x74,
  0x68, 0x2e, 0x63, 0x6f, 0x6e, 0x73, 0x74, 0x61, 0x6e, 0x74, 0x31, 0x00,
  0x01, 0x00, 0x00, 0x00, 0x03, 0x00, 0x00, 0x00, 0x00, 0x00, 0x16, 0x00,
  0x18, 0x00, 0x14, 0x00, 0x00, 0x00, 0x10, 0x00, 0x0c, 0x00, 0x08, 0x00,
  0x00, 0x00, 0x00, 0x00, 0x00, 0x00, 0x07, 0x00, 0x16, 0x00, 0x00, 0x00,
  0x00, 0x00, 0x00, 0x01, 0x10, 0x00, 0x00, 0x00, 0x10, 0x00, 0x00, 0x00,
  0x02, 0x00, 0x00, 0x00, 0x1c, 0x00, 0x00, 0x00, 0x94, 0xff, 0xff, 0xff,
  0x0e, 0x00, 0x00, 0x00, 0x61, 0x72, 0x69, 0x74, 0x68, 0x2e, 0x63, 0x6f,
  0x6e, 0x73, 0x74, 0x61, 0x6e, 0x74, 0x00, 0x00, 0x02, 0x00, 0x00, 0x00,
  0x03, 0x00, 0x00, 0x00, 0x84, 0x03, 0x00, 0x00, 0x00, 0x00, 0x16, 0x00,
  0x1c, 0x00, 0x18, 0x00, 0x00, 0x00, 0x14, 0x00, 0x10, 0x00, 0x0c, 0x00,
  0x00, 0x00, 0x00, 0x00, 0x08, 0x00, 0x07, 0x00, 0x16, 0x00, 0x00, 0x00,
  0x00, 0x00, 0x00, 0x01, 0x14, 0x00, 0x00, 0x00, 0x28, 0x00, 0x00, 0x00,
  0x28, 0x00, 0x00, 0x00, 0x01, 0x00, 0x00, 0x00, 0x44, 0x00, 0x00, 0x00,
  0x04, 0x00, 0x00, 0x00, 0xff, 0xff, 0xff, 0xff, 0x20, 0x00, 0x00, 0x00,
  0x20, 0x00, 0x00, 0x00, 0x01, 0x00, 0x00, 0x00, 0x04, 0x00, 0x04, 0x00,
  0x04, 0x00, 0x00, 0x00, 0x1d, 0x00, 0x00, 0x00, 0x73, 0x65, 0x72, 0x76,
  0x69, 0x6e, 0x67, 0x5f, 0x64, 0x65, 0x66, 0x61, 0x75, 0x6c, 0x74, 0x5f,
  0x69, 0x6e, 0x70, 0x75, 0x74, 0x5f, 0x6c, 0x61, 0x79, 0x65, 0x72, 0x3a,
  0x30, 0x00, 0x00, 0x00, 0x04, 0x00, 0x00, 0x00, 0x01, 0x00, 0x00, 0x00,
  0x20, 0x00, 0x00, 0x00, 0x20, 0x00, 0x00, 0x00, 0x01, 0x00, 0x00, 0x00,
  0x04, 0x00, 0x00, 0x00, 0x40, 0x00, 0x00, 0x00, 0x24, 0x00, 0x00, 0x00,
  0x14, 0x00, 0x00, 0x00, 0x04, 0x00, 0x00, 0x00, 0xdc, 0xff, 0xff, 0xff,
  0x09, 0x00, 0x00, 0x00, 0x00, 0x00, 0x00, 0x09, 0xe8, 0xff, 0xff, 0xff,
  0x16, 0x00, 0x00, 0x00, 0x00, 0x00, 0x00, 0x16, 0xf4, 0xff, 0xff, 0xff,
  0x11, 0x00, 0x00, 0x00, 0x00, 0x00, 0x00, 0x11, 0x0c, 0x00, 0x0c, 0x00,
  0x0b, 0x00, 0x00, 0x00, 0x00, 0x00, 0x04, 0x00, 0x0c, 0x00, 0x00, 0x00,
  0x03, 0x00, 0x00, 0x00, 0x00, 0x00, 0x00, 0x03
};

unsigned int converted_model_tflite_len = 13268;