unsigned char converted_model_tflite[] = {
  0x1c, 0x00, 0x00, 0x00, 0x54, 0x46, 0x4c, 0x33, 0x14, 0x00, 0x20, 0x00,
  0x1c, 0x00, 0x18, 0x00, 0x14, 0x00, 0x10, 0x00, 0x0c, 0x00, 0x00, 0x00,
  0x08, 0x00, 0x04, 0x00, 0x14, 0x00, 0x00, 0x00, 0x1c, 0x00, 0x00, 0x00,
  0x88, 0x00, 0x00, 0x00, 0xe0, 0x00, 0x00, 0x00, 0x84, 0x3b, 0x00, 0x00,
  0x94, 0x3b, 0x00, 0x00, 0x0c, 0x44, 0x00, 0x00, 0x03, 0x00, 0x00, 0x00,
  0x01, 0x00, 0x00, 0x00, 0x04, 0x00, 0x00, 0x00, 0x76, 0xc3, 0xff, 0xff,
  0x0c, 0x00, 0x00, 0x00, 0x1c, 0x00, 0x00, 0x00, 0x3c, 0x00, 0x00, 0x00,
  0x0f, 0x00, 0x00, 0x00, 0x73, 0x65, 0x72, 0x76, 0x69, 0x6e, 0x67, 0x5f,
  0x64, 0x65, 0x66, 0x61, 0x75, 0x6c, 0x74, 0x00, 0x01, 0x00, 0x00, 0x00,
  0x04, 0x00, 0x00, 0x00, 0x94, 0xff, 0xff, 0xff, 0x0f, 0x00, 0x00, 0x00,
  0x04, 0x00, 0x00, 0x00, 0x08, 0x00, 0x00, 0x00, 0x6f, 0x75, 0x74, 0x70,
  0x75, 0x74, 0x5f, 0x30, 0x00, 0x00, 0x00, 0x00, 0x01, 0x00, 0x00, 0x00,
  0x04, 0x00, 0x00, 0x00, 0x5a, 0xc4, 0xff, 0xff, 0x04, 0x00, 0x00, 0x00,
  0x0b, 0x00, 0x00, 0x00, 0x69, 0x6e, 0x70, 0x75, 0x74, 0x5f, 0x6c, 0x61,
  0x79, 0x65, 0x72, 0x00, 0x02, 0x00, 0x00, 0x00, 0x34, 0x00, 0x00, 0x00,
  0x04, 0x00, 0x00, 0x00, 0xdc, 0xff, 0xff, 0xff, 0x12, 0x00, 0x00, 0x00,
  0x04, 0x00, 0x00, 0x00, 0x13, 0x00, 0x00, 0x00, 0x43, 0x4f, 0x4e, 0x56,
  0x45, 0x52, 0x53, 0x49, 0x4f, 0x4e, 0x5f, 0x4d, 0x45, 0x54, 0x41, 0x44,
  0x41, 0x54, 0x41, 0x00, 0x08, 0x00, 0x0c, 0x00, 0x08, 0x00, 0x04, 0x00,
  0x08, 0x00, 0x00, 0x00, 0x11, 0x00, 0x00, 0x00, 0x04, 0x00, 0x00, 0x00,
  0x13, 0x00, 0x00, 0x00, 0x6d, 0x69, 0x6e, 0x5f, 0x72, 0x75, 0x6e, 0x74,
  0x69, 0x6d, 0x65, 0x5f, 0x76, 0x65, 0x72, 0x73, 0x69, 0x6f, 0x6e, 0x00,
  0x13, 0x00, 0x00, 0x00, 0xa0, 0x3a, 0x00, 0x00, 0x98, 0x3a, 0x00, 0x00,
  0x78, 0x3a, 0x00, 0x00, 0xd8, 0x39, 0x00, 0x00, 0x98, 0x39, 0x00, 0x00,
  0x48, 0x01, 0x00, 0x00, 0x28, 0x01, 0x00, 0x00, 0x0c, 0x01, 0x00, 0x00,
  0xf4, 0x00, 0x00, 0x00, 0xdc, 0x00, 0x00, 0x00, 0xd4, 0x00, 0x00, 0x00,
  0xcc, 0x00, 0x00, 0x00, 0xc4, 0x00, 0x00, 0x00, 0xbc, 0x00, 0x00, 0x00,
  0xb4, 0x00, 0x00, 0x00, 0xac, 0x00, 0x00, 0x00, 0xa4, 0x00, 0x00, 0x00,
  0x84, 0x00, 0x00, 0x00, 0x04, 0x00, 0x00, 0x00, 0x1e, 0xc5, 0xff, 0xff,
  0x04, 0x00, 0x00, 0x00, 0x70, 0x00, 0x00, 0x00, 0x10, 0x00, 0x00, 0x00,
  0x00, 0x00, 0x00, 0x00, 0x08, 0x00, 0x0e, 0x00, 0x08, 0x00, 0x04, 0x00,
  0x08, 0x00, 0x00, 0x00, 0x10, 0x00, 0x00, 0x00, 0x24, 0x00, 0x00, 0x00,
  0x00, 0x00, 0x06, 0x00, 0x08, 0x00, 0x04, 0x00, 0x06, 0x00, 0x00, 0x00,
  0x04, 0x00, 0x00, 0x00, 0x00, 0x00, 0x00, 0x00, 0x0c, 0x00, 0x1c, 0x00,
  0x18, 0x00, 0x14, 0x00, 0x10, 0x00, 0x04, 0x00, 0x0c, 0x00, 0x00, 0x00,
  0x65, 0xe5, 0x2d, 0x6b, 0x12, 0x1b, 0xa7, 0xec, 0x00, 0x00, 0x00, 0x00,
  0x02, 0x00, 0x00, 0x00, 0x02, 0x00, 0x00, 0x00, 0x04, 0x00, 0x00, 0x00,
  0x12, 0x00, 0x00, 0x00, 0x32, 0x2e, 0x31, 0x38, 0x2e, 0x30, 0x2d, 0x64,
  0x65, 0x76, 0x32, 0x30, 0x32, 0x34, 0x30, 0x37, 0x30, 0x39, 0x00, 0x00,
  0x9a, 0xc5, 0xff, 0xff, 0x04, 0x00, 0x00, 0x00, 0x10, 0x00, 0x00, 0x00,
  0x32, 0x2e, 0x32, 0x2e, 0x30, 0x00, 0x00, 0x00, 0x00, 0x00, 0x00, 0x00,
  0x00, 0x00, 0x00, 0x00, 0xf0, 0xbd, 0xff, 0xff, 0xf4, 0xbd, 0xff, 0xff,
  0xf8, 0xbd, 0xff, 0xff, 0xfc, 0xbd, 0xff, 0xff, 0x00, 0xbe, 0xff, 0xff,
  0x04, 0xbe, 0xff, 0xff, 0x08, 0xbe, 0xff, 0xff, 0xd2, 0xc5, 0xff, 0xff,
  0x04, 0x00, 0x00, 0x00, 0x08, 0x00, 0x00, 0x00, 0x20, 0x00, 0x00, 0x00,
  0x20, 0x00, 0x00, 0x00, 0xe6, 0xc5, 0xff, 0xff, 0x04, 0x00, 0x00, 0x00,
  0x08, 0x00, 0x00, 0x00, 0xff, 0xff, 0xff, 0xff, 0x84, 0x03, 0x00, 0x00,
  0xfa, 0xc5, 0xff, 0xff, 0x04, 0x00, 0x00, 0x00, 0x0c, 0x00, 0x00, 0x00,
  0x2c, 0x00, 0xbc, 0xbd, 0x34, 0x00, 0xc2, 0x3c, 0x07, 0x1e, 0xb3, 0x3d,
  0x12, 0xc6, 0xff, 0xff, 0x04, 0x00, 0x00, 0x00, 0x10, 0x00, 0x00, 0x00,
  0x68, 0x1c, 0x96, 0xbc, 0xf8, 0xd9, 0x56, 0x3d, 0x3e, 0xdc, 0xe3, 0x3c,
  0xd5, 0x90, 0x46, 0x3d, 0x2e, 0xc6, 0xff, 0xff, 0x04, 0x00, 0x00, 0x00,
  0x40, 0x38, 0x00, 0x00, 0xe6, 0xa5, 0x3a, 0xbd, 0x8b, 0xfe, 0x96, 0xbc,
  0x99, 0x7d, 0x80, 0xbd, 0x5b, 0xbb, 0x5b, 0x3b, 0xc3, 0x33, 0xb8, 0xbc,
  0x25, 0x87, 0x48, 0x3d, 0x8e, 0x14, 0x58, 0x3d, 0xd5, 0x84, 0x34, 0xbc,
  0xf9, 0x86, 0x45, 0x3d, 0x95, 0x2d, 0xe6, 0xba, 0x9f, 0x0b, 0x70, 0xbd,
  0x9c, 0x5c, 0xbe, 0xbc, 0x55, 0xc7, 0xd8, 0xbc, 0x16, 0xe6, 0x3d, 0xbb,
  0x41, 0x94, 0x03, 0xbd, 0xd7, 0x22, 0x77, 0x37, 0x54, 0xdd, 0x8a, 0x3d,
  0x9a, 0xec, 0x48, 0xbd, 0x77, 0x93, 0x41, 0xbc, 0x58, 0xb6, 0x77, 0x3d,
  0xa5, 0xd8, 0x1e, 0x3d, 0x62, 0xca, 0x3d, 0x3d, 0xfc, 0x18, 0x0f, 0x3d,
  0xbf, 0x6b, 0x51, 0x3d, 0x80, 0x4b, 0x18, 0x3d, 0xcc, 0xa7, 0x22, 0x3d,
  0xa4, 0x1c, 0x98, 0xbd, 0x34, 0x8a, 0x1a, 0xbd, 0x35, 0xf1, 0x95, 0xbd,
  0x28, 0x55, 0xc7, 0x3c, 0xbe, 0xab, 0x38, 0x3d, 0x94, 0xb1, 0xaa, 0x3c,
  0x94, 0xb7, 0x7f, 0xbd, 0xd7, 0xdc, 0x64, 0x3d, 0xa0, 0x3d, 0x0a, 0x3c,
  0x4e, 0x9f, 0x48, 0xbd, 0x72, 0xc9, 0x8a, 0xbd, 0xfe, 0x3f, 0xb7, 0xbc,
  0x9a, 0x9d, 0x7b, 0x3d, 0x73, 0xb8, 0xc5, 0xbd, 0xd8, 0xc9, 0x88, 0xbc,
  0x95, 0x52, 0xb5, 0xbd, 0x03, 0x28, 0xe2, 0xbc, 0x0f, 0x0e, 0xc1, 0xbd,
  0x53, 0x6f, 0x67, 0x3d, 0xb8, 0x76, 0xc4, 0xbb, 0x2d, 0x4a, 0xa5, 0xbd,
  0x32, 0xa7, 0xbd, 0xbd, 0x40, 0x18, 0x56, 0x3d, 0x99, 0x67, 0x1a, 0xbd,
  0x78, 0x62, 0x87, 0x3d, 0x57, 0xec, 0x51, 0x3c, 0xc4, 0xeb, 0x45, 0x3d,
  0xb4, 0xdb, 0xbb, 0x3c, 0x49, 0xda, 0x96, 0xbd, 0x16, 0x6d, 0xb4, 0xbd,
  0xbf, 0xef, 0x6d, 0x3d, 0xb2, 0xbb, 0x80, 0x3c, 0xab, 0x51, 0x56, 0x3c,
  0x91, 0xea, 0xb5, 0x3c, 0x3b, 0x17, 0xb7, 0xbd, 0xd8, 0xf3, 0x13, 0xba,
  0xc3, 0x49, 0x52, 0x3d, 0xbc, 0xfb, 0xca, 0x3c, 0x47, 0x09, 0x8f, 0xbd,
  0x3c, 0x7e, 0x43, 0x3d, 0xcb, 0xb6, 0xa6, 0xbd, 0x3a, 0x00, 0xfe, 0xbc,
  0x5c, 0xef, 0xc5, 0x39, 0x66, 0xd5, 0x2d, 0x3d, 0xc1, 0x6c, 0xb7, 0xbd,
  0xa2, 0x59, 0x3d, 0xbd, 0xec, 0x74, 0x09, 0x3d, 0xad, 0x15, 0x2c, 0xbd,
  0x12, 0x88, 0x26, 0xbd, 0x1e, 0x7a, 0x2c, 0x3d, 0x0f, 0x2d, 0x82, 0x3c,
  0x77, 0x4d, 0x34, 0x3d, 0x50, 0x32, 0xe1, 0xbc, 0x08, 0x40, 0x89, 0xbd,
  0x7b, 0x15, 0x73, 0xbc, 0xe7, 0x50, 0x8f, 0x3d, 0xc8, 0x72, 0x13, 0xbd,
  0x03, 0xa6, 0x01, 0x3d, 0x74, 0x90, 0x2c, 0xbd, 0xce, 0x3f, 0x09, 0xbd,
  0x4b, 0xb2, 0x25, 0x3d, 0xbf, 0x5d, 0xeb, 0xbc, 0x31, 0x10, 0x8d, 0xbb,
  0x92, 0xc0, 0x9a, 0xbd, 0x5e, 0x59, 0xb7, 0xbc, 0x76, 0x26, 0x41, 0x3d,
  0xdc, 0x81, 0x00, 0x3d, 0xe5, 0x56, 0x1b, 0xbc, 0xc1, 0x62, 0x1a, 0x3d,
  0xce, 0x92, 0xf6, 0xbc, 0xd5, 0xf3, 0xc7, 0x3c, 0xfd, 0xe1, 0x80, 0x3d,
  0x45, 0x92, 0xae, 0x3c, 0xbd, 0x8f, 0x94, 0xbc, 0x72, 0x71, 0x63, 0x3d,
  0xb3, 0xfa, 0x46, 0xbd, 0xb0, 0xed, 0x8d, 0xbd, 0xbc, 0x63, 0x95, 0xbd,
  0x78, 0xa6, 0x56, 0x3d, 0x95, 0xdd, 0xea, 0xbc, 0x11, 0x22, 0x8c, 0x3c,
  0xd5, 0xb8, 0x49, 0x3c, 0xd7, 0x8b, 0x46, 0x3d, 0xe0, 0x99, 0x55, 0xbd,
  0xa8, 0x0e, 0x0f, 0x3b, 0xb3, 0xb4, 0x66, 0x3d, 0xae, 0xa4, 0x1f, 0x3d,
  0x34, 0x35, 0xe5, 0xbc, 0xf2, 0x95, 0x85, 0xbd, 0x98, 0x4c, 0x6b, 0xbd,
  0xf1, 0x67, 0xd1, 0xbc, 0xcb, 0x02, 0x9c, 0xbd, 0x6a, 0xb6, 0x2f, 0x3d,
  0x53, 0xd4, 0xfc, 0x3c, 0xd0, 0x65, 0x67, 0xbd, 0x69, 0x0e, 0xa7, 0xbc,
  0x43, 0xd4, 0x86, 0x3c, 0xd5, 0x26, 0x7a, 0xbd, 0x26, 0x54, 0x48, 0x3d,
  0xf7, 0x41, 0xb3, 0xbd, 0x1d, 0x98, 0x77, 0x3d, 0xdb, 0x6a, 0x9c, 0xbc,
  0xa0, 0x79, 0xa1, 0x3c, 0xfa, 0x45, 0xea, 0x3c, 0x83, 0x9b, 0xaa, 0xbd,
  0x6a, 0x87, 0x75, 0xbd, 0xec, 0xfc, 0x9c, 0xbd, 0x94, 0x60, 0x4e, 0x3d,
  0x60, 0x9a, 0xd2, 0x3c, 0x3f, 0xd7, 0xba, 0x3c, 0xef, 0xc2, 0x0c, 0xbd,
  0x8f, 0xbf, 0xed, 0xbc, 0x27, 0xa5, 0x17, 0xbd, 0xe9, 0xab, 0xb6, 0xbd,
  0xfc, 0x91, 0x69, 0xbc, 0xca, 0xe1, 0xa9, 0xbd, 0xe2, 0xa4, 0x56, 0x3d,
  0x82, 0x0b, 0xf9, 0x3c, 0x1d, 0x5a, 0xe3, 0x3c, 0x52, 0x92, 0x70, 0xbd,
  0x37, 0x79, 0x02, 0xbd, 0xb1, 0xfd, 0xaf, 0xbc, 0x98, 0x3b, 0xda, 0x3c,
  0x00, 0x56, 0x98, 0xbd, 0xc4, 0xc6, 0x15, 0xbd, 0x76, 0xe9, 0x69, 0xbd,
  0xc0, 0xd5, 0x08, 0xbc, 0x0c, 0x5c, 0x85, 0xbd, 0xb8, 0x42, 0xac, 0xbd,
  0xfc, 0x67, 0x3b, 0xbd, 0x2f, 0xdf, 0x26, 0xbd, 0xfe, 0x06, 0xff, 0xbc,
  0x37, 0x90, 0x3f, 0x3c, 0x32, 0xb2, 0x89, 0x3d, 0x1b, 0x70, 0xa3, 0xbd,
  0xad, 0x8b, 0xa2, 0xbd, 0x4e, 0x0d, 0x49, 0x3d, 0x34, 0xda, 0x04, 0x3d,
  0x75, 0x8c, 0x1b, 0x3d, 0x44, 0xab, 0xac, 0x3c, 0x65, 0x63, 0x56, 0x3d,
  0x0f, 0xcd, 0xd0, 0x3c, 0xe3, 0x3b, 0x83, 0xbc, 0xf3, 0x86, 0x7b, 0xbd,
  0x3e, 0x12, 0x01, 0x3c, 0xf4, 0x8b, 0x7f, 0x3d, 0x16, 0x40, 0xa3, 0xbc,
  0x41, 0xd4, 0xa2, 0x3c, 0xc4, 0x79, 0xb0, 0xbd, 0xab, 0x55, 0x0e, 0x3c,
  0x45, 0x1f, 0x62, 0x3d, 0xe1, 0x31, 0x7a, 0xbd, 0x73, 0xc8, 0x5f, 0x3c,
  0x8a, 0x70, 0xe2, 0x3b, 0x0a, 0xe8, 0x6a, 0xbc, 0x27, 0xa0, 0x64, 0x3d,
  0x01, 0x79, 0x09, 0xbd, 0x3b, 0x3f, 0x43, 0x3d, 0x1e, 0x45, 0xb4, 0xbc,
  0x51, 0xb4, 0x9f, 0xbd, 0xfd, 0xd3, 0x15, 0xbd, 0x66, 0x71, 0x66, 0x3b,
  0x62, 0x0e, 0x2f, 0x3c, 0x92, 0x5b, 0x15, 0xbd, 0x61, 0xe2, 0x28, 0x3d,
  0xc6, 0x7a, 0x64, 0xbd, 0xd5, 0x64, 0x35, 0xbc, 0x3e, 0xf2, 0xb0, 0xbd,
  0x35, 0x1b, 0x12, 0xbb, 0x0b, 0x6c, 0x46, 0xbd, 0x1c, 0x1c, 0xeb, 0x3c,
  0xbf, 0x9b, 0x4c, 0xbd, 0xd7, 0xf7, 0xc3, 0xbd, 0x62, 0x01, 0x25, 0xbc,
  0xf7, 0x83, 0x58, 0xbd, 0x9f, 0xc6, 0x6d, 0xbd, 0xf3, 0xf1, 0xa2, 0xbd,
  0x0f, 0xc3, 0x29, 0x3d, 0x97, 0x3c, 0x2b, 0x3c, 0xca, 0xa7, 0x9e, 0x3c,
  0xbb, 0x97, 0x2a, 0xba, 0x73, 0xd9, 0xb5, 0xbc, 0xe8, 0x60, 0x60, 0x3d,
  0x17, 0xea, 0x10, 0x3d, 0x43, 0x41, 0x7a, 0xbd, 0x00, 0xda, 0x3f, 0x3d,
  0x10, 0x00, 0x3e, 0xbd, 0xd9, 0x5c, 0x51, 0xbd, 0xb4, 0xa1, 0x4d, 0x3c,
  0xcb, 0x12, 0x4f, 0xbd, 0x29, 0xb6, 0x4e, 0xbc, 0x3d, 0xaf, 0x7e, 0x3d,
  0x63, 0xbf, 0x35, 0x3d, 0xb6, 0x6f, 0x8a, 0xbd, 0xb7, 0xd2, 0xa1, 0xbd,
  0x37, 0x97, 0x18, 0xbd, 0xe2, 0xca, 0x75, 0xbc, 0xa6, 0x2c, 0x01, 0x3d,
  0xfa, 0xb4, 0xbd, 0xbd, 0x9b, 0x6d, 0x9a, 0xbd, 0x8a, 0xcb, 0xb0, 0xbd,
  0x7a, 0xd7, 0x10, 0x3d, 0x7e, 0xaf, 0xdf, 0xbc, 0x7b, 0xf5, 0x3c, 0x3d,
  0x07, 0x52, 0xbe, 0xbc, 0x45, 0x68, 0x85, 0xbc, 0x57, 0xa0, 0x33, 0xbd,
  0x4f, 0x82, 0xac, 0x3c, 0x81, 0xa6, 0x64, 0x3d, 0x98, 0x72, 0x49, 0x3d,
  0x43, 0x78, 0x43, 0xbd, 0xad, 0x37, 0x79, 0xbd, 0xc5, 0x47, 0x82, 0xbb,
  0x7c, 0x93, 0x91, 0xbd, 0x7b, 0xd7, 0x96, 0x3c, 0x33, 0x92, 0x64, 0x3d,
  0x69, 0x57, 0x3f, 0xbd, 0xc6, 0x9d, 0x69, 0x3d, 0xaf, 0x2d, 0xad, 0xbc,
  0xb5, 0x45, 0x3b, 0xbd, 0x5c, 0x16, 0xb7, 0xba, 0x5f, 0x3c, 0x27, 0xbd,
  0x88, 0x39, 0x94, 0xbd, 0x2c, 0xed, 0x43, 0x3a, 0xcd, 0x4c, 0x0f, 0x3c,
  0x40, 0xde, 0x67, 0x3d, 0xe6, 0xc1, 0x77, 0xbd, 0x2b, 0xbe, 0x2c, 0x3d,
  0x50, 0x05, 0x49, 0xbd, 0x11, 0x9f, 0xb4, 0xbd, 0xae, 0xeb, 0xd9, 0xbc,
  0x8f, 0x05, 0xfa, 0xbc, 0xd1, 0xc3, 0x6f, 0xbd, 0xe1, 0xc2, 0x35, 0xbd,
  0xbb, 0x7b, 0xa9, 0xbd, 0xf2, 0xdb, 0xba, 0xbd, 0x2e, 0x58, 0x18, 0x3d,
  0xcb, 0xad, 0x88, 0x3c, 0x49, 0x2e, 0x5e, 0x3d, 0x1f, 0x89, 0xa8, 0xbd,
  0xcd, 0x96, 0x76, 0xbc, 0x2b, 0xc7, 0xc5, 0x3a, 0xf3, 0xde, 0xc0, 0xbd,
  0x1c, 0x77, 0xa2, 0xbb, 0xa6, 0x84, 0x47, 0x3d, 0xcc, 0x1a, 0x85, 0xbd,
  0xf6, 0x73, 0xe7, 0x3c, 0x9b, 0x71, 0x5a, 0xbc, 0x68, 0x55, 0x15, 0xbd,
  0xc0, 0x32, 0x43, 0xbd, 0x39, 0xd0, 0xc2, 0xbc, 0x18, 0x05, 0x9c, 0x3c,
  0xff, 0x85, 0xcc, 0x3c, 0x2e, 0x12, 0xb3, 0x3b, 0x3c, 0x8c, 0x99, 0x39,
  0xb3, 0x7a, 0x01, 0xbc, 0xd7, 0x5a, 0x56, 0xbd, 0x5f, 0xb8, 0xb6, 0xbd,
  0xec, 0xeb, 0x52, 0xbd, 0x53, 0x09, 0x3c, 0x3d, 0x74, 0x6e, 0x03, 0xbd,
  0xc5, 0xe1, 0x51, 0x3d, 0xcf, 0x28, 0x1d, 0x3c, 0x64, 0x83, 0x41, 0x3d,
  0xff, 0xbc, 0x01, 0x3d, 0x81, 0x82, 0xa6, 0xbb, 0xa7, 0x27, 0xb0, 0xbd,
  0xfc, 0xeb, 0x9c, 0xbd, 0xf4, 0x5a, 0x04, 0x3b, 0x09, 0xe7, 0xc9, 0xbd,
  0x1d, 0xea, 0x31, 0xbb, 0x98, 0xce, 0x80, 0x3d, 0x27, 0x89, 0x7d, 0xbd,
  0x8c, 0x10, 0x53, 0x3b, 0xa2, 0xf4, 0xb8, 0x3c, 0xa6, 0x09, 0x5f, 0xbd,
  0x53, 0xbc, 0x50, 0x3d, 0x18, 0x80, 0xbe, 0xbd, 0xf4, 0x3c, 0x49, 0xbc,
  0x0b, 0xf5, 0x97, 0xbd, 0xff, 0x9e, 0x91, 0xbd, 0xcb, 0x8e, 0x82, 0x3d,
  0x30, 0x8e, 0x82, 0xbd, 0xb1, 0xae, 0x04, 0x3d, 0xe6, 0x3f, 0x9c, 0xbc,
  0x0c, 0xa9, 0x7b, 0x3d, 0xbe, 0xf1, 0x76, 0x3d, 0xec, 0xf6, 0x88, 0xbc,
  0xbd, 0xc7, 0xfc, 0xbc, 0x5f, 0x31, 0x83, 0xbd, 0x6a, 0x6a, 0x92, 0xbd,
  0x6b, 0x92, 0xa0, 0xbd, 0x4f, 0x72, 0x31, 0x3c, 0x93, 0xbd, 0x68, 0x3d,
  0x32, 0x06, 0x51, 0xbd, 0x1d, 0x6a, 0xb3, 0xba, 0x61, 0x96, 0x97, 0xbb,
  0x16, 0x8e, 0x03, 0x3d, 0x28, 0xb3, 0xf9, 0x3c, 0x65, 0xa3, 0x11, 0xbd,
  0xd4, 0x31, 0x0e, 0xbc, 0x33, 0x17, 0x0f, 0x3b, 0x2b, 0x9f, 0x0c, 0x3d,
  0xb5, 0x5d, 0xbf, 0xbd, 0x32, 0xe1, 0x4d, 0xbb, 0xb8, 0xdb, 0x58, 0x3d,
  0x74, 0x76, 0xbe, 0xbd, 0x15, 0xc7, 0x39, 0x3d, 0x0b, 0x1f, 0x65, 0x3c,
  0x8d, 0xbb, 0x15, 0xbc, 0xf7, 0x0e, 0x2c, 0xbd, 0x12, 0x2e, 0x8e, 0xbd,
  0x64, 0x2b, 0xcf, 0x3c, 0x28, 0xb5, 0x94, 0xbb, 0x3a, 0x98, 0x33, 0xbd,
  0x4d, 0x73, 0x6c, 0x3d, 0x82, 0xe5, 0x80, 0xbd, 0x5d, 0x70, 0xbd, 0xbc,
  0x7f, 0xc4, 0xac, 0xbd, 0xfb, 0x29, 0x29, 0xbd, 0xa1, 0xd4, 0xb7, 0xbc,
  0x0b, 0xfe, 0x63, 0x3d, 0xc6, 0x15, 0x3e, 0x3d, 0x94, 0xcf, 0x4f, 0x3c,
  0xfb, 0x73, 0xd8, 0xbc, 0xc5, 0x0b, 0xaa, 0xbd, 0x0c, 0xa0, 0x81, 0x3d,
  0xcd, 0x51, 0x52, 0x3b, 0x5b, 0xe9, 0xc8, 0x3c, 0xb4, 0x1f, 0x43, 0xb9,
  0x26, 0x7f, 0x13, 0x3d, 0xd9, 0xb7, 0x83, 0x3c, 0x9c, 0x03, 0xb5, 0xbc,
  0xfc, 0xd2, 0x9c, 0xbd, 0x4b, 0x99, 0x07, 0x3d, 0x94, 0x82, 0x04, 0x3d,
  0x7e, 0x65, 0xd6, 0xbc, 0x5f, 0x0a, 0x54, 0x3d, 0x7a, 0xa3, 0x35, 0xbd,
  0xe9, 0x58, 0x60, 0xbd, 0x16, 0x2a, 0x34, 0x3b, 0x0c, 0x91, 0x90, 0xbd,
  0xca, 0x6b, 0x23, 0x3d, 0xe8, 0xeb, 0x79, 0xbc, 0x98, 0x6e, 0x25, 0x3d,
  0x41, 0xf8, 0x9d, 0xbd, 0xe1, 0x68, 0x5f, 0x3c, 0x9b, 0x21, 0x99, 0xbd,
  0xa0, 0xa2, 0x73, 0xbd, 0xd8, 0x5f, 0x04, 0x3d, 0xc0, 0x35, 0xcc, 0x39,
  0x70, 0x69, 0x92, 0xbd, 0x1d, 0xbe, 0x3f, 0x3d, 0xd5, 0xb2, 0xed, 0xbc,
  0x07, 0x3f, 0x59, 0xbd, 0x1b, 0x58, 0xae, 0xbd, 0xfd, 0x1e, 0xaa, 0xbd,
  0x27, 0xde, 0xd1, 0x3c, 0x71, 0x91, 0x31, 0xbd, 0xb9, 0xbd, 0x01, 0xbd,
  0x74, 0xfb, 0xd1, 0xb9, 0x4d, 0x01, 0x6f, 0x3c, 0xe2, 0x69, 0xe7, 0xbc,
  0xc3, 0xaa, 0x73, 0xbd, 0x43, 0x82, 0x39, 0xbd, 0x5c, 0x8c, 0x3f, 0xbd,
  0xa2, 0x20, 0x93, 0xbd, 0xc5, 0xf2, 0x42, 0x3d, 0x04, 0xc2, 0xe8, 0xbc,
  0xc7, 0x77, 0x7f, 0xbd, 0x99, 0x06, 0x5a, 0x3b, 0xed, 0x63, 0x20, 0xbd,
  0x66, 0x7d, 0xb4, 0xbd, 0xf8, 0x04, 0x6b, 0xbc, 0x87, 0x89, 0xb8, 0xbd,
  0xf2, 0x50, 0x39, 0x3d, 0xef, 0x0b, 0x5e, 0xbd, 0xe1, 0x00, 0x1b, 0xbd,
  0xdf, 0x87, 0xb7, 0xbd, 0xdb, 0x0a, 0xba, 0xbd, 0x54, 0xf8, 0xa4, 0x3c,
  0xba, 0x62, 0xef, 0xbc, 0x91, 0x42, 0x4d, 0xbd, 0xca, 0xac, 0x5b, 0xbd,
  0x52, 0x69, 0x7d, 0xbc, 0x3e, 0xac, 0x5a, 0xbd, 0xa2, 0x39, 0x72, 0x3d,
  0x1d, 0x2b, 0x9e, 0x3c, 0x9b, 0xea, 0x36, 0x3d, 0xb6, 0x76, 0xe9, 0xbc,
  0x1e, 0xec, 0x8e, 0xbd, 0x4c, 0x04, 0x1a, 0x3c, 0xc9, 0xa4, 0x86, 0xbd,
  0x21, 0x75, 0x82, 0xbd, 0x40, 0xa7, 0xa4, 0xbd, 0x9a, 0x0e, 0x04, 0xbd,
  0x48, 0x84, 0xb2, 0xbd, 0xd8, 0x2a, 0x2f, 0xbd, 0xb1, 0x50, 0x88, 0xbd,
  0x0e, 0xc5, 0x9b, 0xbd, 0x11, 0x62, 0x80, 0xbc, 0xd2, 0x10, 0x6d, 0x3c,
  0x9b, 0xe5, 0x00, 0xbd, 0xc7, 0x9c, 0x0f, 0x3c, 0x42, 0xdb, 0x3e, 0x3c,
  0xfb, 0xc0, 0x2e, 0xbd, 0x12, 0xb8, 0xb1, 0xbc, 0x0a, 0x94, 0x89, 0xbd,
  0x94, 0x4a, 0xf6, 0xbc, 0x71, 0x13, 0xbc, 0xbd, 0x90, 0xd0, 0x6c, 0xbd,
  0xcf, 0x91, 0x61, 0xbd, 0x1c, 0x14, 0x84, 0x3a, 0x5b, 0x11, 0x23, 0x3d,
  0xdd, 0x85, 0x4b, 0x3d, 0x8d, 0x84, 0xb1, 0xbd, 0x81, 0xa6, 0x5f, 0x3c,
  0x73, 0x6f, 0xbc, 0xbc, 0xe9, 0x04, 0x02, 0xbc, 0x6e, 0x01, 0xe1, 0x3c,
  0x95, 0x98, 0x7e, 0x3d, 0xcf, 0x35, 0xa7, 0xbd, 0x14, 0x30, 0x6d, 0x3d,
  0xbe, 0x12, 0x84, 0xbd, 0xe5, 0xb1, 0x6f, 0x3d, 0xfe, 0x0c, 0x9e, 0xbc,
  0x4f, 0x4b, 0x77, 0x3d, 0x5c, 0x5c, 0xd0, 0xbc, 0x54, 0x70, 0x54, 0xbc,
  0xc7, 0x3e, 0x05, 0x3c, 0x38, 0x30, 0x00, 0xbd, 0x74, 0x37, 0x02, 0x3c,
  0xa1, 0x8c, 0x82, 0xbd, 0xc8, 0x00, 0x3f, 0xbc, 0x93, 0xef, 0x39, 0xbd,
  0x8d, 0x1f, 0xba, 0x3c, 0xac, 0x1b, 0x27, 0xbc, 0xa8, 0x91, 0xbf, 0xbc,
  0xe2, 0x93, 0x2b, 0x3d, 0x74, 0x60, 0x39, 0x3d, 0x85, 0x58, 0xae, 0xbd,
  0x5f, 0xbe, 0x32, 0x3b, 0xda, 0xe9, 0x67, 0xbd, 0xa3, 0x68, 0x47, 0x3c,
  0x64, 0x75, 0x3c, 0x3d, 0x13, 0x88, 0x4e, 0x3d, 0x1d, 0x50, 0x6f, 0x3d,
  0x2a, 0xdb, 0x4e, 0x3d, 0xf4, 0xdf, 0x85, 0xbb, 0xb6, 0x45, 0x50, 0x3c,
  0xde, 0xca, 0x05, 0xbd, 0x92, 0x27, 0x5e, 0x3d, 0x7f, 0xf1, 0xa2, 0x3b,
  0x70, 0xe5, 0x11, 0x3d, 0x09, 0x89, 0x2f, 0xbd, 0x48, 0x94, 0xc0, 0x3c,
  0xa1, 0x93, 0x5d, 0x3c, 0xd2, 0x4b, 0x54, 0xbd, 0x43, 0x9d, 0xb3, 0xbc,
  0xff, 0xf9, 0xf1, 0x3b, 0x98, 0xd8, 0x5e, 0x3d, 0x7e, 0x58, 0x26, 0xbd,
  0x66, 0xf8, 0xa5, 0x3c, 0x4b, 0x81, 0x31, 0xbd, 0xb8, 0x57, 0x35, 0xbd,
  0x46, 0x38, 0xf0, 0xbc, 0x8d, 0xec, 0xc3, 0x3c, 0xf2, 0xd8, 0x64, 0x3d,
  0xcd, 0x10, 0x81, 0x3c, 0xc7, 0x69, 0xbf, 0xbd, 0xd7, 0x3a, 0x37, 0xbd,
  0x20, 0xbf, 0x2a, 0x3c, 0xea, 0x32, 0xda, 0xbc, 0x7f, 0x43, 0x38, 0xbc,
  0x3f, 0x78, 0x6f, 0xbd, 0x7a, 0xa6, 0x79, 0x3d, 0x77, 0x92, 0x31, 0x3c,
  0x21, 0xfd, 0xbc, 0xbd, 0xb7, 0xb7, 0x85, 0x3c, 0x54, 0xeb, 0x28, 0x3d,
  0xad, 0xdd, 0x31, 0xbd, 0xac, 0x6c, 0x92, 0xbd, 0x1d, 0xa7, 0x17, 0x3c,
  0xae, 0x4a, 0x98, 0xbd, 0x86, 0xdc, 0x89, 0xbd, 0x67, 0x00, 0x66, 0x3d,
  0x59, 0x04, 0x45, 0x3d, 0xeb, 0xe7, 0x11, 0x3d, 0xc8, 0x83, 0xa5, 0xbd,
  0x26, 0xb9, 0x3b, 0xbd, 0xa3, 0x65, 0xbe, 0xbd, 0x7f, 0x41, 0xd6, 0xbc,
  0x9b, 0x60, 0x86, 0x3d, 0x7f, 0xb8, 0xbb, 0xbc, 0xe2, 0xc3, 0x0d, 0xbc,
  0x8b, 0xcf, 0x16, 0xbc, 0x0c, 0xb0, 0xf1, 0x3c, 0x4c, 0x96, 0x02, 0xbd,
  0xbd, 0xc4, 0xb4, 0xbd, 0xb0, 0xec, 0x50, 0x3d, 0x14, 0x45, 0x02, 0x3d,
  0xb2, 0x74, 0x36, 0x3d, 0xe8, 0x59, 0x59, 0xbd, 0x92, 0x97, 0x96, 0xbd,
  0x49, 0xee, 0x24, 0x3d, 0x33, 0x44, 0x18, 0xbd, 0xcf, 0x55, 0x90, 0xbd,
  0xf7, 0x2f, 0xa9, 0xbd, 0x2a, 0xbd, 0x66, 0x3d, 0x8b, 0xc6, 0x28, 0xbc,
  0xbf, 0xe8, 0xa3, 0xbd, 0x12, 0x65, 0xd2, 0x3c, 0x21, 0x50, 0xca, 0xbc,
  0x4d, 0x5f, 0x2d, 0x3c, 0x3c, 0xad, 0xb3, 0x3c, 0xf4, 0x3f, 0xb9, 0xbc,
  0x6c, 0x7c, 0xa0, 0xbd, 0x3b, 0x15, 0xbf, 0xbd, 0x77, 0xe8, 0x04, 0x3d,
  0x5f, 0x4e, 0x24, 0xbd, 0x6d, 0xae, 0x8b, 0x3c, 0xe3, 0x8d, 0x19, 0xbd,
  0x64, 0x4d, 0x69, 0x3c, 0xfe, 0x41, 0x91, 0x3c, 0xdb, 0x5e, 0x1c, 0xbc,
  0xfb, 0xa4, 0x79, 0x3d, 0xaf, 0x03, 0xe7, 0x3c, 0xd7, 0xfd, 0x08, 0x3d,
  0x09, 0x36, 0x05, 0x3d, 0xa6, 0x50, 0x50, 0xbd, 0xad, 0xc0, 0xb3, 0xbd,
  0x35, 0x73, 0xa1, 0xbd, 0xbf, 0x6a, 0x8b, 0xbd, 0xdd, 0x95, 0xb3, 0xbc,
  0x51, 0x69, 0x96, 0xbd, 0x0e, 0x29, 0xfd, 0x3a, 0x4d, 0x2d, 0x27, 0x3c,
  0xba, 0xc9, 0x66, 0x3d, 0x86, 0xb9, 0x9b, 0x3b, 0x7d, 0x38, 0x80, 0x3d,
  0xd5, 0x28, 0x4f, 0xbd, 0xa7, 0xc8, 0x0a, 0x3d, 0xf3, 0xae, 0x43, 0xbc,
  0xba, 0x59, 0x26, 0x3d, 0xf4, 0xee, 0x8b, 0xbd, 0xb5, 0x9b, 0xd3, 0x3c,
  0xf9, 0xb6, 0x2b, 0x3d, 0x11, 0x8c, 0xf9, 0x3a, 0x60, 0x01, 0x78, 0x3d,
  0x97, 0x10, 0xbb, 0xbd, 0xbb, 0x89, 0x7e, 0xbc, 0x13, 0x98, 0x45, 0xbd,
  0xad, 0xcf, 0x64, 0x3d, 0x33, 0x59, 0xff, 0x3c, 0xec, 0x67, 0x8c, 0x3c,
  0xe6, 0x60, 0xec, 0xbc, 0xa4, 0x95, 0x30, 0x3d, 0x0d, 0x8d, 0x0c, 0xbd,
  0x1c, 0x0a, 0x98, 0x3c, 0x14, 0x04, 0x66, 0x3d, 0xe5, 0x12, 0xa9, 0xbd,
  0x23, 0xdb, 0x1e, 0x3d, 0xa9, 0xcb, 0x81, 0x3c, 0xd3, 0x34, 0x50, 0xbd,
  0xb6, 0xc4, 0xa6, 0xbd, 0xd3, 0x64, 0x6e, 0x3d, 0x29, 0xa8, 0x25, 0x3d,
  0xff, 0x2c, 0xb2, 0xbd, 0xc9, 0x2a, 0x2e, 0x3d, 0x0b, 0x3d, 0xbb, 0xbc,
  0xd8, 0x48, 0xb4, 0xbd, 0x5c, 0x12, 0xdf, 0x3c, 0xf9, 0x95, 0x6c, 0x3d,
  0x8d, 0x25, 0xba, 0xbd, 0x9f, 0xed, 0x98, 0xbb, 0xec, 0xe7, 0x5e, 0x3d,
  0xba, 0x0e, 0x0b, 0xbd, 0x61, 0x73, 0xd0, 0xbc, 0xa9, 0x3d, 0x1c, 0xbd,
  0xd6, 0x5a, 0x80, 0xbd, 0x9f, 0x33, 0x0d, 0x3d, 0xeb, 0x1c, 0x66, 0x3d,
  0xaf, 0x24, 0x71, 0x3c, 0xc4, 0x18, 0x4a, 0xbc, 0xd0, 0x57, 0x45, 0xbd,
  0x0f, 0xb8, 0x75, 0xbb, 0xd9, 0xca, 0xeb, 0x3c, 0x3b, 0x48, 0x81, 0x3c,
  0x17, 0x99, 0x2d, 0x3d, 0x42, 0xe4, 0xe0, 0x3b, 0x50, 0x81, 0x0a, 0x3d,
  0x14, 0x05, 0x02, 0xbc, 0xae, 0x98, 0xa0, 0xbd, 0x2f, 0xd0, 0x06, 0xbd,
  0x9c, 0xdd, 0x74, 0xbd, 0x5b, 0xef, 0xfb, 0xbb, 0xb7, 0x1c, 0x04, 0xbc,
  0x50, 0xf6, 0x0c, 0xbd, 0xfb, 0x33, 0x96, 0xbd, 0x5f, 0x33, 0x7e, 0x3d,
  0x8f, 0x1f, 0x17, 0xbd, 0x82, 0xb2, 0x74, 0x3d, 0x2b, 0x1d, 0x19, 0x3d,
  0x44, 0xb1, 0x23, 0xbc, 0x36, 0x82, 0xc4, 0x3c, 0x04, 0x31, 0xc6, 0xbb,
  0x0e, 0x9d, 0xd1, 0x3c, 0xa9, 0xbd, 0x4e, 0xbd, 0x66, 0xc3, 0x0f, 0x3d,
  0x86, 0x3f, 0x25, 0xbc, 0x40, 0x1b, 0x8d, 0xbc, 0x17, 0xe1, 0x2e, 0xbd,
  0x4f, 0x95, 0x33, 0xbd, 0x41, 0x9d, 0x03, 0x3d, 0xd5, 0xe8, 0x42, 0xbd,
  0x36, 0xe0, 0xc3, 0x3a, 0xed, 0x58, 0x89, 0xbd, 0x5a, 0x74, 0x60, 0x3d,
  0x98, 0x40, 0x4b, 0x3d, 0x93, 0x56, 0x3a, 0x3c, 0x72, 0x4d, 0x50, 0x3d,
  0x99, 0x30, 0x65, 0xb9, 0x24, 0x7a, 0x6e, 0xbb, 0xd6, 0x5a, 0x40, 0xbd,
  0x9d, 0x5e, 0x4d, 0x3d, 0x4b, 0xb7, 0x9d, 0xbd, 0x10, 0x28, 0xaf, 0xbd,
  0xce, 0x7a, 0xbb, 0xbd, 0x46, 0x65, 0xbb, 0xbd, 0x6b, 0xe1, 0x51, 0xbc,
  0xa4, 0xa4, 0xa5, 0xbd, 0x56, 0xc8, 0x87, 0x3d, 0x81, 0x01, 0x8a, 0xbd,
  0x2f, 0xae, 0x41, 0xbd, 0x0b, 0xb0, 0x69, 0x3d, 0x1d, 0x0f, 0x4d, 0x3d,
  0x9a, 0xb2, 0x65, 0xbd, 0x44, 0xbf, 0x29, 0xbd, 0x1a, 0x95, 0xa6, 0xbc,
  0xc9, 0xc3, 0x8c, 0xbc, 0x2d, 0x93, 0x03, 0xbc, 0x75, 0xb4, 0xdc, 0xbb,
  0x03, 0xe1, 0x94, 0xbd, 0xc6, 0x63, 0xf8, 0x3c, 0x34, 0x6d, 0xed, 0x3c,
  0x5f, 0x6c, 0x6e, 0xbd, 0xd1, 0xe8, 0xfe, 0x3c, 0xae, 0x80, 0x31, 0xbd,
  0x0f, 0x0f, 0xb0, 0xbc, 0x91, 0x45, 0x1e, 0xbd, 0x02, 0x66, 0x93, 0x38,
  0x76, 0x26, 0x16, 0x3d, 0x53, 0x08, 0x20, 0x3d, 0x1b, 0x0e, 0x03, 0xbd,
  0x8e, 0x1a, 0x89, 0x3d, 0x59, 0x2e, 0xb7, 0x3c, 0xec, 0x6f, 0x03, 0x3d,
  0x1c, 0x9c, 0xf4, 0xbc, 0xc1, 0xac, 0x86, 0xbc, 0x98, 0x4d, 0xbb, 0x3c,
  0x46, 0x53, 0x96, 0xbc, 0x82, 0xc9, 0xb9, 0xbc, 0x57, 0xa4, 0x96, 0x3b,
  0x8e, 0x97, 0xb0, 0xbd, 0xa0, 0x4a, 0x53, 0xbd, 0x43, 0x9b, 0xaa, 0xbd,
  0x1c, 0x20, 0xf1, 0x3c, 0x45, 0x71, 0xb5, 0xbd, 0xb2, 0x93, 0x5c, 0xbd,
  0xb6, 0xe5, 0x41, 0x3c, 0x39, 0xe5, 0x43, 0xbd, 0xfa, 0xaa, 0x44, 0x3d,
  0xe8, 0x28, 0xba, 0xbd, 0x41, 0x4e, 0xb9, 0x3a, 0xfa, 0xbb, 0x92, 0xbd,
  0x76, 0x55, 0x65, 0x3c, 0x20, 0x65, 0xb5, 0xbc, 0x5b, 0x40, 0x02, 0x3d,
  0xfa, 0xd2, 0x20, 0xbd, 0x9a, 0x48, 0x99, 0x3a, 0xe8, 0x6e, 0x80, 0xbd,
  0x16, 0x2e, 0x56, 0xbd, 0xd5, 0xa5, 0x80, 0xbd, 0xc7, 0x5a, 0xbe, 0xbd,
  0xb2, 0xa4, 0x2b, 0xbd, 0xef, 0x34, 0xc2, 0xbd, 0xef, 0x90, 0xb5, 0x3b,
  0x43, 0x34, 0xa8, 0xbd, 0xfa, 0x40, 0x30, 0x3d, 0x89, 0xd7, 0x99, 0xbd,
  0x05, 0xaa, 0x20, 0xbd, 0xd1, 0x00, 0x8e, 0x3b, 0xfb, 0x8e, 0x09, 0xbd,
  0xaa, 0x84, 0xfc, 0xbc, 0xff, 0x3f, 0xb8, 0xbd, 0xd7, 0x19, 0x79, 0x3d,
  0xf1, 0xee, 0xb0, 0xbd, 0xad, 0x70, 0x6d, 0xbd, 0xf9, 0xf3, 0xcf, 0xbc,
  0x51, 0x2e, 0xa9, 0xbd, 0xd7, 0x20, 0xba, 0xbc, 0x3d, 0x58, 0x18, 0xbd,
  0x2e, 0x62, 0x52, 0x3d, 0x84, 0x2c, 0x63, 0x3d, 0x96, 0x20, 0xcb, 0xbc,
  0x86, 0xea, 0xbe, 0xbd, 0x8d, 0xd0, 0x24, 0x3d, 0x04, 0x5e, 0x9e, 0xbc,
  0xa6, 0x72, 0x7f, 0xbd, 0x2c, 0xfb, 0xe2, 0x3c, 0x95, 0x80, 0x3d, 0x3d,
  0x62, 0x51, 0xac, 0xbd, 0x0f, 0x2a, 0xba, 0x3b, 0x34, 0x51, 0x5b, 0x3d,
  0x34, 0x8c, 0x4b, 0x3d, 0x60, 0x76, 0x1c, 0x3d, 0x86, 0x6e, 0x98, 0x3c,
  0x5a, 0x5c, 0x5c, 0x3d, 0x35, 0x05, 0x08, 0x3d, 0xcc, 0xc7, 0x3b, 0xbc,
  0xf0, 0xb5, 0x50, 0x3c, 0x34, 0xac, 0xbb, 0xbd, 0xb3, 0x4a, 0xb9, 0xbc,
  0x12, 0x21, 0x12, 0x3d, 0x19, 0xe6, 0xa6, 0xbd, 0x06, 0x4a, 0x38, 0xbc,
  0x14, 0x5d, 0x83, 0xbd, 0x84, 0x21, 0x2b, 0xbd, 0xab, 0x77, 0x56, 0xbd,
  0x0b, 0x98, 0xc8, 0xbc, 0xe5, 0xda, 0x12, 0xbd, 0xe9, 0x37, 0xb4, 0x3c,
  0x6f, 0x74, 0x21, 0xbd, 0x11, 0x8c, 0x91, 0xbd, 0x84, 0xe1, 0x91, 0xbd,
  0x00, 0x3d, 0x98, 0xbd, 0x25, 0xba, 0xe5, 0xbc, 0x38, 0x48, 0xd4, 0x3a,
  0xdb, 0x70, 0xf4, 0x3c, 0xe3, 0xba, 0xb6, 0x3b, 0x1c, 0x97, 0x70, 0x3c,
  0xc2, 0xc5, 0xb8, 0xbd, 0x2d, 0x18, 0x66, 0x3c, 0xc0, 0xd5, 0x60, 0x3d,
  0x2d, 0x63, 0x27, 0x3c, 0x32, 0x09, 0x76, 0xbd, 0x04, 0x83, 0x07, 0x3b,
  0x39, 0x18, 0x36, 0x3d, 0x7a, 0xb7, 0x94, 0x3c, 0xe5, 0x73, 0x1d, 0xbb,
  0x04, 0x9e, 0x9c, 0xbd, 0x4b, 0x1b, 0xde, 0x3c, 0x1e, 0xe1, 0x8a, 0x3c,
  0xa4, 0x86, 0x8e, 0xbd, 0x02, 0x3a, 0x1e, 0xbc, 0x9c, 0x87, 0x7c, 0x3d,
  0xad, 0x42, 0x14, 0xbd, 0x8e, 0xdc, 0x2a, 0xbd, 0xd7, 0x20, 0x04, 0xbd,
  0xe1, 0x41, 0xbc, 0x3c, 0x3d, 0x4c, 0xd6, 0xbc, 0xcc, 0x13, 0xbf, 0xbd,
  0x29, 0xcc, 0x64, 0xbc, 0x26, 0x3a, 0x62, 0x3d, 0xec, 0xfc, 0x84, 0xbd,
  0x0a, 0xec, 0x5d, 0xbd, 0xa2, 0xdb, 0xd5, 0x3c, 0x9d, 0xdb, 0x75, 0x3d,
  0x89, 0xda, 0x0a, 0xbc, 0x23, 0x80, 0x33, 0xbc, 0xfb, 0xdc, 0x5c, 0xbd,
  0xa1, 0x24, 0xf7, 0xbc, 0xe5, 0x05, 0x0a, 0xbd, 0xdb, 0x57, 0xfb, 0x3c,
  0x37, 0xa4, 0x6e, 0xbd, 0xfd, 0xa0, 0xed, 0xbc, 0x21, 0xa9, 0xa4, 0xbd,
  0x04, 0x65, 0xbb, 0xbd, 0xd3, 0xed, 0xc9, 0xbc, 0x27, 0x01, 0x6b, 0xbd,
  0xdf, 0x60, 0xae, 0x3c, 0x0f, 0x3d, 0xb6, 0x3c, 0xe0, 0x0b, 0x47, 0x3d,
  0xd9, 0x2e, 0xad, 0xbd, 0xf7, 0x39, 0x86, 0xbd, 0xb2, 0xa6, 0x33, 0x3d,
  0xb7, 0x7b, 0xc3, 0x3c, 0x13, 0x16, 0x4b, 0xbd, 0xc0, 0xc2, 0x9a, 0xbc,
  0x4b, 0x1b, 0xd6, 0xbd, 0x5d, 0x63, 0x02, 0x3d, 0xb4, 0xd8, 0x50, 0xbd,
  0xd0, 0x12, 0xe3, 0x3c, 0x57, 0x55, 0xf6, 0xbc, 0xec, 0xef, 0xe3, 0xbc,
  0x23, 0x47, 0x55, 0x3d, 0x81, 0xa3, 0x7f, 0xbd, 0x01, 0x7a, 0x02, 0x3d,
  0xe9, 0x65, 0x44, 0xbd, 0x91, 0x0b, 0x4f, 0xbc, 0x9a, 0x66, 0xb4, 0xbc,
  0x13, 0xf3, 0x13, 0xbc, 0x5f, 0x6f, 0x80, 0x3d, 0xa3, 0x41, 0x1f, 0x3d,
  0xe6, 0xf0, 0xf8, 0xbc, 0x8b, 0xd9, 0x5c, 0x3d, 0x5b, 0xf1, 0x7f, 0x3c,
  0xb9, 0x62, 0xb7, 0xbd, 0x45, 0x77, 0x62, 0x3d, 0xfe, 0xdc, 0x8b, 0xbd,
  0x68, 0xea, 0x89, 0x3d, 0x2a, 0xfe, 0x57, 0xbd, 0xf7, 0x28, 0x1f, 0x3d,
  0xbc, 0x2e, 0x52, 0xbc, 0x11, 0xfd, 0x86, 0x3d, 0xa9, 0xb4, 0x9a, 0xbc,
  0xae, 0x82, 0xf1, 0xbc, 0xe9, 0xc2, 0x7a, 0x3d, 0x32, 0x23, 0xb8, 0x3b,
  0x17, 0x37, 0x43, 0xbc, 0xfc, 0x9f, 0x3b, 0xbd, 0xfa, 0x63, 0x75, 0xba,
  0x9f, 0xf3, 0xff, 0xbb, 0x0b, 0xd3, 0xb0, 0xbd, 0x6f, 0x3b, 0x9c, 0xbb,
  0x9b, 0xbc, 0xdc, 0xbc, 0x83, 0x75, 0x33, 0x3d, 0x96, 0xca, 0xad, 0xbd,
  0xe2, 0x35, 0x96, 0xbd, 0x90, 0xe6, 0xcc, 0xbc, 0xed, 0x1c, 0xb9, 0x3c,
  0xba, 0x17, 0x8e, 0x3d, 0x1e, 0x4b, 0x40, 0x3c, 0x9b, 0x44, 0x74, 0xbc,
  0x0a, 0xf1, 0xc0, 0x3b, 0x34, 0x57, 0x4e, 0x3d, 0xb0, 0xf8, 0x35, 0xbd,
  0xf5, 0x39, 0xc3, 0xbd, 0x0d, 0xf1, 0x01, 0xbc, 0x7c, 0x76, 0x26, 0xbd,
  0x3d, 0x03, 0xbe, 0xbd, 0x8e, 0xaf, 0x30, 0xbd, 0xcf, 0x81, 0x87, 0x3d,
  0xe4, 0x72, 0x2d, 0xbc, 0xf9, 0x49, 0x19, 0xbc, 0x04, 0x02, 0x04, 0x3c,
  0x9f, 0x1e, 0x10, 0x3d, 0x2a, 0xf1, 0x9f, 0xbb, 0x09, 0x56, 0x8b, 0xbc,
  0x17, 0x72, 0x37, 0x3d, 0x36, 0xfb, 0xe7, 0x3b, 0xb8, 0x6a, 0x45, 0xbd,
  0x3a, 0xf0, 0x67, 0xbd, 0xa5, 0xaa, 0xb3, 0xbd, 0x1f, 0xb3, 0x70, 0xbd,
  0x67, 0xb7, 0xad, 0x3b, 0x68, 0x6e, 0xb4, 0xbd, 0x87, 0x0c, 0x1b, 0x3d,
  0x77, 0x0c, 0x8e, 0xbd, 0xe9, 0x02, 0xad, 0xbb, 0x58, 0x9c, 0xc3, 0xbd,
  0x03, 0x30, 0x3c, 0x3d, 0xc1, 0xf0, 0x9f, 0xbd, 0x75, 0x71, 0x0b, 0x3d,
  0x8a, 0x90, 0x25, 0x3c, 0xf3, 0xbd, 0xa0, 0xbd, 0x7d, 0x9e, 0x4a, 0x3d,
  0x54, 0x29, 0x8d, 0x3d, 0x91, 0x89, 0xc1, 0xbd, 0x85, 0x16, 0xb0, 0xbd,
  0x18, 0xa1, 0x80, 0x3c, 0x44, 0x20, 0x21, 0xbd, 0x0f, 0x45, 0x4d, 0x3d,
  0x59, 0xe6, 0x2c, 0xbc, 0x55, 0xdb, 0xae, 0x3d, 0xf1, 0xde, 0x50, 0x3d,
  0xab, 0xe3, 0x73, 0xbd, 0x7b, 0x82, 0x23, 0x3e, 0x6a, 0xdc, 0xd2, 0xbd,
  0x15, 0xf9, 0x35, 0xbd, 0x6c, 0x71, 0x19, 0x3d, 0xf2, 0x08, 0x7f, 0x3e,
  0x48, 0xe7, 0x9b, 0xbd, 0xad, 0x09, 0x8d, 0xbd, 0x39, 0xaa, 0x86, 0xbd,
  0x50, 0xff, 0x36, 0x3e, 0x90, 0x52, 0x4e, 0x3e, 0xaa, 0x3e, 0x21, 0xbd,
  0x87, 0x90, 0xf4, 0xbd, 0x38, 0x57, 0x8f, 0xbd, 0x68, 0x39, 0x92, 0x3d,
  0x7b, 0x04, 0x4a, 0x3e, 0xb5, 0x25, 0xb6, 0xbd, 0xd4, 0x32, 0x1c, 0x3e,
  0x93, 0x37, 0xe8, 0x3d, 0xf6, 0x7f, 0xac, 0x3d, 0x73, 0xfb, 0xa0, 0xbc,
  0x8b, 0x3a, 0x1f, 0x3e, 0x7d, 0xf5, 0xd3, 0x3c, 0xca, 0xd7, 0xb2, 0x3d,
  0x94, 0x2c, 0xc2, 0x3c, 0x15, 0x3a, 0x3e, 0x3d, 0xfd, 0x22, 0xd5, 0x3d,
  0x20, 0x1c, 0x23, 0x3e, 0x04, 0x78, 0x8d, 0xbb, 0x98, 0x37, 0xa6, 0x3d,
  0x1e, 0xad, 0x28, 0x3e, 0xad, 0x8d, 0x6b, 0x3d, 0x12, 0x54, 0x0c, 0xbd,
  0x2c, 0x5d, 0x2b, 0x3e, 0x04, 0x67, 0x6f, 0x3d, 0x39, 0x4b, 0x7e, 0x3d,
  0xef, 0x8c, 0xd8, 0x3d, 0x5a, 0x9e, 0x33, 0x3e, 0xbd, 0x8d, 0xab, 0x3d,
  0xa3, 0xb2, 0x99, 0x3c, 0x7f, 0xee, 0xa7, 0x3d, 0xe9, 0x03, 0xa4, 0x3d,
  0xe2, 0x1d, 0x29, 0x3d, 0x7e, 0x50, 0x6b, 0xbd, 0x26, 0x6d, 0xb8, 0xbd,
  0x4c, 0xc6, 0xf8, 0xbb, 0xb1, 0xb9, 0x93, 0x3d, 0xad, 0xda, 0xa0, 0x3d,
  0x44, 0x6f, 0x90, 0x3b, 0x94, 0x6e, 0x31, 0x3e, 0xe9, 0xb9, 0xe0, 0xbc,
  0x56, 0xac, 0x1c, 0x3e, 0x59, 0x38, 0x59, 0xbd, 0xa9, 0x4b, 0x97, 0x3d,
  0x3a, 0x78, 0x82, 0x3d, 0x80, 0x61, 0x6e, 0x3d, 0x98, 0x98, 0xed, 0xbc,
  0x93, 0x7d, 0xb0, 0xba, 0xca, 0xad, 0x64, 0x3e, 0x3b, 0xdd, 0x97, 0xbd,
  0x40, 0x29, 0x7a, 0xbd, 0x25, 0x4a, 0x1e, 0xbd, 0xd0, 0x2f, 0x62, 0xba,
  0x6b, 0x71, 0x0d, 0xbc, 0x9d, 0xd5, 0x4b, 0x3d, 0x7e, 0x45, 0x1f, 0x3e,
  0xd8, 0x47, 0x3f, 0xbe, 0xc2, 0x9b, 0x22, 0xbe, 0x99, 0xa2, 0xeb, 0x3c,
  0x27, 0x5b, 0x2e, 0xbc, 0xb7, 0x68, 0x2c, 0xbd, 0x25, 0x93, 0x5e, 0xbe,
  0x05, 0x06, 0x28, 0xbe, 0xd7, 0xec, 0xf8, 0x3d, 0x7d, 0x38, 0xac, 0x3d,
  0xf4, 0x71, 0xea, 0x3d, 0xba, 0x91, 0x59, 0xbd, 0x7c, 0xe3, 0x4f, 0x3d,
  0x3f, 0x27, 0x67, 0x3e, 0xcd, 0x14, 0x18, 0x3e, 0x9d, 0x98, 0x18, 0x3d,
  0x38, 0xb1, 0xc6, 0x3b, 0xc7, 0x05, 0xf5, 0x3d, 0xae, 0xd4, 0x85, 0x3d,
  0xbb, 0x3b, 0xb8, 0x3d, 0x1a, 0x0b, 0x00, 0x3e, 0xff, 0xa4, 0x10, 0x3e,
  0x53, 0x2f, 0x8c, 0xbb, 0xf8, 0x90, 0xc5, 0x3d, 0x67, 0xb7, 0x40, 0x3d,
  0xe9, 0x20, 0x24, 0x3e, 0xc6, 0x77, 0x10, 0x3e, 0x29, 0xec, 0xee, 0x3c,
  0xb5, 0xa1, 0x81, 0x3d, 0xfa, 0xc9, 0x36, 0x3e, 0x2d, 0x71, 0xc9, 0x3d,
  0x5d, 0xcd, 0x26, 0x3d, 0x2a, 0xa2, 0xfb, 0x3c, 0x57, 0x50, 0x21, 0xbd,
  0xe7, 0xf0, 0xd8, 0x3b, 0xbc, 0x0c, 0x76, 0x3d, 0xfd, 0xf8, 0x1c, 0x3e,
  0x2b, 0x0a, 0x88, 0xbc, 0xac, 0x4a, 0x15, 0xbd, 0xb9, 0x39, 0x8c, 0x3d,
  0xbc, 0xc4, 0x73, 0x3e, 0x46, 0xb7, 0xa5, 0xb8, 0x0c, 0xd3, 0xd6, 0x3d,
  0xbf, 0xe7, 0x25, 0xbd, 0xc2, 0xf3, 0x05, 0x3e, 0x5b, 0xa6, 0xec, 0x3d,
  0x02, 0xc6, 0x95, 0x3d, 0xf0, 0x0c, 0x65, 0x3d, 0x01, 0xd0, 0x28, 0x3e,
  0x5b, 0x72, 0x76, 0x3d, 0xf8, 0x29, 0x9e, 0x3c, 0xd1, 0x91, 0x32, 0xbb,
  0xb9, 0x26, 0xa8, 0x3d, 0x8d, 0x21, 0x8b, 0x3d, 0x44, 0x95, 0x81, 0xbd,
  0x96, 0x29, 0x01, 0xbd, 0x0f, 0x5c, 0x54, 0xbe, 0xc6, 0xd9, 0x9d, 0xbd,
  0xfc, 0x7e, 0x08, 0x3e, 0xb1, 0x9b, 0xdd, 0x3c, 0xab, 0xc6, 0x33, 0x3d,
  0x3f, 0x29, 0x47, 0xbe, 0x98, 0x33, 0xf7, 0xbd, 0x50, 0x0d, 0x80, 0x3b,
  0xe7, 0x11, 0xfa, 0x3d, 0xe6, 0xbf, 0x7d, 0xbd, 0x09, 0xe4, 0x26, 0xbe,
  0x61, 0x22, 0x29, 0xbd, 0x9e, 0x02, 0x03, 0x3d, 0xc8, 0xb5, 0x88, 0xbd,
  0x8f, 0xed, 0x94, 0x3b, 0x5d, 0x73, 0xc2, 0xbd, 0x78, 0xe2, 0x8f, 0x3d,
  0x8f, 0xd0, 0xc1, 0x3c, 0x69, 0x36, 0x0a, 0x3d, 0xe2, 0xdc, 0xa9, 0xbc,
  0xd5, 0x4a, 0xad, 0x3b, 0x77, 0xbf, 0x33, 0x3e, 0x7b, 0xc1, 0x7a, 0x3c,
  0x70, 0x3f, 0x80, 0x3d, 0x68, 0xab, 0x0a, 0x3e, 0x1f, 0x34, 0x16, 0x3e,
  0x06, 0x75, 0x7c, 0x3d, 0x7a, 0x85, 0x7b, 0x3c, 0x7f, 0x2a, 0x1c, 0x3e,
  0x9a, 0x45, 0x33, 0x3e, 0xfb, 0x9e, 0xc5, 0x3d, 0x52, 0x9d, 0x33, 0x3c,
  0xd2, 0x4d, 0xe9, 0x3d, 0xc4, 0xc0, 0x0a, 0x3d, 0x91, 0x71, 0xd6, 0x3d,
  0x9d, 0x26, 0xf7, 0x3d, 0x0d, 0x96, 0x2a, 0x3e, 0x07, 0xca, 0xe9, 0x3d,
  0x33, 0x08, 0x51, 0x3d, 0x6e, 0x76, 0x5e, 0x3d, 0x77, 0xeb, 0xf4, 0x3d,
  0xb5, 0x7b, 0xb4, 0x3d, 0x74, 0x42, 0xe3, 0x3d, 0x98, 0x6c, 0x4e, 0x3d,
  0xdd, 0x55, 0x21, 0x3e, 0x7b, 0x70, 0x29, 0x3d, 0x2d, 0xb5, 0xc5, 0xbb,
  0xcf, 0x34, 0x99, 0x3d, 0x0b, 0x2f, 0xdb, 0x3d, 0x4c, 0x47, 0x84, 0x3d,
  0x8d, 0x09, 0xf9, 0x3d, 0xf5, 0xa1, 0x8a, 0x3d, 0xf4, 0x6e, 0xb5, 0x3d,
  0x4f, 0x98, 0x5c, 0x3d, 0x2e, 0x68, 0x85, 0x3d, 0xaa, 0x89, 0x92, 0x3d,
  0xf7, 0xd7, 0xed, 0x3d, 0x0e, 0xc6, 0xcc, 0x3d, 0x5b, 0x03, 0xa8, 0x3d,
  0x9d, 0x97, 0xda, 0x3c, 0xc1, 0xf6, 0xaf, 0xbd, 0xb3, 0x80, 0xc3, 0x3c,
  0x08, 0x6e, 0x32, 0x3e, 0x42, 0xdd, 0xf2, 0x3d, 0x3c, 0x08, 0xf9, 0x3d,
  0xf0, 0x81, 0x03, 0xbe, 0x28, 0xdb, 0x83, 0x3c, 0x0e, 0xe1, 0x8b, 0xbd,
  0xfb, 0xd2, 0x56, 0x3e, 0xef, 0xe0, 0xb6, 0xbb, 0xdc, 0x43, 0x92, 0xbd,
  0x53, 0xf2, 0x0a, 0xbd, 0x52, 0xdb, 0xbd, 0x3d, 0x7c, 0x87, 0xed, 0xbc,
  0xc5, 0xc9, 0xbb, 0xbb, 0xbe, 0x40, 0xb6, 0xbd, 0xed, 0x65, 0x3a, 0xbd,
  0x1d, 0xb7, 0x92, 0x3d, 0x36, 0x6a, 0x12, 0x3c, 0x1a, 0xa7, 0x61, 0xbd,
  0x3f, 0x6c, 0x59, 0xbb, 0x08, 0xdd, 0x18, 0x3e, 0x6d, 0x8a, 0x17, 0x3e,
  0xc0, 0x51, 0xe9, 0x3d, 0xb4, 0x69, 0xdf, 0x3d, 0xd1, 0xec, 0x99, 0x3d,
  0x5b, 0xc2, 0x73, 0x3d, 0xb1, 0x14, 0x29, 0xbc, 0x74, 0x0c, 0x8e, 0xbc,
  0xe8, 0xb5, 0x95, 0x3d, 0x1a, 0x44, 0x78, 0x3d, 0x15, 0xfe, 0x41, 0x3d,
  0xaa, 0x92, 0xce, 0xbb, 0x15, 0x46, 0x1a, 0x3d, 0x04, 0x14, 0xf9, 0xbb,
  0x91, 0xe7, 0xf9, 0xbc, 0xff, 0x3e, 0x9b, 0xb9, 0x26, 0x82, 0x1b, 0x3e,
  0xbb, 0x85, 0xc6, 0x3d, 0x0b, 0x3a, 0x5b, 0xbd, 0x79, 0x78, 0x36, 0xbc,
  0x35, 0x8b, 0x83, 0x3d, 0x27, 0xc4, 0x97, 0x3d, 0xec, 0x46, 0xef, 0xbc,
  0x88, 0x17, 0x64, 0x3d, 0x19, 0x94, 0xac, 0x3d, 0x92, 0x83, 0x11, 0x3c,
  0xb5, 0x8f, 0xea, 0x3c, 0xb8, 0x78, 0x11, 0x3e, 0x72, 0xac, 0xdf, 0x3c,
  0x99, 0x00, 0x01, 0x3c, 0xc6, 0xb6, 0x72, 0xbd, 0x1e, 0xf1, 0x40, 0x3e,
  0xfa, 0xc8, 0xc3, 0x3d, 0xe8, 0x0c, 0x21, 0x3e, 0x11, 0x25, 0x63, 0x3d,
  0x56, 0xcf, 0x0e, 0x3e, 0xbb, 0xad, 0x84, 0x3e, 0x0e, 0xd7, 0x42, 0x3d,
  0xd2, 0x0a, 0x42, 0x3d, 0x06, 0x5f, 0x28, 0xbe, 0x0d, 0xda, 0x2e, 0x3c,
  0xc4, 0xe9, 0xe3, 0x3d, 0x60, 0xe6, 0x7a, 0x3d, 0xb4, 0xf8, 0xa1, 0x3c,
  0xe5, 0x64, 0x62, 0x3c, 0x17, 0xd4, 0x0f, 0xbd, 0x9d, 0x85, 0x42, 0x3d,
  0xb6, 0x17, 0x4e, 0x3e, 0xe6, 0x65, 0xe6, 0xbb, 0x47, 0xf9, 0x80, 0xbd,
  0x11, 0x45, 0xae, 0xbd, 0xa7, 0x84, 0x64, 0x3a, 0xf5, 0xc2, 0xb8, 0xbd,
  0x08, 0xdd, 0x01, 0x3e, 0x19, 0xf1, 0x0e, 0xbe, 0xf1, 0x5e, 0xed, 0xb9,
  0x63, 0xd1, 0x07, 0x3e, 0xad, 0xf4, 0xd5, 0x3d, 0xe7, 0xf0, 0xd1, 0xbc,
  0xba, 0x56, 0x4b, 0x3d, 0x8d, 0xd7, 0xe2, 0x3d, 0x51, 0x95, 0x0b, 0x3e,
  0xa4, 0x75, 0x17, 0x3b, 0xe1, 0x99, 0x17, 0x3e, 0x6c, 0x09, 0xdf, 0x3c,
  0xec, 0x8c, 0x76, 0x3d, 0x73, 0x70, 0xcb, 0xbc, 0xe4, 0x36, 0x71, 0x3b,
  0xb7, 0x49, 0xb5, 0x3d, 0xdf, 0x16, 0x41, 0x3e, 0x36, 0x06, 0x92, 0x3d,
  0xc9, 0x68, 0xc3, 0x3d, 0x5d, 0x67, 0x03, 0xbc, 0x03, 0x8a, 0xe8, 0x3d,
  0xcc, 0x07, 0x67, 0x3d, 0xa6, 0x74, 0x0f, 0x3d, 0x6d, 0x22, 0x3d, 0x3e,
  0xd1, 0x96, 0x34, 0x3c, 0x6e, 0x4b, 0xd8, 0x3c, 0xe4, 0x5f, 0x87, 0x3d,
  0x54, 0x9f, 0xae, 0x3c, 0x87, 0x22, 0x9e, 0x3d, 0xfc, 0x3c, 0x8a, 0xbc,
  0x3a, 0x3c, 0xf7, 0x3d, 0x28, 0x4e, 0x6f, 0x3d, 0x67, 0x94, 0x1f, 0x3e,
  0x55, 0x1a, 0x5c, 0x3d, 0x89, 0xcc, 0x40, 0x3e, 0x6d, 0x33, 0x8b, 0x3d,
  0x48, 0xcd, 0x1e, 0x3e, 0x43, 0x76, 0xd7, 0xbb, 0x14, 0x06, 0x0c, 0x3e,
  0xf7, 0x0f, 0x59, 0x3c, 0x1c, 0xa2, 0x5a, 0x3d, 0xd3, 0x8f, 0xd1, 0x3c,
  0x36, 0x6a, 0xb3, 0x3d, 0xbf, 0xb7, 0x14, 0x3e, 0x79, 0xc5, 0x27, 0x3e,
  0x47, 0x88, 0x83, 0xbd, 0xd0, 0x9c, 0xfe, 0xbd, 0xc0, 0xf7, 0x78, 0xbc,
  0x2b, 0x79, 0x0d, 0x3d, 0x53, 0x18, 0xe9, 0x3d, 0xef, 0xf1, 0xc1, 0x3d,
  0x49, 0x6b, 0x55, 0xbd, 0xd3, 0xb6, 0xdd, 0xbc, 0x45, 0xd6, 0x89, 0x3d,
  0xc7, 0xdc, 0x93, 0x3d, 0x31, 0x91, 0xdd, 0x3c, 0x9f, 0xcc, 0xae, 0xbd,
  0x09, 0x5d, 0x4d, 0xbc, 0xa5, 0xc7, 0x80, 0x3d, 0x37, 0x72, 0xcf, 0x3d,
  0x83, 0xc2, 0xb7, 0x3d, 0x59, 0x08, 0x20, 0x3c, 0x42, 0xf7, 0x30, 0x3c,
  0xfb, 0xf0, 0x87, 0x3d, 0xc4, 0xa0, 0x6e, 0x3d, 0xfa, 0xa8, 0x6f, 0xbd,
  0xa7, 0x0e, 0xd8, 0x3d, 0x7c, 0xda, 0x22, 0x3d, 0x29, 0x7d, 0x87, 0x3d,
  0x0c, 0xee, 0xf5, 0xbc, 0x14, 0xef, 0xf3, 0x3d, 0xbb, 0x3f, 0x9b, 0x3d,
  0x03, 0x86, 0x39, 0x3d, 0x1c, 0xb5, 0x36, 0xbc, 0xfa, 0xde, 0x86, 0x3d,
  0xcb, 0x3a, 0x21, 0x3d, 0xbf, 0x01, 0xc8, 0x3d, 0x07, 0xa5, 0xd3, 0xbc,
  0xe0, 0xe5, 0x10, 0x3d, 0xa1, 0xd2, 0x25, 0x3d, 0x12, 0x01, 0xa7, 0x3d,
  0x8c, 0xbb, 0x51, 0x3c, 0xd8, 0xde, 0x60, 0x3c, 0xa1, 0xb8, 0x04, 0x3d,
  0xa9, 0x17, 0x18, 0x3e, 0x5f, 0x3b, 0x35, 0xbc, 0xb4, 0x67, 0x20, 0xbd,
  0xe0, 0x9d, 0x04, 0x3d, 0xb3, 0xcb, 0xc5, 0x3d, 0x24, 0x4b, 0x6f, 0x3c,
  0xef, 0x54, 0x36, 0x3e, 0x5d, 0x46, 0xf1, 0x3d, 0x36, 0x07, 0x73, 0x3d,
  0xb7, 0xb0, 0x7e, 0xbd, 0x75, 0x63, 0xd3, 0x3d, 0xd7, 0x68, 0x3b, 0x3e,
  0x65, 0x1d, 0x98, 0x3d, 0xd5, 0x17, 0x0e, 0x3d, 0x1c, 0x86, 0x4e, 0x3e,
  0x44, 0x70, 0x6f, 0x3d, 0xc9, 0xac, 0x00, 0x3e, 0x35, 0x4c, 0x93, 0xbd,
  0xaa, 0x6f, 0x0f, 0x3e, 0x37, 0x1f, 0x6c, 0x3d, 0x96, 0x78, 0x8c, 0xbb,
  0xe4, 0x92, 0xbb, 0xbd, 0x36, 0x74, 0xca, 0xbd, 0x8e, 0xde, 0x09, 0x3e,
  0xdc, 0x03, 0x3f, 0x3d, 0xe7, 0xee, 0x19, 0x3d, 0xcf, 0x7a, 0x49, 0x3d,
  0x81, 0xde, 0x10, 0x3d, 0xae, 0x91, 0x7c, 0x3d, 0xb2, 0x43, 0xfe, 0x3d,
  0xdb, 0x01, 0x25, 0x3e, 0xb0, 0xbf, 0x00, 0x3c, 0x03, 0xa4, 0x80, 0xbc,
  0x20, 0x04, 0x9b, 0xbb, 0x04, 0x33, 0x01, 0x3e, 0x6f, 0xab, 0xb6, 0xbc,
  0xff, 0x18, 0x14, 0x3c, 0x5b, 0x16, 0xf2, 0x3b, 0x4c, 0x0b, 0x84, 0x3d,
  0x40, 0xba, 0x38, 0x3e, 0x4d, 0xef, 0x21, 0x3e, 0x8c, 0xd7, 0xda, 0xbc,
  0xbb, 0xe6, 0xb7, 0x3b, 0x83, 0xf1, 0xe4, 0x3d, 0xb4, 0x9e, 0xe3, 0x3d,
  0xfd, 0x72, 0xde, 0xbc, 0x42, 0xb9, 0x60, 0x3d, 0x5f, 0xe2, 0x9a, 0xba,
  0x82, 0xee, 0x09, 0xbc, 0xac, 0x50, 0x6d, 0x3c, 0xc2, 0x5a, 0xe8, 0x3c,
  0x66, 0xed, 0xcf, 0x3c, 0x92, 0xea, 0xf9, 0x3d, 0x37, 0x3a, 0x07, 0x3d,
  0x14, 0x28, 0x63, 0x3d, 0x3f, 0xa3, 0xd4, 0x3d, 0xfd, 0x65, 0x35, 0x3d,
  0x01, 0x02, 0x04, 0x3d, 0x25, 0x6f, 0x7b, 0xbc, 0x4c, 0x55, 0x97, 0x3d,
  0x30, 0x8b, 0x95, 0x3c, 0x8c, 0x48, 0x80, 0x3d, 0x04, 0x60, 0x36, 0x3e,
  0xe9, 0x4f, 0x15, 0x3e, 0xb4, 0x70, 0xd2, 0x3d, 0xc8, 0x9b, 0xa1, 0x3d,
  0xea, 0xc9, 0xc8, 0x3d, 0x77, 0xcb, 0x2c, 0xbc, 0xe0, 0xac, 0x40, 0x3d,
  0x1b, 0x65, 0xa9, 0x3d, 0x4a, 0xed, 0x4f, 0x3e, 0x6f, 0x99, 0x04, 0x3e,
  0x78, 0xfa, 0x39, 0x3e, 0x39, 0x42, 0xb3, 0xbc, 0x7d, 0xd6, 0x43, 0x3e,
  0xe8, 0xbd, 0x31, 0x3d, 0x32, 0xbd, 0xf8, 0x3d, 0x8d, 0x81, 0x16, 0xbd,
  0xaa, 0x10, 0x3d, 0x3e, 0xd2, 0xf3, 0xd0, 0xbb, 0x2e, 0x39, 0x29, 0x3d,
  0xea, 0xfd, 0xef, 0xbb, 0xbc, 0x2e, 0x42, 0xbc, 0x01, 0xec, 0x2c, 0x3e,
  0x77, 0xc0, 0x40, 0x3d, 0x20, 0x3f, 0x92, 0x3d, 0x97, 0xdd, 0x4b, 0xbd,
  0xb2, 0x5e, 0xd3, 0x3c, 0x43, 0x6d, 0xc3, 0x3d, 0x70, 0x0c, 0xa7, 0x3d,
  0xc6, 0x4b, 0x43, 0x3e, 0x92, 0x2e, 0x6f, 0x3d, 0xea, 0x2d, 0xcc, 0xbd,
  0xf4, 0x84, 0xe1, 0xbd, 0x7a, 0xc5, 0x9a, 0x3c, 0xcf, 0xef, 0xfe, 0x3a,
  0x96, 0xa4, 0xef, 0x3d, 0x44, 0xc8, 0xff, 0xbd, 0xbb, 0x26, 0xda, 0x3d,
  0x1d, 0x72, 0xe4, 0x3d, 0xa2, 0x99, 0x71, 0xbc, 0x09, 0xbf, 0x1f, 0x3c,
  0x35, 0x0d, 0xd1, 0x3c, 0x81, 0x5e, 0x21, 0x3c, 0xeb, 0x91, 0xbf, 0x3d,
  0xb2, 0xac, 0x9c, 0x3d, 0xa6, 0x82, 0xca, 0x3d, 0x70, 0x8b, 0x9e, 0x3c,
  0xed, 0xac, 0x87, 0x3d, 0xe7, 0x70, 0x92, 0x3d, 0xf5, 0x21, 0xb7, 0x3d,
  0xf8, 0xf0, 0x7d, 0x3d, 0x20, 0x09, 0x45, 0x3d, 0x39, 0xca, 0xa3, 0xbd,
  0x5e, 0xdb, 0x99, 0xbc, 0x60, 0x60, 0x99, 0x3d, 0x2e, 0x87, 0xcf, 0x3d,
  0x86, 0xf6, 0xa6, 0x3c, 0x9b, 0x48, 0xbe, 0x3d, 0xe1, 0x42, 0x90, 0x3d,
  0x70, 0x70, 0x34, 0x3e, 0x66, 0x14, 0x5a, 0x3c, 0xed, 0xc7, 0xf6, 0x3d,
  0x8a, 0xe5, 0x96, 0x3d, 0xfb, 0xe9, 0x00, 0x3d, 0xff, 0xa7, 0x55, 0xbd,
  0xff, 0xff, 0xb5, 0x3d, 0x92, 0x1e, 0x99, 0x3d, 0x1f, 0xe0, 0xe6, 0x3d,
  0x27, 0x5d, 0x72, 0x3c, 0xe9, 0x99, 0xfd, 0x3d, 0xc1, 0xbf, 0xd5, 0x3d,
  0x8d, 0xff, 0xfd, 0x3c, 0x8b, 0x03, 0x1b, 0xbc, 0xcf, 0xd1, 0xfb, 0x3d,
  0x54, 0x2f, 0x53, 0x3c, 0x38, 0x6a, 0xc7, 0x3d, 0xd8, 0x7d, 0x7e, 0x3c,
  0x6e, 0x91, 0xb9, 0x3d, 0xfa, 0xb8, 0xf9, 0xba, 0x7d, 0xb3, 0x33, 0xbc,
  0xb8, 0x2a, 0x20, 0x3c, 0x83, 0x53, 0xb6, 0x3d, 0xde, 0xff, 0xfb, 0x3c,
  0xfb, 0x8d, 0xa2, 0x3d, 0xbf, 0x7c, 0x8a, 0x3d, 0xd7, 0x4c, 0x00, 0x3d,
  0x0b, 0xfa, 0xb7, 0xbc, 0x1a, 0x5e, 0x2b, 0x3e, 0xee, 0xf8, 0xa2, 0x3c,
  0x3c, 0x08, 0x08, 0x3e, 0x45, 0x00, 0x0f, 0x3d, 0x87, 0x2f, 0x96, 0x3c,
  0x35, 0x0f, 0xf8, 0xbd, 0x42, 0x32, 0x6a, 0x3d, 0x1e, 0x97, 0xab, 0xbd,
  0x4c, 0x37, 0xa6, 0x3d, 0xeb, 0x73, 0x6a, 0xbd, 0x54, 0xbb, 0x92, 0x3d,
  0x64, 0x7d, 0xbd, 0x3d, 0xde, 0xd0, 0x12, 0xbc, 0xff, 0xca, 0x01, 0xbd,
  0xa6, 0xc9, 0x4e, 0x3d, 0x61, 0x72, 0xe8, 0x3c, 0xc5, 0x06, 0xf0, 0x3d,
  0xd0, 0x74, 0x80, 0xbd, 0x2c, 0xa7, 0xe5, 0x3d, 0x9a, 0x55, 0x2a, 0x3e,
  0x18, 0x0d, 0x19, 0x3e, 0x7b, 0x1e, 0x8c, 0x3d, 0x3f, 0x21, 0x2f, 0x3e,
  0x64, 0xd1, 0xc2, 0x3d, 0xeb, 0x52, 0x9a, 0x3b, 0x3d, 0xbd, 0x5b, 0x3d,
  0xcb, 0xbd, 0x5a, 0x3d, 0x3c, 0xf8, 0x5e, 0x3d, 0xa5, 0xc9, 0xe0, 0x3d,
  0xb5, 0x93, 0x9d, 0xbd, 0x8a, 0x0c, 0xe7, 0x3d, 0x9d, 0xc3, 0xdb, 0x3d,
  0xf1, 0xde, 0x3b, 0x3e, 0xb6, 0xea, 0xaf, 0x3b, 0xa2, 0x77, 0xa6, 0x3d,
  0xca, 0x3a, 0xa5, 0x3d, 0xe3, 0x75, 0xa0, 0x3d, 0x1c, 0x61, 0x62, 0xbd,
  0x33, 0xde, 0xdd, 0x3d, 0x3a, 0x75, 0x09, 0xbc, 0x8e, 0xce, 0xc6, 0x3d,
  0xfd, 0x54, 0xdd, 0x3c, 0xe0, 0xea, 0x4f, 0x3d, 0xbe, 0x7e, 0xd1, 0x3d,
  0x6e, 0xdd, 0xcc, 0x3d, 0xe2, 0xa8, 0x4f, 0x3d, 0xe9, 0x5e, 0x29, 0x3d,
  0x44, 0xf8, 0xac, 0x3c, 0x62, 0xd4, 0xd6, 0x3d, 0xc5, 0x54, 0x2e, 0x3c,
  0x02, 0xce, 0xe7, 0x3d, 0x18, 0x2e, 0x95, 0x3d, 0x95, 0x7d, 0x95, 0x3d,
  0x3f, 0x57, 0xa2, 0xbc, 0xe4, 0xe3, 0x62, 0x3b, 0x08, 0xdc, 0x12, 0x3d,
  0xc6, 0xf7, 0x65, 0x3d, 0x94, 0xf9, 0x81, 0x3d, 0x6e, 0xd3, 0x5b, 0xbd,
  0x88, 0x96, 0x26, 0x3c, 0x3d, 0xa9, 0x54, 0x3d, 0xc8, 0xc2, 0x8f, 0x3d,
  0x5e, 0x41, 0x91, 0x3d, 0xf5, 0x4e, 0x1a, 0x3c, 0xd7, 0x48, 0x7d, 0x3d,
  0xd6, 0x37, 0x01, 0x3d, 0x0b, 0x61, 0x85, 0x3c, 0x63, 0x1a, 0x57, 0x3d,
  0x7c, 0xbf, 0x13, 0x3e, 0xed, 0x1b, 0x54, 0xbd, 0x8e, 0x66, 0x0d, 0x3e,
  0x32, 0xe1, 0x03, 0xbb, 0x03, 0xc8, 0x40, 0x3e, 0xc4, 0x79, 0x87, 0x3d,
  0xcf, 0xa1, 0x5c, 0x3d, 0xed, 0x2c, 0x79, 0x3d, 0x09, 0x82, 0xe9, 0x3d,
  0x0c, 0x14, 0x4e, 0xbd, 0xec, 0xc5, 0xc8, 0x3c, 0x1c, 0x50, 0x95, 0x3d,
  0x05, 0x2e, 0xbf, 0x3d, 0xf4, 0xe0, 0x0f, 0x3d, 0x75, 0x5d, 0x5a, 0x3e,
  0x61, 0x87, 0xd7, 0x3d, 0xef, 0x2a, 0xa6, 0x3d, 0x29, 0x74, 0x62, 0x3c,
  0x30, 0x88, 0xb0, 0x3d, 0xaf, 0xf5, 0x29, 0x3e, 0xd0, 0x98, 0x36, 0xbc,
  0x2c, 0x41, 0x04, 0x3d, 0xc5, 0xad, 0x14, 0x3e, 0xc4, 0x33, 0xdf, 0x3d,
  0x11, 0x10, 0x0b, 0x3e, 0x26, 0x4b, 0xa2, 0xbc, 0x58, 0x52, 0xad, 0x3d,
  0x9f, 0xdf, 0x10, 0x3e, 0xfa, 0xd1, 0xee, 0x3d, 0x65, 0x7b, 0x99, 0xbd,
  0xa9, 0x9f, 0xcb, 0x3d, 0x28, 0x92, 0xb8, 0x3d, 0x97, 0x78, 0x52, 0x3d,
  0xce, 0xb6, 0x27, 0x3d, 0x40, 0x4e, 0x26, 0x3e, 0x02, 0x0e, 0xb4, 0x3c,
  0x5d, 0x3f, 0xcc, 0x3d, 0x9d, 0x79, 0xb9, 0xbd, 0x95, 0x3c, 0x78, 0x3d,
  0xa2, 0x3e, 0x2a, 0x3e, 0x06, 0x6e, 0xb4, 0x3d, 0xe6, 0xad, 0x3a, 0x3d,
  0x3a, 0xc1, 0x17, 0x3e, 0x88, 0x37, 0x83, 0x3c, 0x44, 0xcf, 0x86, 0x3d,
  0x0a, 0xfe, 0x04, 0xbd, 0xf3, 0xf6, 0x59, 0xbb, 0x07, 0x62, 0xba, 0xbd,
  0x18, 0x2e, 0xc3, 0x3c, 0xa5, 0x23, 0x01, 0x3d, 0xdc, 0xd9, 0x6b, 0xbd,
  0x62, 0x64, 0xf4, 0xbd, 0x18, 0x95, 0x4c, 0xbd, 0x92, 0xa6, 0x48, 0x3d,
  0xe9, 0x35, 0x2e, 0x3d, 0x50, 0x17, 0x8c, 0x3d, 0x9b, 0x48, 0xdb, 0x3d,
  0x8d, 0x49, 0x4f, 0x3b, 0x66, 0xb8, 0x1d, 0x3e, 0x4c, 0x88, 0x56, 0x3d,
  0xa1, 0x2c, 0xd8, 0x3d, 0xfe, 0x46, 0x88, 0xbd, 0x82, 0x68, 0x0d, 0x3e,
  0xd8, 0x83, 0xc6, 0x3d, 0x1c, 0x8a, 0xc6, 0x3d, 0xd7, 0x42, 0x01, 0xbd,
  0x88, 0x31, 0xaa, 0x3d, 0xda, 0xde, 0x95, 0xbb, 0xb4, 0xba, 0x1e, 0x3e,
  0x69, 0xad, 0x6b, 0x3c, 0x8e, 0x31, 0x53, 0x3e, 0xf2, 0x35, 0x44, 0x3e,
  0xed, 0x61, 0x51, 0x3d, 0x1e, 0x94, 0x5c, 0xbd, 0x22, 0x0f, 0x3e, 0x3e,
  0x1e, 0x15, 0xc6, 0x3d, 0xf7, 0x5b, 0x5a, 0x3d, 0x24, 0xba, 0xe8, 0x3d,
  0x6a, 0xa8, 0x6f, 0x3c, 0xfa, 0x7b, 0xc7, 0x3c, 0x67, 0x2c, 0x76, 0x3d,
  0x29, 0x58, 0x92, 0x3d, 0x3f, 0x90, 0x8a, 0x3d, 0x48, 0x0c, 0x44, 0x3e,
  0x0f, 0xac, 0x17, 0x3e, 0x88, 0xe9, 0x08, 0xbd, 0x25, 0x57, 0x52, 0x3d,
  0xf2, 0xc1, 0x09, 0x3e, 0x74, 0xee, 0x4a, 0x3d, 0xda, 0xd6, 0x9e, 0x3c,
  0xcc, 0xc5, 0x55, 0x3e, 0x9e, 0x22, 0x8b, 0x3d, 0xb8, 0x50, 0x44, 0x3b,
  0xd8, 0x97, 0x47, 0xbd, 0xc7, 0x88, 0xad, 0x3d, 0xf7, 0x82, 0x08, 0x3d,
  0xf9, 0x9a, 0xdd, 0x3d, 0x94, 0x25, 0x6e, 0xbd, 0x92, 0x2d, 0xeb, 0x3d,
  0xdd, 0x20, 0xd6, 0x3d, 0xff, 0x67, 0xab, 0x3d, 0xb2, 0x4c, 0x91, 0xbb,
  0x58, 0xaf, 0x09, 0x3e, 0x47, 0x81, 0x12, 0x3e, 0xb5, 0xb1, 0xcb, 0xbd,
  0x69, 0x53, 0x3d, 0x3c, 0xa6, 0xc0, 0x34, 0xbd, 0xe3, 0x0d, 0x96, 0xbd,
  0x79, 0xa9, 0xbf, 0xbb, 0x59, 0x88, 0x04, 0x3d, 0xa4, 0x7c, 0x3f, 0xbc,
  0xff, 0x4e, 0xe5, 0x3c, 0xe1, 0xab, 0x52, 0x3c, 0x8a, 0x4b, 0x94, 0x3d,
  0x5e, 0x2e, 0xe0, 0x3d, 0xf7, 0x4a, 0xb5, 0x3d, 0xf4, 0xfb, 0xfc, 0x3d,
  0x1b, 0xe1, 0xc3, 0xbd, 0xf0, 0x57, 0x3a, 0x3e, 0xe2, 0xc9, 0x04, 0x3e,
  0x0d, 0x67, 0x17, 0x3e, 0x6b, 0x3a, 0x37, 0xbd, 0xf9, 0x11, 0x04, 0x3e,
  0xf5, 0xf9, 0xc1, 0x3d, 0x53, 0x42, 0xef, 0x3d, 0x0b, 0x3a, 0x30, 0xbd,
  0x8c, 0x0f, 0x3a, 0x3d, 0xee, 0xf6, 0x2a, 0x3e, 0x36, 0xfb, 0xe8, 0x3d,
  0xf9, 0xcb, 0xc8, 0xbc, 0xa2, 0x69, 0x37, 0x3e, 0xd4, 0xa7, 0xad, 0x3d,
  0x2b, 0x2e, 0x0b, 0x3e, 0x64, 0x23, 0x7a, 0x3d, 0x72, 0x8c, 0x4d, 0x3e,
  0x44, 0xb7, 0x17, 0x3e, 0xad, 0x54, 0xfc, 0x3c, 0x87, 0x14, 0x6b, 0x3d,
  0x82, 0x20, 0x57, 0x3d, 0x29, 0x45, 0xe3, 0x3d, 0xbf, 0x4f, 0xc5, 0x3b,
  0x9a, 0x57, 0xa8, 0x3c, 0x18, 0x63, 0xdf, 0x3d, 0x33, 0x23, 0x37, 0x3e,
  0xe8, 0xb8, 0x18, 0x3d, 0x53, 0x5f, 0x2d, 0xbd, 0x28, 0xe2, 0xa2, 0x3d,
  0x3f, 0x1c, 0xd1, 0x3d, 0xf9, 0x81, 0xd1, 0x3d, 0xf2, 0x98, 0xa0, 0xbd,
  0x47, 0x6a, 0x15, 0x3e, 0x65, 0x65, 0x24, 0x3e, 0x61, 0x57, 0x14, 0x3e,
  0x2c, 0xce, 0x98, 0x3c, 0x58, 0xe1, 0x1f, 0x3e, 0xa4, 0x5a, 0x32, 0x3d,
  0x81, 0x53, 0x13, 0x3e, 0xbd, 0x4d, 0x80, 0xbc, 0xf4, 0x28, 0x37, 0x3e,
  0xd2, 0x79, 0x71, 0x3d, 0xe1, 0xa6, 0xc8, 0x3d, 0xf5, 0xa4, 0x1d, 0xbd,
  0xb3, 0x2d, 0xfb, 0x3d, 0x62, 0xd6, 0x49, 0x3e, 0x7b, 0x35, 0xc1, 0xbd,
  0x35, 0x2c, 0x8f, 0xbc, 0xd7, 0xac, 0xfa, 0x3d, 0x27, 0x43, 0x05, 0x3e,
  0xe4, 0x44, 0x47, 0xbc, 0x95, 0x34, 0xf6, 0xbc, 0xb5, 0x75, 0x6f, 0x3c,
  0xae, 0x4a, 0xaa, 0xbc, 0xcc, 0xc1, 0x11, 0x3e, 0x62, 0x60, 0x71, 0x3d,
  0xdb, 0xa1, 0x5f, 0x3e, 0x5e, 0x3d, 0x0e, 0xbc, 0xb7, 0xe3, 0xc0, 0xbb,
  0xb3, 0x6c, 0x7c, 0xbd, 0x89, 0x81, 0x2c, 0x3e, 0x65, 0xff, 0x0d, 0x3e,
  0xea, 0x5b, 0xa1, 0x3b, 0xdc, 0xdd, 0x92, 0xbd, 0xb8, 0xca, 0x13, 0x3e,
  0x15, 0x88, 0x01, 0x3e, 0xe2, 0x9c, 0xa2, 0x3d, 0xc8, 0xc7, 0x9f, 0xbd,
  0xef, 0x0c, 0xb9, 0x3d, 0x6f, 0xdd, 0xe0, 0x3d, 0x95, 0xc5, 0x92, 0x3d,
  0xbd, 0xb9, 0x68, 0x3c, 0x4d, 0x26, 0xe6, 0x3d, 0xa6, 0xcf, 0x65, 0x3e,
  0x5d, 0x09, 0x1d, 0x3e, 0x4e, 0x3e, 0x1a, 0x3d, 0xb3, 0x38, 0x52, 0x3d,
  0x58, 0x8a, 0x3d, 0x3e, 0xd0, 0xb3, 0x20, 0x3c, 0xd2, 0xe5, 0xab, 0x3d,
  0xcc, 0x8f, 0x0e, 0x3e, 0x23, 0xc3, 0xcf, 0x3c, 0x44, 0x76, 0x02, 0x3e,
  0xb4, 0xb5, 0x40, 0x3a, 0xf8, 0x1f, 0x24, 0x3e, 0xe3, 0x3d, 0xea, 0x3d,
  0x9c, 0x54, 0xb6, 0x3d, 0x9c, 0x5a, 0xab, 0x3d, 0xa7, 0x1c, 0xd3, 0x3d,
  0xde, 0xd7, 0x0a, 0x3e, 0x01, 0xec, 0xb8, 0x3c, 0xf5, 0xf6, 0x99, 0xbd,
  0x00, 0xd3, 0x98, 0x3d, 0x9d, 0x7e, 0xe2, 0x3c, 0x54, 0x43, 0xa3, 0x3d,
  0x4d, 0xd1, 0x90, 0xbd, 0xc7, 0xd8, 0xdc, 0x3d, 0x36, 0xa5, 0xca, 0x3d,
  0xa5, 0xc7, 0x04, 0x3d, 0x37, 0x87, 0xa4, 0xbd, 0xb9, 0x8f, 0xc4, 0x3d,
  0xde, 0x0b, 0x48, 0x3e, 0x45, 0x15, 0x52, 0xbb, 0x46, 0x10, 0x82, 0x3c,
  0xc2, 0xbb, 0xaf, 0x3d, 0xc5, 0x4f, 0x03, 0x3e, 0xa3, 0xb6, 0xb5, 0xbb,
  0x4a, 0x97, 0x40, 0x3d, 0xef, 0x7d, 0x7b, 0xbd, 0x0c, 0x7c, 0x03, 0x3e,
  0x2f, 0x49, 0xa7, 0xba, 0x59, 0xef, 0xa9, 0x3d, 0x54, 0xf1, 0x86, 0xbc,
  0x52, 0xe4, 0xd0, 0x3d, 0x4e, 0xdb, 0x25, 0x3d, 0x56, 0x18, 0x6c, 0xbc,
  0x67, 0x1d, 0xaf, 0x3d, 0x8c, 0x10, 0x37, 0xbd, 0xdb, 0xf8, 0x0d, 0x3c,
  0xf1, 0x27, 0x8f, 0xbb, 0x39, 0x31, 0x09, 0x3e, 0x05, 0x9f, 0x0f, 0x3e,
  0x20, 0xcd, 0xe9, 0x3d, 0xf3, 0xd7, 0x8f, 0xbd, 0x08, 0xaf, 0xb0, 0x3d,
  0xd0, 0x47, 0xf0, 0x3d, 0xbb, 0xe0, 0xae, 0x3d, 0x70, 0xf8, 0x41, 0x3d,
  0x77, 0x77, 0x39, 0x3e, 0x96, 0xa5, 0xb2, 0x3d, 0x6d, 0x4a, 0x12, 0x3e,
  0xe7, 0x9b, 0x88, 0xbc, 0xc6, 0x85, 0x52, 0x3e, 0x24, 0xf0, 0x80, 0xbc,
  0x79, 0x52, 0xe8, 0x3d, 0x94, 0x43, 0x47, 0x3c, 0x84, 0xdb, 0xf6, 0x3d,
  0x2f, 0xae, 0x3d, 0x3e, 0x26, 0x77, 0x7c, 0x3d, 0xe9, 0xf5, 0x4f, 0xbd,
  0xb6, 0xff, 0x87, 0x3d, 0x8e, 0x1d, 0x78, 0x3d, 0xbb, 0x29, 0xaf, 0x3d,
  0xdf, 0x03, 0x12, 0xbd, 0x04, 0xa2, 0xc7, 0x38, 0xf9, 0x51, 0xa4, 0x3d,
  0xea, 0xb6, 0x0a, 0x3e, 0x74, 0x11, 0x04, 0xbd, 0x2f, 0xea, 0x38, 0x3e,
  0xec, 0x57, 0x13, 0x3c, 0x6b, 0xb5, 0xcf, 0x3d, 0x40, 0x7f, 0x24, 0x3d,
  0x2c, 0x42, 0xdd, 0x3d, 0xac, 0xac, 0x2a, 0x3e, 0x62, 0x72, 0x4f, 0x3d,
  0xe9, 0x3e, 0x37, 0x3d, 0x16, 0x91, 0x07, 0x3d, 0x15, 0xb3, 0xad, 0x3b,
  0xa7, 0x45, 0xe9, 0x3d, 0xc6, 0x5d, 0xd5, 0x3c, 0x5c, 0x0c, 0x01, 0x3e,
  0x03, 0x16, 0x81, 0x3d, 0x6c, 0x4b, 0xdf, 0xbc, 0x86, 0x6b, 0xa0, 0xbd,
  0x60, 0x91, 0x11, 0x3e, 0x1e, 0x8b, 0xdc, 0x3d, 0xf1, 0x46, 0xfe, 0xbc,
  0x8e, 0xb5, 0x67, 0xbd, 0x83, 0xca, 0x9f, 0xbc, 0xf5, 0x82, 0xfb, 0x3d,
  0x2c, 0x27, 0x91, 0x3d, 0x3e, 0x0f, 0x1d, 0x3d, 0x79, 0x22, 0x81, 0x3b,
  0xd5, 0xf7, 0x8f, 0x3d, 0xfc, 0xf1, 0x29, 0x3d, 0x0d, 0xdf, 0xbe, 0x3d,
  0xad, 0x7f, 0x2a, 0x3e, 0xfa, 0xbe, 0x79, 0x3d, 0x66, 0x8d, 0x2f, 0xbd,
  0x36, 0xe0, 0x4f, 0xbd, 0xff, 0xd5, 0x34, 0x3d, 0xce, 0x3f, 0x34, 0x3e,
  0xa4, 0x58, 0xf4, 0xbb, 0x72, 0x66, 0x1a, 0xbd, 0xca, 0xe7, 0xab, 0x3d,
  0x55, 0x7b, 0x5a, 0x3d, 0xe3, 0xb2, 0x07, 0x3e, 0x33, 0x39, 0x8d, 0x3c,
  0xe2, 0xca, 0xe2, 0x3d, 0x00, 0x49, 0x49, 0x3d, 0x94, 0x40, 0xb6, 0x3d,
  0x3f, 0x52, 0x38, 0x3c, 0x24, 0x65, 0xf3, 0x3d, 0x45, 0x36, 0xb4, 0x3d,
  0x31, 0x1b, 0xcb, 0x3c, 0x56, 0xec, 0x02, 0xbd, 0xb8, 0x54, 0xe7, 0x3d,
  0x6d, 0x4a, 0x09, 0x3e, 0x25, 0x72, 0x2e, 0x3e, 0x4b, 0xae, 0xd0, 0xbc,
  0x03, 0x26, 0xfc, 0x3d, 0xe8, 0xff, 0xea, 0x3d, 0x47, 0x52, 0x0f, 0x3e,
  0xe5, 0x1e, 0x44, 0x3d, 0x9d, 0x6e, 0xd4, 0x3d, 0x6d, 0x94, 0x0e, 0x3d,
  0xfb, 0x6a, 0x0d, 0x3e, 0x05, 0xfb, 0x1e, 0xbd, 0xb1, 0x6b, 0xda, 0x3d,
  0x9a, 0x0f, 0x82, 0x3c, 0x7d, 0x44, 0x8f, 0x3d, 0xb4, 0xaa, 0x9f, 0xbd,
  0xe1, 0xa6, 0xc5, 0x3d, 0x24, 0x0d, 0x5d, 0x3d, 0x9d, 0x82, 0xa7, 0x3d,
  0x42, 0xf1, 0x20, 0x3d, 0xd2, 0x4a, 0xcf, 0x3c, 0x5c, 0x07, 0xd1, 0x3d,
  0x84, 0xc4, 0x94, 0x3c, 0x2e, 0x43, 0xdf, 0x3c, 0x00, 0x6c, 0x85, 0x3d,
  0x09, 0x43, 0x28, 0x3d, 0x10, 0x0a, 0xbf, 0x3c, 0xa2, 0xf2, 0x7e, 0xbd,
  0xbf, 0x88, 0x08, 0x3e, 0x15, 0xbe, 0x5b, 0xbe, 0xcd, 0x38, 0x86, 0x3d,
  0xb6, 0x2e, 0x09, 0x3d, 0x27, 0x74, 0xc9, 0xbd, 0x6f, 0x62, 0x24, 0x3e,
  0xb5, 0xb8, 0xe4, 0x3d, 0xc2, 0x77, 0xab, 0xbd, 0xda, 0xc5, 0xfc, 0xbd,
  0x71, 0xa8, 0x1d, 0x3e, 0x93, 0x66, 0x38, 0x3e, 0x59, 0x4f, 0x2a, 0x3e,
  0x8e, 0x17, 0x0b, 0xbe, 0x6a, 0x1f, 0x1d, 0xbe, 0x5b, 0x14, 0x02, 0x3e,
  0xcc, 0x8b, 0xda, 0x3d, 0x93, 0x75, 0x0a, 0x3e, 0x42, 0x23, 0x10, 0xbd,
  0xf9, 0x33, 0xc4, 0xbd, 0xe0, 0x47, 0xe3, 0x3d, 0x4a, 0x75, 0x03, 0xbe,
  0x46, 0xaf, 0x19, 0xbd, 0x1b, 0xe2, 0x8f, 0xbd, 0x48, 0x5a, 0x07, 0xbc,
  0xdd, 0xa0, 0x7d, 0x3c, 0x63, 0x8a, 0x59, 0xbd, 0x96, 0x7c, 0x98, 0x3d,
  0xc6, 0x43, 0xb5, 0xbc, 0x64, 0xcc, 0x02, 0xbd, 0xda, 0xbc, 0x67, 0xbd,
  0xab, 0x5f, 0x6c, 0xbd, 0x07, 0x87, 0xe1, 0xbc, 0x75, 0x78, 0xc2, 0x3d,
  0x04, 0xcb, 0x8f, 0xbd, 0xca, 0x14, 0x16, 0x3d, 0x74, 0xdf, 0x05, 0xbe,
  0xe2, 0xf7, 0x87, 0x3d, 0xe7, 0x73, 0x30, 0x3c, 0x06, 0xd5, 0x01, 0x3d,
  0xdb, 0x7c, 0xd9, 0xbd, 0xcb, 0xd3, 0xd9, 0xbc, 0x44, 0x67, 0x73, 0x3e,
  0x24, 0x4a, 0x63, 0x3e, 0x3b, 0xd0, 0x42, 0xbc, 0x0f, 0x99, 0xf0, 0x3b,
  0x9f, 0x78, 0x98, 0x3d, 0x99, 0x2b, 0x65, 0x3e, 0x7c, 0x0f, 0xf4, 0x3d,
  0x38, 0x38, 0xd7, 0x3d, 0xe0, 0x25, 0x36, 0x3e, 0x4e, 0xea, 0x06, 0x3d,
  0x0c, 0x8a, 0xbf, 0x3d, 0x7a, 0x07, 0x0c, 0xbd, 0xcf, 0xb9, 0x1b, 0x3d,
  0xae, 0xc9, 0x2c, 0xba, 0x6c, 0x3a, 0x55, 0x3e, 0xa3, 0x9b, 0x32, 0x3e,
  0xb4, 0xa6, 0x51, 0x3e, 0x09, 0x0a, 0xf9, 0x3d, 0x02, 0x1d, 0x3a, 0x3e,
  0xf2, 0xf5, 0xf5, 0x3d, 0xc0, 0x6d, 0x21, 0xbe, 0xcc, 0xed, 0x0f, 0x3e,
  0xf3, 0xbc, 0xa9, 0x3d, 0x3c, 0x3d, 0x3b, 0x3e, 0xd0, 0x79, 0x44, 0x3d,
  0x21, 0x08, 0xac, 0xbd, 0xa3, 0xeb, 0x03, 0x3d, 0x86, 0xd1, 0xb4, 0xbb,
  0x0f, 0x16, 0x61, 0x3e, 0x3e, 0xc1, 0x2f, 0x3e, 0x62, 0x08, 0x48, 0x3d,
  0x5f, 0x5a, 0xc9, 0x3c, 0x91, 0xe5, 0x3b, 0x3d, 0xd7, 0x6f, 0x7c, 0x3e,
  0xaa, 0xf1, 0x11, 0x3e, 0xe6, 0xa5, 0x01, 0x3d, 0x00, 0x1e, 0xd7, 0xbd,
  0x0d, 0x4d, 0xae, 0x3a, 0x88, 0x1a, 0xd6, 0x3d, 0x2f, 0xbd, 0x27, 0xbc,
  0x58, 0x5b, 0x20, 0xbd, 0x9b, 0xf7, 0x8e, 0xbd, 0x6e, 0xb0, 0xd5, 0x3d,
  0xc8, 0x83, 0x35, 0x3d, 0xbc, 0x63, 0xd5, 0xbd, 0xef, 0xfd, 0xac, 0xbd,
  0x36, 0x4b, 0xb3, 0xbd, 0xf5, 0x03, 0x91, 0xbd, 0x41, 0x64, 0xc4, 0x3c,
  0x0d, 0xb1, 0xf9, 0x3b, 0x30, 0x8e, 0x7e, 0x3c, 0x1d, 0xb2, 0x00, 0xbd,
  0x92, 0x2c, 0x9b, 0xbd, 0x4c, 0x2e, 0x15, 0xbc, 0xca, 0x51, 0x98, 0xbd,
  0x48, 0xf4, 0x49, 0xbd, 0xe2, 0xe6, 0x8e, 0xbd, 0xcb, 0xd9, 0x06, 0x3d,
  0xd2, 0x24, 0xb0, 0xbd, 0x87, 0x14, 0x7b, 0x3d, 0x9a, 0x0b, 0xa4, 0x3d,
  0x25, 0xd4, 0x35, 0x3d, 0x9a, 0x0b, 0x6c, 0xbd, 0x8a, 0x26, 0x3f, 0xbd,
  0x0f, 0x0a, 0x91, 0x3d, 0x8d, 0x02, 0x82, 0x3d, 0x54, 0x7e, 0xb0, 0x3d,
  0xcc, 0xe0, 0x8a, 0x3c, 0x43, 0xe8, 0xa8, 0x3d, 0xf9, 0x80, 0x80, 0x3c,
  0xad, 0xd4, 0x96, 0x3d, 0x46, 0x6a, 0x68, 0x3d, 0x14, 0x3c, 0x0f, 0x3e,
  0x95, 0x28, 0x01, 0x3e, 0x9d, 0x29, 0xe7, 0x3d, 0x0c, 0x13, 0xe5, 0xbc,
  0xbe, 0xdb, 0xde, 0x3d, 0x86, 0x83, 0xef, 0x3d, 0xa2, 0x6a, 0x31, 0xbc,
  0xf9, 0x6a, 0x8e, 0x3d, 0x0c, 0x14, 0xac, 0xbd, 0x6c, 0xd4, 0x96, 0x3d,
  0x5a, 0x17, 0x24, 0x3e, 0x4e, 0x8f, 0x87, 0x3e, 0x68, 0x4c, 0x24, 0x3d,
  0xd4, 0x99, 0x74, 0xbc, 0x18, 0xf0, 0xfc, 0xbc, 0x3b, 0x65, 0x10, 0x3d,
  0x65, 0x58, 0x93, 0x3d, 0xe3, 0x91, 0x02, 0x3e, 0x7f, 0x59, 0x93, 0x3d,
  0x81, 0x6a, 0x48, 0xbd, 0x60, 0x14, 0x4a, 0x3e, 0x71, 0x5c, 0x58, 0x3e,
  0x72, 0x11, 0x00, 0x3e, 0xbc, 0xb8, 0xad, 0x3d, 0x27, 0x9a, 0xdb, 0x3d,
  0x38, 0x52, 0x41, 0x3d, 0xdf, 0xe8, 0x06, 0x3d, 0xfa, 0xbd, 0x7b, 0xbc,
  0x74, 0x99, 0xae, 0xbd, 0x5b, 0x1c, 0x31, 0x3c, 0x12, 0xb5, 0xeb, 0x3d,
  0x9e, 0x7b, 0x8c, 0xbd, 0x14, 0x01, 0x6c, 0xbd, 0x09, 0x31, 0x22, 0xbd,
  0xd6, 0xc7, 0xcc, 0x3c, 0x40, 0x4c, 0xcf, 0x3c, 0xcc, 0x61, 0xb8, 0x3c,
  0x93, 0xcc, 0x8f, 0x3d, 0x3c, 0x85, 0xbe, 0x3c, 0xd4, 0x15, 0x9f, 0x3c,
  0x9b, 0x91, 0x5a, 0x3d, 0x47, 0xe4, 0xfc, 0x3c, 0x8c, 0xba, 0xd2, 0xbd,
  0xb5, 0xfd, 0x4f, 0x3d, 0x62, 0x04, 0xc6, 0xbd, 0x23, 0x77, 0x38, 0xbc,
  0x18, 0x09, 0x84, 0xbd, 0xfd, 0x6e, 0x22, 0x3d, 0x5c, 0xb2, 0x82, 0xbd,
  0x73, 0xc1, 0x05, 0x3e, 0x36, 0x7c, 0xc5, 0xbc, 0x20, 0xb1, 0x52, 0xbd,
  0x43, 0xeb, 0xd7, 0x3c, 0xa6, 0xfa, 0xf7, 0xbc, 0x8b, 0xc1, 0x9e, 0xbd,
  0x29, 0xf1, 0xc5, 0xbc, 0xaa, 0x8e, 0x95, 0x3d, 0x8c, 0x3a, 0xc8, 0x3d,
  0xd1, 0xf4, 0x98, 0xbd, 0x14, 0x64, 0x35, 0xbb, 0x39, 0x53, 0xf2, 0xbc,
  0xc6, 0xa4, 0xba, 0x3d, 0x59, 0x1f, 0xe8, 0x3c, 0xc6, 0x48, 0x0a, 0xbd,
  0xef, 0xd6, 0xea, 0x3d, 0x30, 0xd7, 0x7d, 0x3b, 0x47, 0x78, 0x54, 0xbd,
  0x78, 0xae, 0x53, 0xbd, 0x70, 0x11, 0x25, 0xbe, 0x86, 0x28, 0xaf, 0x3d,
  0x28, 0x3d, 0xb7, 0x3d, 0xc2, 0xe4, 0x2b, 0x3e, 0x4e, 0x7b, 0xb0, 0x3d,
  0x15, 0x1e, 0x87, 0xbc, 0x21, 0x7f, 0x0a, 0xbe, 0x46, 0x1b, 0x1f, 0xbd,
  0xf1, 0x3a, 0xac, 0x3d, 0xd5, 0xdd, 0xef, 0x3d, 0x1c, 0x17, 0x21, 0x3d,
  0xec, 0x16, 0x3f, 0xbc, 0x74, 0x2b, 0x2e, 0x3e, 0x5d, 0xb0, 0x28, 0x3e,
  0x39, 0x89, 0xba, 0x3c, 0x20, 0x09, 0x84, 0x3c, 0x2b, 0x1a, 0x09, 0x3e,
  0xff, 0xce, 0x55, 0x3c, 0xb3, 0x6b, 0x1d, 0x3e, 0x9d, 0x6b, 0x47, 0x3d,
  0xc6, 0x44, 0x4e, 0xbc, 0x0d, 0x25, 0x8a, 0xbc, 0x82, 0x7a, 0x1b, 0x3c,
  0x75, 0xdc, 0x9b, 0x3d, 0x38, 0x9c, 0x3f, 0xbd, 0xcf, 0x35, 0x2c, 0x3c,
  0x13, 0x1c, 0xdd, 0xbc, 0x42, 0xaa, 0xac, 0x3c, 0xdb, 0x6f, 0xf7, 0xbc,
  0xad, 0x53, 0xbc, 0x3d, 0x5b, 0x7f, 0x8f, 0xbd, 0x63, 0x53, 0xe0, 0x3d,
  0xeb, 0x1a, 0xfa, 0x3d, 0xc2, 0x73, 0x49, 0x3a, 0x0e, 0xe0, 0xa3, 0xbd,
  0xe1, 0xbe, 0xc4, 0x3d, 0x45, 0xfa, 0xae, 0x3d, 0x22, 0x45, 0x20, 0x3e,
  0xad, 0x27, 0x41, 0xbd, 0xa8, 0xcf, 0x07, 0x3e, 0x35, 0xa5, 0x82, 0x3d,
  0xda, 0xa1, 0x21, 0x3b, 0xbe, 0xad, 0xa1, 0xbb, 0x21, 0x5e, 0x16, 0x3e,
  0x05, 0x8d, 0x43, 0xbc, 0x2e, 0x1b, 0x50, 0x3c, 0xa6, 0x98, 0xc1, 0xbd,
  0x85, 0xa9, 0xeb, 0x3d, 0xf0, 0x82, 0x43, 0x3c, 0x1d, 0xdf, 0xe0, 0x3d,
  0x6d, 0x34, 0x04, 0x3d, 0x8b, 0xc3, 0x47, 0xbd, 0x33, 0x53, 0xd7, 0x3d,
  0xd0, 0x3f, 0xf8, 0x3d, 0xb4, 0x0c, 0x1e, 0x3d, 0x17, 0x02, 0xd9, 0x3d,
  0xf4, 0xc9, 0xca, 0x3d, 0x3d, 0xa5, 0xac, 0x3d, 0x5a, 0x12, 0x5e, 0x3d,
  0x58, 0x58, 0x13, 0x3b, 0xc7, 0x08, 0xe1, 0xbd, 0x44, 0x3b, 0xa0, 0x3c,
  0xc8, 0x12, 0x29, 0x3c, 0x56, 0xc9, 0x33, 0x3e, 0xb6, 0x78, 0x31, 0x3c,
  0xc4, 0x0a, 0x41, 0xbd, 0x15, 0xad, 0xf2, 0xbd, 0x9e, 0xe7, 0x92, 0x3d,
  0x6c, 0xd0, 0x86, 0x3d, 0x97, 0xd5, 0x2e, 0x3e, 0x27, 0x9a, 0x7b, 0x3d,
  0x4f, 0x67, 0xa4, 0xbd, 0x47, 0xf0, 0x52, 0x3d, 0x01, 0x46, 0xe6, 0x3c,
  0x4d, 0x60, 0xd9, 0x3c, 0xc5, 0xd2, 0x09, 0x3e, 0x5b, 0xe6, 0xfc, 0x3d,
  0x51, 0xb1, 0x7b, 0x3d, 0x1f, 0x5d, 0x92, 0x3d, 0x01, 0x16, 0x91, 0x3d,
  0x12, 0xda, 0x81, 0xbd, 0x1d, 0xd2, 0xce, 0xbc, 0x2e, 0x09, 0xd5, 0x3c,
  0x5a, 0xa7, 0x9c, 0x3d, 0x2a, 0xc9, 0x71, 0xbd, 0xfc, 0x72, 0xea, 0xbd,
  0x45, 0x4a, 0x4a, 0x3b, 0x1e, 0x89, 0x5b, 0xbd, 0x20, 0x05, 0xd3, 0x3d,
  0x2a, 0x1e, 0x6c, 0x3d, 0xd9, 0x98, 0x45, 0xbb, 0xd1, 0x10, 0x4c, 0x3b,
  0xff, 0x6e, 0xe7, 0xbb, 0xe5, 0x19, 0x73, 0x3c, 0xd5, 0xaf, 0xd0, 0x3c,
  0xf9, 0x78, 0x39, 0x3d, 0x50, 0x1b, 0x32, 0xbd, 0xc6, 0xd0, 0xfc, 0x3d,
  0xbc, 0x69, 0x9d, 0x3d, 0xa6, 0xde, 0xef, 0x3d, 0xb3, 0x5d, 0xe4, 0x3c,
  0x7e, 0xe7, 0x96, 0xbd, 0xb8, 0x68, 0xac, 0xbd, 0x6c, 0xe9, 0x83, 0x3d,
  0x04, 0xac, 0x34, 0xbd, 0xf8, 0xc1, 0xa1, 0x3d, 0x61, 0x47, 0x62, 0x3c,
  0xfa, 0x25, 0x06, 0x3d, 0x78, 0x66, 0xb1, 0x3d, 0x91, 0xfe, 0x76, 0x3d,
  0x26, 0x42, 0xa7, 0xbd, 0xf3, 0x69, 0x5d, 0x3d, 0x54, 0xbb, 0x85, 0x3d,
  0x48, 0x1a, 0x00, 0x3d, 0x3f, 0x49, 0x04, 0xbd, 0xb3, 0xe0, 0xba, 0x3d,
  0xad, 0x04, 0xd8, 0x3d, 0x85, 0x41, 0x3b, 0x3d, 0x7c, 0xcd, 0x1d, 0xbd,
  0x42, 0xb8, 0x35, 0x3c, 0x62, 0xe3, 0x13, 0xbe, 0x40, 0x3d, 0x1e, 0x3d,
  0x27, 0xa0, 0xd5, 0x3d, 0xd3, 0x78, 0xec, 0x3d, 0xf3, 0x1f, 0xa7, 0x3b,
  0xc2, 0xab, 0xcd, 0xbc, 0x27, 0xca, 0xfa, 0xbd, 0x9e, 0x43, 0x64, 0xbd,
  0x6a, 0x39, 0x18, 0x3d, 0x37, 0x55, 0xc8, 0x3d, 0x8b, 0x07, 0x48, 0x3c,
  0x00, 0x7e, 0x14, 0x3c, 0xda, 0x8e, 0x1c, 0x3e, 0x73, 0x17, 0x32, 0x3e,
  0xfa, 0x4a, 0x96, 0x3d, 0x90, 0x02, 0x97, 0xbc, 0x17, 0x09, 0x86, 0x3d,
  0xa2, 0x86, 0xe6, 0x3b, 0xa0, 0x4f, 0xf9, 0x3d, 0x32, 0x26, 0xa7, 0x3d,
  0xb9, 0xea, 0x59, 0xbd, 0x09, 0xce, 0x83, 0x3d, 0xda, 0x96, 0xa9, 0x3d,
  0x06, 0x39, 0x94, 0xbc, 0xf6, 0x51, 0xaf, 0x3b, 0xc1, 0x2a, 0x01, 0xbe,
  0xf7, 0xfa, 0x99, 0xbd, 0x1a, 0x2c, 0x25, 0x3d, 0xad, 0x3c, 0xeb, 0xbc,
  0x35, 0x3d, 0x79, 0x3d, 0x4b, 0xc6, 0xee, 0xbd, 0xdc, 0x59, 0x64, 0x3d,
  0x36, 0x2b, 0xb4, 0x3d, 0x8f, 0x60, 0x44, 0x3d, 0xcc, 0x39, 0x3f, 0xbc,
  0xbd, 0x2e, 0x02, 0x3d, 0x16, 0x23, 0x41, 0x3c, 0x7b, 0x1f, 0x9e, 0x3d,
  0x3e, 0x5e, 0x88, 0xbd, 0x0b, 0x9c, 0x3e, 0x3d, 0x0f, 0x50, 0x52, 0x3d,
  0x80, 0x1c, 0x66, 0xb9, 0x02, 0x32, 0xa6, 0x3c, 0x45, 0xd8, 0xe1, 0xbc,
  0x82, 0x8b, 0x46, 0xbc, 0x35, 0xf3, 0x5b, 0x3c, 0x90, 0x6e, 0xf9, 0xbd,
  0x87, 0x19, 0x1a, 0xbd, 0xe9, 0x17, 0x84, 0x3d, 0xce, 0x47, 0x12, 0x3d,
  0x89, 0x9c, 0x4e, 0x3c, 0xc9, 0xb2, 0xce, 0xbb, 0x44, 0x9a, 0x41, 0x3d,
  0xa4, 0xfd, 0x19, 0x3d, 0x89, 0xa8, 0x94, 0xbd, 0x75, 0x76, 0x31, 0xbd,
  0x8a, 0xb9, 0x60, 0x3c, 0x20, 0x8d, 0xdb, 0x3d, 0xfb, 0x47, 0x8c, 0x3d,
  0x9a, 0x63, 0x0e, 0xbd, 0x62, 0xa6, 0x47, 0xbd, 0x26, 0xcb, 0xa4, 0x3d,
  0x9f, 0xea, 0xa6, 0x3d, 0x74, 0x8e, 0x1d, 0x3e, 0x80, 0x1f, 0x0c, 0xbe,
  0xb8, 0x15, 0x38, 0x3d, 0xac, 0x61, 0xab, 0xbd, 0xb1, 0x97, 0xec, 0x3c,
  0x63, 0x4e, 0xe0, 0xbc, 0x04, 0x28, 0x32, 0x3d, 0xae, 0xbe, 0x00, 0xbd,
  0x12, 0xa4, 0x72, 0xbd, 0x0b, 0x35, 0x91, 0x3d, 0x87, 0x26, 0x15, 0x3e,
  0x62, 0x52, 0xd6, 0xbc, 0x1b, 0x37, 0x8f, 0xbd, 0x7a, 0xe2, 0x2a, 0x3d,
  0x70, 0x2b, 0x61, 0x3d, 0xc1, 0xfa, 0xcc, 0xbc, 0x1b, 0xe8, 0x12, 0x3e,
  0x44, 0x6d, 0x27, 0xbb, 0xac, 0xdf, 0xf4, 0x3b, 0xe0, 0xcf, 0x8d, 0x3d,
  0xb5, 0x1a, 0xd4, 0x3d, 0x27, 0xe0, 0xd5, 0x3b, 0x24, 0xa2, 0xd0, 0x3c,
  0x27, 0xa9, 0x9c, 0xbd, 0x0b, 0x68, 0x92, 0xbc, 0x0b, 0xca, 0x33, 0x3d,
  0x11, 0x81, 0xf2, 0xbc, 0x46, 0xc9, 0x99, 0xbd, 0xcf, 0xaf, 0x8f, 0x3c,
  0x73, 0x17, 0x73, 0x3d, 0x12, 0xb1, 0x4b, 0x3c, 0xb0, 0x16, 0x82, 0x3d,
  0xef, 0xa9, 0x97, 0x3d, 0x35, 0xdc, 0xc3, 0x3c, 0xa1, 0x9a, 0x47, 0x3d,
  0x7d, 0x2d, 0x15, 0xbb, 0x16, 0x4e, 0xcb, 0x3d, 0xde, 0xde, 0xa4, 0x3c,
  0x3f, 0xc6, 0xb7, 0x3c, 0x1b, 0x24, 0xaa, 0x3c, 0x8c, 0x1d, 0xe9, 0x3c,
  0x10, 0x90, 0x8e, 0x3d, 0x67, 0xce, 0x88, 0x3d, 0x11, 0xb0, 0xbf, 0xb9,
  0xf9, 0xdb, 0x0f, 0x3d, 0xb4, 0x73, 0x8d, 0x3d, 0x50, 0x42, 0xa7, 0x3c,
  0xef, 0x7a, 0x8e, 0x3c, 0xdd, 0x2b, 0x03, 0xbd, 0x74, 0xf8, 0xc8, 0x3c,
  0x25, 0x8b, 0x48, 0x3e, 0x70, 0xd4, 0xd1, 0x3c, 0xb8, 0xfd, 0x9f, 0x3c,
  0x21, 0xad, 0x77, 0x3d, 0x4f, 0xef, 0x46, 0x3a, 0xd2, 0xf9, 0x5e, 0x3c,
  0xab, 0x45, 0x10, 0xbd, 0x0e, 0xef, 0xb6, 0xbc, 0xc9, 0xac, 0xf9, 0x3d,
  0x56, 0xe3, 0x87, 0x3b, 0x4a, 0x85, 0x97, 0x3d, 0x52, 0x68, 0x8b, 0x3c,
  0xc0, 0x00, 0x9c, 0xbc, 0x6c, 0xf4, 0x38, 0xbd, 0x50, 0xec, 0x2e, 0x3e,
  0x95, 0xf5, 0x2e, 0xbd, 0x96, 0x8d, 0xda, 0x3b, 0x91, 0xb7, 0x42, 0xbd,
  0x9f, 0xf5, 0x7a, 0xbd, 0x78, 0x3d, 0x3c, 0x3d, 0x34, 0x88, 0xb4, 0x3d,
  0xe3, 0x28, 0x05, 0xbc, 0x11, 0xbd, 0xc0, 0x3d, 0xdb, 0x7f, 0xab, 0x3c,
  0x71, 0x32, 0x83, 0x3d, 0x95, 0x38, 0xec, 0x3d, 0xd4, 0x8b, 0x7f, 0x3d,
  0x60, 0x93, 0xe0, 0xbc, 0xb3, 0xa4, 0x3b, 0x3e, 0xb5, 0x2e, 0x77, 0x3d,
  0xbc, 0x28, 0xe6, 0x3d, 0xcf, 0xd3, 0x0c, 0xbd, 0xab, 0xfa, 0x09, 0x3d,
  0x3f, 0x3d, 0x9a, 0xbc, 0x22, 0x57, 0x1f, 0xbd, 0xf7, 0x82, 0xa8, 0x3d,
  0x13, 0x4e, 0x04, 0x3e, 0xea, 0x23, 0x2f, 0x3d, 0xbf, 0x41, 0xfb, 0x3c,
  0xe7, 0xb9, 0xad, 0x3d, 0x22, 0x08, 0x59, 0xbd, 0xb7, 0x0a, 0xc8, 0x3b,
  0xf1, 0x35, 0x48, 0xbc, 0xb1, 0x56, 0x63, 0x3d, 0xe2, 0xb9, 0xe6, 0x3d,
  0x57, 0x48, 0x65, 0x3d, 0x64, 0x71, 0x06, 0x3e, 0x30, 0xec, 0xbb, 0xbc,
  0x0f, 0xc3, 0x26, 0x3d, 0x23, 0xb0, 0x07, 0xbd, 0xeb, 0x22, 0x4d, 0xbd,
  0x0b, 0x1a, 0x58, 0x3d, 0x65, 0x87, 0x16, 0x3e, 0x22, 0x0a, 0x0f, 0xbd,
  0x1b, 0xc6, 0xf6, 0x3b, 0xae, 0xcd, 0x08, 0xbb, 0x5c, 0xfd, 0xfd, 0x3d,
  0xb7, 0x0b, 0xe9, 0x3c, 0x5a, 0xc5, 0x69, 0xbd, 0x84, 0x65, 0x86, 0x3d,
  0xde, 0x09, 0x8b, 0x3d, 0xa8, 0x7c, 0x02, 0xbd, 0x32, 0x21, 0xff, 0x3d,
  0x15, 0xc5, 0x0b, 0x3e, 0x59, 0x82, 0x92, 0x3d, 0x33, 0xbe, 0x2b, 0x3d,
  0xea, 0x33, 0x03, 0xbd, 0x00, 0x5b, 0xad, 0xbc, 0x2c, 0x88, 0xe8, 0x3c,
  0x7c, 0xa7, 0xe7, 0x3d, 0x3f, 0x24, 0x25, 0x3d, 0x57, 0xda, 0x95, 0xbc,
  0xa0, 0x20, 0x17, 0xbd, 0xad, 0x69, 0x97, 0xbd, 0xf3, 0x9a, 0xee, 0x3d,
  0xb4, 0xe3, 0x3b, 0x3e, 0x9e, 0x95, 0x30, 0x3d, 0x1d, 0x12, 0x90, 0xbc,
  0x95, 0x3f, 0x8b, 0xbd, 0x6e, 0x18, 0xfd, 0x3d, 0xb9, 0x66, 0x34, 0x3e,
  0xba, 0x85, 0x85, 0x3d, 0xe4, 0x70, 0x1d, 0x3e, 0xfa, 0x5d, 0x9e, 0x3b,
  0x40, 0xd6, 0xa0, 0xbc, 0xf6, 0x93, 0xe2, 0x3d, 0x69, 0xb0, 0x8d, 0x3d,
  0x9c, 0xc2, 0x5f, 0x3c, 0x50, 0x8d, 0xed, 0x3c, 0x57, 0x72, 0x19, 0xbd,
  0xe3, 0x38, 0x14, 0x3e, 0xb0, 0x57, 0x58, 0xbd, 0xae, 0x88, 0x90, 0xbb,
  0x7b, 0x57, 0xd5, 0xbd, 0x0a, 0x13, 0x5f, 0x3c, 0x53, 0x60, 0x87, 0xbc,
  0xa8, 0x05, 0x9f, 0x3c, 0x82, 0xb4, 0xac, 0xbd, 0xb1, 0xf1, 0x22, 0xbb,
  0x93, 0x39, 0xc4, 0x3d, 0x37, 0x22, 0x86, 0x3d, 0xf5, 0xf1, 0x6f, 0xbc,
  0xa2, 0xd6, 0x18, 0x3c, 0xf3, 0xe4, 0x54, 0x3d, 0xd1, 0xdd, 0xef, 0x3d,
  0xb4, 0x60, 0x69, 0x3d, 0x75, 0x92, 0x84, 0x3d, 0x35, 0x12, 0x42, 0x3d,
  0x4e, 0xfb, 0x92, 0xb8, 0xd4, 0xc5, 0x86, 0xbd, 0xae, 0x22, 0x22, 0xbc,
  0xde, 0x3b, 0x26, 0x3d, 0x5a, 0xe9, 0x6a, 0x3d, 0xe5, 0xa7, 0xae, 0xbd,
  0xb5, 0x49, 0x6d, 0xbd, 0x45, 0xd8, 0xca, 0x3c, 0xe3, 0x9b, 0xa0, 0xbc,
  0xff, 0xce, 0x00, 0x3d, 0xd3, 0xb3, 0x2d, 0xbc, 0x6f, 0x96, 0xc8, 0x3d,
  0x9f, 0xf8, 0x6c, 0x3d, 0x26, 0xb5, 0xaa, 0xbc, 0x27, 0x0f, 0x78, 0xbc,
  0xcd, 0x98, 0x12, 0x3d, 0xae, 0x72, 0xf6, 0x3d, 0xea, 0x27, 0xb7, 0x3d,
  0xe3, 0xed, 0xae, 0x3d, 0x26, 0x61, 0xaa, 0xbc, 0xb5, 0x69, 0xbc, 0x3c,
  0x53, 0x0a, 0xd5, 0x3d, 0xe8, 0x10, 0xd4, 0x3d, 0x48, 0x62, 0x2e, 0x3d,
  0x04, 0x1b, 0xeb, 0x3d, 0x79, 0x7b, 0xff, 0xbb, 0xf4, 0xdd, 0x3d, 0x3c,
  0xb6, 0xa9, 0x39, 0x3e, 0x30, 0x22, 0x9f, 0xbc, 0x96, 0xcf, 0xd6, 0x3c,
  0x1a, 0x09, 0x87, 0xbc, 0xe5, 0x3c, 0x7a, 0x3c, 0xe6, 0xd0, 0x08, 0x3e,
  0xa1, 0xe9, 0xdf, 0xbb, 0x52, 0x99, 0xd0, 0xbb, 0x08, 0xa5, 0x00, 0x3e,
  0xa0, 0x25, 0x5a, 0x3d, 0xbc, 0x51, 0x90, 0xbc, 0xe1, 0xeb, 0x89, 0x3b,
  0x14, 0xa8, 0x16, 0x3d, 0xc5, 0x06, 0xa8, 0x3b, 0x1d, 0x31, 0x82, 0x3d,
  0x1e, 0x46, 0x34, 0x3c, 0xd2, 0x5c, 0x1f, 0x3d, 0x63, 0xaf, 0x1d, 0x3d,
  0x5a, 0x36, 0xc6, 0xbd, 0x8e, 0x94, 0x8e, 0x3c, 0xac, 0xc6, 0xff, 0x3d,
  0xf6, 0x4a, 0x88, 0x3d, 0x1a, 0xdc, 0x96, 0xbd, 0xf7, 0xaf, 0x8e, 0xbc,
  0xac, 0xcd, 0x11, 0xbd, 0x0e, 0x5f, 0x6d, 0xbc, 0x31, 0xac, 0xac, 0xbd,
  0x97, 0xcd, 0x08, 0x3b, 0x5f, 0xbc, 0x01, 0x3e, 0x15, 0xeb, 0x15, 0x3e,
  0x7f, 0xcf, 0x01, 0x3d, 0x01, 0x97, 0x37, 0x3d, 0xc8, 0x32, 0xe2, 0xbc,
  0x6b, 0x40, 0x0f, 0x3e, 0x96, 0x34, 0xd0, 0x3c, 0xc3, 0xc0, 0x0f, 0x3d,
  0x21, 0xfb, 0x7f, 0x3d, 0x29, 0xbc, 0x0e, 0x3d, 0xa3, 0xa1, 0x82, 0xba,
  0xb1, 0x3a, 0xab, 0x3d, 0xb7, 0xc8, 0x20, 0x3e, 0x04, 0xd2, 0x3e, 0x3c,
  0xa1, 0x83, 0x33, 0xbd, 0xe4, 0x0d, 0x37, 0x3c, 0xd6, 0x94, 0x95, 0x3d,
  0x36, 0x00, 0x44, 0x3d, 0xb2, 0xbe, 0x66, 0xbb, 0xee, 0x39, 0xab, 0x3d,
  0xb9, 0xc6, 0xd7, 0x3d, 0x48, 0xf3, 0xea, 0x3d, 0x00, 0xbe, 0xca, 0x3d,
  0x81, 0xd6, 0x46, 0x3c, 0xc7, 0xf1, 0x1c, 0xbd, 0x8a, 0xea, 0x94, 0xb9,
  0x8b, 0x93, 0xf7, 0x3c, 0x17, 0x28, 0xe7, 0x3d, 0x66, 0x4f, 0x38, 0x3d,
  0xeb, 0x19, 0xb3, 0x3c, 0x4e, 0xef, 0xe0, 0xbd, 0x0d, 0x0e, 0x34, 0x3d,
  0xd8, 0x68, 0x0f, 0x3e, 0x86, 0x38, 0x94, 0x3c, 0xfe, 0x10, 0xc8, 0xbc,
  0x33, 0x97, 0x18, 0x3d, 0x9f, 0xe1, 0x30, 0x3d, 0x68, 0x4d, 0xd5, 0x3d,
  0xef, 0x76, 0xc6, 0xbc, 0xe6, 0xfe, 0xfa, 0xbc, 0x83, 0xb3, 0x6b, 0xbc,
  0x17, 0xa9, 0x00, 0x3d, 0x54, 0x77, 0x55, 0xbd, 0x1b, 0xe7, 0xf6, 0x3c,
  0x99, 0x38, 0x8d, 0x3c, 0x31, 0xb3, 0x78, 0x3d, 0x79, 0xd5, 0x39, 0xbd,
  0x90, 0x25, 0xa9, 0x3d, 0xcc, 0xcd, 0x36, 0xbd, 0xf1, 0x50, 0x52, 0x3d,
  0x2c, 0xd0, 0x05, 0xbe, 0x48, 0x7c, 0xb9, 0xbb, 0x01, 0x2a, 0xb3, 0x3c,
  0xb9, 0xfa, 0x2f, 0x3d, 0xfd, 0xff, 0xc2, 0xbd, 0x2a, 0xf3, 0x67, 0x3d,
  0x36, 0x7f, 0x9b, 0x3d, 0x22, 0xdd, 0xc8, 0x3c, 0x22, 0xff, 0xde, 0xbd,
  0xd8, 0xfe, 0x95, 0x3d, 0xe2, 0x49, 0x81, 0x3d, 0x43, 0x8c, 0x83, 0x3d,
  0x7f, 0xd2, 0x0e, 0x3c, 0x6a, 0x75, 0x0e, 0x3d, 0xc2, 0x1e, 0xa2, 0x3d,
  0x16, 0x7a, 0x45, 0x3d, 0x78, 0x8c, 0x63, 0xbd, 0xae, 0xfd, 0x10, 0x3d,
  0x13, 0x78, 0x0f, 0x3d, 0xf9, 0xbd, 0x94, 0x3d, 0xe3, 0xa1, 0xa1, 0xbd,
  0x59, 0x2f, 0x93, 0x3d, 0x00, 0x70, 0x15, 0x3e, 0x71, 0xcb, 0xee, 0x3d,
  0x05, 0x7f, 0x93, 0x3d, 0xe7, 0x42, 0xa7, 0x3d, 0xc1, 0xc2, 0xe0, 0x3c,
  0xe1, 0xd7, 0x1f, 0x3e, 0x79, 0x9d, 0x06, 0x3e, 0x4a, 0xfd, 0xbd, 0xb9,
  0x6d, 0x46, 0xb7, 0x3d, 0x3d, 0x4c, 0x98, 0x3d, 0xc9, 0xa7, 0xe6, 0x3c,
  0xca, 0xcd, 0xa6, 0x3d, 0x5f, 0xb9, 0xd6, 0x3c, 0x93, 0xef, 0x96, 0x3d,
  0x12, 0x45, 0xc6, 0x3d, 0xf9, 0x58, 0x5a, 0x3c, 0x63, 0xc1, 0x01, 0x3e,
  0xf5, 0x56, 0xf1, 0x3d, 0xb0, 0x9e, 0xc0, 0x3c, 0x0a, 0xb8, 0x96, 0x3d,
  0x6a, 0x5d, 0x0e, 0x3e, 0x26, 0x69, 0xb1, 0x3d, 0xf8, 0x99, 0x14, 0xbc,
  0xec, 0x4d, 0xa0, 0x3d, 0x09, 0xc2, 0x60, 0x3d, 0x8e, 0xe0, 0x29, 0x3d,
  0xce, 0x56, 0xd2, 0x3d, 0x30, 0xe9, 0xc8, 0x3d, 0x8c, 0xcc, 0x78, 0xbd,
  0x82, 0xcb, 0x90, 0x3d, 0xb7, 0x56, 0x4a, 0xbb, 0xe8, 0xb1, 0x89, 0x3d,
  0xf8, 0x7f, 0x88, 0xbd, 0x31, 0x08, 0x16, 0xbc, 0x3e, 0x2f, 0xf7, 0xbd,
  0x74, 0xd2, 0x7d, 0xbc, 0xa2, 0x39, 0xdd, 0xbc, 0xf4, 0x01, 0x24, 0x3d,
  0x0c, 0x15, 0x00, 0xbe, 0x05, 0xb0, 0x0a, 0x3d, 0xe7, 0x0e, 0x11, 0x3d,
  0x97, 0x46, 0x20, 0x3d, 0xcb, 0xa2, 0x77, 0xbd, 0x51, 0x33, 0x96, 0x3d,
  0x0b, 0x88, 0x5e, 0x3d, 0x85, 0xcd, 0xfd, 0x3c, 0x92, 0xaf, 0x6c, 0xbc,
  0x8b, 0x23, 0x6e, 0x3d, 0x4c, 0x75, 0xdf, 0x3d, 0xc2, 0x16, 0x37, 0x3e,
  0xfb, 0x24, 0xf7, 0xbd, 0x07, 0x45, 0xc9, 0x3b, 0xdf, 0xb8, 0x1b, 0x3e,
  0x5a, 0x5f, 0xcf, 0x3d, 0xa4, 0xe5, 0x14, 0xbd, 0xc0, 0x2b, 0x86, 0x3d,
  0x70, 0x55, 0xe9, 0x3c, 0xb9, 0x1f, 0xad, 0x3d, 0x5e, 0xfd, 0x1f, 0xbc,
  0x23, 0xcc, 0x1c, 0xbb, 0xef, 0x73, 0x21, 0x3b, 0x21, 0xf7, 0x43, 0x3d,
  0xaf, 0xc3, 0xd9, 0x3d, 0x1f, 0x72, 0x70, 0x3c, 0x99, 0xfe, 0xab, 0x3d,
  0xfe, 0x3e, 0x25, 0x3e, 0xd0, 0xcb, 0xc2, 0x3c, 0x7e, 0x66, 0xcf, 0x3c,
  0xef, 0x73, 0x5e, 0x3d, 0xaf, 0x3d, 0x04, 0x3d, 0x00, 0xd5, 0x3a, 0x3e,
  0xd1, 0x22, 0x06, 0x3e, 0xa0, 0x01, 0xf2, 0xbd, 0xe5, 0x95, 0x1b, 0x3e,
  0x08, 0xda, 0x02, 0x3e, 0x48, 0x17, 0x25, 0x3d, 0x8a, 0x80, 0xc4, 0xbd,
  0x89, 0xe7, 0xfa, 0x3d, 0x2f, 0xbb, 0x4b, 0xbd, 0xf0, 0xcd, 0x30, 0x3e,
  0x36, 0x8b, 0x18, 0x3e, 0xc1, 0x9e, 0x5c, 0x3d, 0x40, 0x59, 0x4b, 0xbd,
  0xcd, 0x69, 0xcc, 0xbc, 0x7b, 0x45, 0x0d, 0x3e, 0xf4, 0xa7, 0x60, 0x3d,
  0xdb, 0xf0, 0xcc, 0x3d, 0xb7, 0x20, 0x64, 0x3d, 0x3f, 0x6a, 0x7d, 0xbb,
  0xf1, 0x3b, 0xa7, 0x3d, 0xe6, 0x05, 0xbd, 0x3d, 0xe9, 0x4e, 0x7d, 0x3d,
  0x35, 0xe7, 0xba, 0x3b, 0xdb, 0xbb, 0x30, 0x3c, 0x18, 0xe0, 0x9d, 0x3c,
  0x52, 0xa2, 0xaf, 0x3c, 0xf5, 0xad, 0x85, 0x3d, 0xb2, 0xd8, 0xc9, 0x3d,
  0xd7, 0xa7, 0x8d, 0xbd, 0xab, 0x1e, 0x43, 0xbb, 0x55, 0x26, 0xa9, 0x3c,
  0x7c, 0x91, 0x37, 0x3d, 0x07, 0x79, 0xb4, 0xbd, 0x43, 0xc0, 0xdc, 0x3d,
  0x40, 0xb1, 0xc4, 0x3d, 0x2d, 0x68, 0xdf, 0x3d, 0xc4, 0x9a, 0x70, 0xbd,
  0xae, 0xb4, 0x02, 0x3e, 0x4f, 0x77, 0xac, 0x3d, 0x33, 0xa4, 0x1e, 0x3e,
  0xf8, 0x53, 0x8c, 0xbd, 0x9c, 0x5e, 0x75, 0x3b, 0x16, 0x65, 0x18, 0x3c,
  0xef, 0xff, 0x17, 0x3d, 0xb6, 0x37, 0x1f, 0xbc, 0x39, 0x84, 0x09, 0x3e,
  0x92, 0xbe, 0x8e, 0x3d, 0x27, 0xfd, 0xb4, 0x3d, 0x0c, 0x7f, 0x5b, 0x3d,
  0x3f, 0x0a, 0x6d, 0x3d, 0x0c, 0xe7, 0xfb, 0x3d, 0x6e, 0xf3, 0x07, 0x3e,
  0xd6, 0x53, 0xa8, 0x3c, 0xc0, 0xc6, 0x04, 0x3d, 0xb0, 0x5b, 0xec, 0x3c,
  0x08, 0x72, 0x2e, 0x3e, 0xa0, 0x1c, 0x1e, 0x3e, 0xfb, 0x51, 0x0b, 0x3c,
  0x55, 0xbe, 0x0f, 0x3d, 0x25, 0xbe, 0x82, 0x3d, 0x66, 0x8c, 0x42, 0x3e,
  0xd2, 0x1e, 0xf3, 0x3d, 0xe9, 0x7e, 0xc3, 0xbd, 0x88, 0x5c, 0xb7, 0x3d,
  0x82, 0x15, 0xd3, 0x3d, 0xd0, 0xd4, 0x50, 0x3d, 0xe1, 0x2c, 0xb6, 0xbc,
  0xea, 0xac, 0x98, 0x3d, 0x4c, 0x14, 0xfd, 0xbb, 0xb8, 0x7f, 0xdd, 0x3d,
  0xab, 0x5b, 0x17, 0x3e, 0xeb, 0x47, 0x8f, 0x3d, 0x3f, 0x2d, 0xad, 0xbd,
  0x3d, 0x92, 0x85, 0xbd, 0x42, 0x00, 0x99, 0xbc, 0x5f, 0xee, 0x9f, 0x3d,
  0xf8, 0xbd, 0x84, 0x3c, 0x7e, 0xec, 0x30, 0xbd, 0xae, 0x76, 0xfa, 0xbc,
  0xd8, 0x0a, 0xd5, 0x3d, 0x6a, 0x18, 0xc4, 0xbb, 0x99, 0xdc, 0x59, 0x3c,
  0xf7, 0xb8, 0xb9, 0x3d, 0x74, 0x38, 0xbc, 0x3b, 0xe1, 0x5b, 0x04, 0x3d,
  0x97, 0x81, 0xfe, 0xbc, 0xab, 0xf3, 0x13, 0xbc, 0x02, 0x5e, 0x71, 0xbc,
  0xfd, 0x06, 0x03, 0xbd, 0x5e, 0xad, 0x61, 0x3d, 0x8f, 0xa8, 0xfe, 0x3a,
  0x38, 0xf2, 0x29, 0x3d, 0xe0, 0x29, 0x4e, 0x3d, 0xe4, 0x5f, 0x8a, 0x3b,
  0x52, 0xc8, 0x97, 0x3c, 0x60, 0x85, 0x91, 0x3d, 0x03, 0xdc, 0x0e, 0x3d,
  0x02, 0x00, 0x45, 0x3c, 0x5e, 0x19, 0xf3, 0x3d, 0xaa, 0x4d, 0xa8, 0x3d,
  0xb5, 0xb1, 0x4b, 0xbd, 0x22, 0x05, 0xd8, 0x3d, 0xbc, 0x78, 0x43, 0x3d,
  0xd9, 0xbe, 0x28, 0x3d, 0x14, 0xbc, 0x41, 0x3d, 0xc5, 0x7b, 0xd9, 0x3d,
  0xb0, 0x3d, 0x13, 0x3e, 0x12, 0x83, 0xcf, 0x3d, 0xf7, 0x35, 0x18, 0x3e,
  0xbc, 0xe6, 0xb3, 0x3c, 0x7b, 0xc6, 0x84, 0x3d, 0x25, 0x0a, 0x99, 0x3c,
  0xd8, 0x57, 0x2e, 0x3d, 0x9a, 0xe8, 0xd3, 0x3c, 0x67, 0x9e, 0xcd, 0x3d,
  0x93, 0x2d, 0x52, 0x3e, 0xa7, 0x2f, 0x33, 0x3e, 0xcf, 0x4d, 0x44, 0x3c,
  0x54, 0x25, 0x98, 0x3d, 0x4a, 0x33, 0x6e, 0x3d, 0xa7, 0x52, 0x54, 0x3e,
  0x13, 0xe1, 0xaf, 0x3d, 0xd5, 0xe5, 0x53, 0xbd, 0x09, 0xda, 0xc9, 0x3d,
  0x59, 0x54, 0xad, 0x3b, 0xa9, 0xa3, 0xed, 0x3b, 0x5b, 0xbb, 0x34, 0x3d,
  0xb0, 0x47, 0xe6, 0x3d, 0xf0, 0x47, 0xca, 0x3d, 0x9f, 0x7a, 0x16, 0x3e,
  0x63, 0x28, 0x3c, 0x3e, 0xa4, 0x4f, 0x54, 0xbd, 0x26, 0x0c, 0x28, 0xba,
  0x7e, 0x47, 0xf5, 0xbc, 0x76, 0x08, 0xf4, 0x3d, 0xfe, 0x19, 0x2b, 0x3e,
  0xe7, 0xa2, 0x2c, 0x3d, 0x5f, 0xb3, 0xb9, 0x3d, 0x29, 0x27, 0xba, 0x3d,
  0xf3, 0xc9, 0x91, 0x3d, 0x4f, 0xe6, 0x93, 0x3d, 0x09, 0x8e, 0x82, 0x3d,
  0x79, 0xff, 0xc1, 0x3d, 0x00, 0xa7, 0xdb, 0x3d, 0x83, 0xed, 0x70, 0xbd,
  0x31, 0xe6, 0x57, 0x3b, 0x98, 0x86, 0xea, 0x3c, 0x0e, 0x48, 0x16, 0x3d,
  0xae, 0x73, 0xb0, 0xbd, 0x03, 0xaa, 0x93, 0x3b, 0x65, 0xd6, 0xde, 0x3d,
  0x52, 0x69, 0x43, 0x3e, 0xf0, 0x9b, 0x5b, 0xbd, 0x30, 0x79, 0xeb, 0x3d,
  0x9c, 0xc2, 0xa6, 0x3d, 0x6e, 0x26, 0xd3, 0x3c, 0x39, 0x2c, 0x24, 0xbd,
  0xc3, 0xaa, 0xc2, 0x3b, 0x22, 0x6c, 0xd6, 0x3d, 0xcc, 0xb9, 0x32, 0x3e,
  0x03, 0xc2, 0xca, 0x3c, 0x09, 0xe0, 0xde, 0x3d, 0xf9, 0x99, 0x15, 0x3b,
  0x70, 0xbd, 0x19, 0x3e, 0xed, 0x01, 0x44, 0xbc, 0x3a, 0x5c, 0xbe, 0x3d,
  0x6a, 0xa0, 0x10, 0x3d, 0xb3, 0xc1, 0x95, 0x3d, 0x65, 0xb4, 0xc8, 0x3c,
  0xfc, 0xa0, 0x19, 0x3b, 0x4e, 0x97, 0x97, 0x3c, 0x6f, 0x09, 0x25, 0x3e,
  0x49, 0x20, 0x70, 0xbc, 0x92, 0x33, 0x43, 0x3d, 0xc0, 0xcc, 0x02, 0x3e,
  0xc6, 0x42, 0x32, 0x3e, 0x46, 0x28, 0x0b, 0x3e, 0xfc, 0x00, 0x58, 0x3d,
  0xb5, 0x27, 0x0f, 0x3e, 0x8b, 0x25, 0xe4, 0x3d, 0x9a, 0xdb, 0x21, 0x3e,
  0x45, 0xf7, 0xe8, 0x3c, 0xb9, 0xca, 0x4d, 0x3e, 0x02, 0xfe, 0xf2, 0x3c,
  0x75, 0x23, 0x2e, 0xbd, 0x1e, 0x4d, 0x57, 0x3d, 0x94, 0xbe, 0x3b, 0xbe,
  0x61, 0xe9, 0x7a, 0x3d, 0x1b, 0x83, 0xdd, 0x3c, 0xe4, 0x3b, 0x18, 0x3e,
  0xe6, 0x5a, 0x88, 0xbd, 0x1c, 0xea, 0x81, 0xbd, 0x99, 0xb4, 0xfc, 0xbd,
  0xe5, 0xac, 0x6f, 0x3e, 0xc0, 0x44, 0x3c, 0x3e, 0xcc, 0x86, 0x06, 0xbd,
  0x0f, 0x1f, 0x31, 0xbe, 0x96, 0xbb, 0xae, 0xbd, 0x70, 0xc7, 0xfd, 0x3d,
  0x4d, 0x4b, 0x26, 0x3e, 0x9a, 0xae, 0xe5, 0xbc, 0xd5, 0xef, 0xcd, 0x3d,
  0xbc, 0xca, 0x30, 0x3e, 0xdc, 0x90, 0x0f, 0x3e, 0xb8, 0x72, 0xc1, 0xbc,
  0x5b, 0x37, 0x2f, 0x3e, 0x01, 0x31, 0x9d, 0x3d, 0x36, 0x72, 0xbd, 0x3d,
  0xd1, 0x77, 0x4e, 0x3c, 0x4f, 0xe4, 0xd1, 0x3d, 0xdc, 0x4e, 0xbc, 0x3c,
  0xe6, 0x0d, 0x23, 0x3e, 0x1f, 0x27, 0xc8, 0xbb, 0x78, 0x1a, 0x3b, 0x3b,
  0x47, 0x46, 0xfb, 0x3d, 0x3f, 0x5d, 0xba, 0x3d, 0x8f, 0xc8, 0x0e, 0x3e,
  0xfc, 0x07, 0x71, 0x3d, 0x52, 0xac, 0xbd, 0x3d, 0xd4, 0x34, 0x48, 0x3c,
  0xac, 0x95, 0xbf, 0x3d, 0x11, 0x81, 0x50, 0x3d, 0x56, 0xa6, 0xea, 0xbd,
  0x74, 0xb0, 0x14, 0xbe, 0x9a, 0x2e, 0x93, 0x3d, 0x7e, 0x12, 0xa5, 0x3d,
  0xa8, 0x11, 0x22, 0xbe, 0xba, 0x59, 0x76, 0xbd, 0xe8, 0x07, 0x15, 0xbe,
  0xca, 0x38, 0x4f, 0x3d, 0x64, 0xc6, 0x5f, 0xbb, 0xb4, 0xa2, 0x58, 0x3d,
  0xb0, 0x33, 0x84, 0xbd, 0xfb, 0xfd, 0xe8, 0xbb, 0x7b, 0xf6, 0x81, 0x3a,
  0xe2, 0xf3, 0x38, 0x3d, 0xdd, 0x11, 0x2b, 0xbe, 0xa7, 0x25, 0xa7, 0xbd,
  0xa1, 0x82, 0x00, 0xbd, 0x26, 0x31, 0x95, 0xbc, 0xbd, 0x6a, 0x16, 0xbe,
  0x46, 0xc3, 0x2a, 0xbb, 0x90, 0xb8, 0x65, 0x3e, 0x9b, 0x69, 0xe3, 0xbd,
  0xcd, 0x47, 0x3e, 0xbd, 0xf4, 0xd7, 0x80, 0x3b, 0x08, 0xc1, 0x0e, 0xbe,
  0x3b, 0x2c, 0xb1, 0x3d, 0xa8, 0x93, 0xf6, 0x3c, 0x2c, 0xb7, 0x0f, 0x3e,
  0xaf, 0x02, 0x2f, 0xbe, 0x78, 0x76, 0x2e, 0xbe, 0x8e, 0xdc, 0x84, 0xbc,
  0x96, 0x6c, 0x25, 0xbc, 0x3e, 0x6e, 0x31, 0xbc, 0x2e, 0x52, 0x84, 0xbe,
  0x8b, 0xcb, 0x21, 0xbe, 0xdf, 0xab, 0x51, 0x3d, 0xb0, 0x30, 0x08, 0x3e,
  0xa4, 0x1d, 0x81, 0x3d, 0x9a, 0x85, 0x3a, 0xbe, 0x80, 0xc7, 0x92, 0x3d,
  0x72, 0xd4, 0x60, 0x3e, 0x81, 0x2c, 0x16, 0x3e, 0xcb, 0xb4, 0xb9, 0xbb,
  0xce, 0xd7, 0xac, 0x3d, 0x18, 0x70, 0xfb, 0x3c, 0x65, 0xe1, 0x30, 0x3e,
  0xf9, 0xe9, 0xf1, 0x3d, 0xd2, 0xc9, 0x37, 0x3e, 0xdb, 0xc1, 0x17, 0x3e,
  0x19, 0xa8, 0x60, 0x3d, 0x98, 0x09, 0xe6, 0x3d, 0x85, 0x32, 0xba, 0x3d,
  0x1a, 0x03, 0xf7, 0x3d, 0x10, 0xa0, 0x26, 0x3d, 0x26, 0xaf, 0x89, 0x3d,
  0xc3, 0xb3, 0xc8, 0x3d, 0x41, 0xa3, 0x21, 0x3c, 0x0d, 0xff, 0x42, 0x3c,
  0x29, 0xc4, 0x93, 0x3d, 0x32, 0x1f, 0x1a, 0x3e, 0xe4, 0x49, 0xe3, 0xbc,
  0x6b, 0xac, 0x1c, 0x3d, 0x6a, 0x1f, 0x82, 0xbb, 0x09, 0x4d, 0x14, 0x3d,
  0x54, 0xd1, 0x9a, 0xbd, 0xed, 0x29, 0x48, 0x3c, 0x72, 0x96, 0x9c, 0xbd,
  0x4d, 0x85, 0x2a, 0x3e, 0x22, 0x5b, 0xa0, 0xbd, 0x11, 0x5f, 0x7e, 0x3d,
  0x94, 0x42, 0xa5, 0x3c, 0x99, 0xe5, 0x4e, 0x3d, 0x0a, 0xed, 0x9e, 0x3d,
  0x32, 0xa5, 0x4f, 0x3c, 0xd9, 0xca, 0x04, 0xbe, 0xc4, 0xc6, 0x0e, 0x3e,
  0xe1, 0xbe, 0x5d, 0xbd, 0xb8, 0x5e, 0xb4, 0x3d, 0xe8, 0x41, 0xb7, 0xbd,
  0x15, 0x9b, 0x1e, 0x3e, 0x6e, 0xa0, 0x8b, 0x3d, 0x6a, 0x25, 0x2b, 0xbd,
  0xe4, 0x7c, 0x0d, 0xbe, 0x97, 0xb7, 0x11, 0xbe, 0xec, 0x66, 0x89, 0x3c,
  0xa9, 0x1a, 0xd3, 0xbc, 0x0a, 0xc2, 0x7e, 0x3d, 0x15, 0xf6, 0x42, 0xbc,
  0xa8, 0xb7, 0xed, 0xbd, 0x71, 0x66, 0x18, 0xbe, 0x24, 0x56, 0xbb, 0xbd,
  0x8f, 0x0b, 0x6c, 0xbd, 0xc8, 0x3c, 0xf0, 0xbc, 0x4d, 0x74, 0x54, 0xbe,
  0xff, 0xec, 0xbd, 0xbd, 0x18, 0x68, 0xd1, 0x3c, 0x37, 0x38, 0xf4, 0xbc,
  0xa4, 0xcd, 0xe2, 0xbb, 0xae, 0x2a, 0x2b, 0xbe, 0x4e, 0x93, 0x26, 0xbd,
  0x29, 0xb5, 0x92, 0x3c, 0xe5, 0x52, 0x1d, 0x3e, 0xa5, 0x7b, 0xc5, 0xbd,
  0xc0, 0x12, 0xab, 0x3d, 0x9a, 0x40, 0x08, 0x3e, 0x32, 0xab, 0xe1, 0x3d,
  0x6a, 0xb5, 0x61, 0x3d, 0x12, 0x82, 0x8d, 0x3c, 0x4a, 0xa4, 0x27, 0x3e,
  0x1d, 0x75, 0x37, 0x3d, 0x17, 0xc1, 0x92, 0x3d, 0x7d, 0x4b, 0x17, 0x3d,
  0x3f, 0x51, 0xd4, 0x3d, 0x10, 0x1f, 0xb4, 0x3d, 0x87, 0x26, 0xc7, 0x3d,
  0x84, 0x38, 0x11, 0x3d, 0x1f, 0xec, 0x8b, 0x3c, 0x1c, 0x37, 0x06, 0xbc,
  0xb4, 0x7c, 0x98, 0x3d, 0xb6, 0xf6, 0x1a, 0x3e, 0x30, 0x4b, 0xfb, 0xbb,
  0x59, 0xc2, 0xef, 0x3d, 0xd1, 0x43, 0x4d, 0xbb, 0xd9, 0x94, 0xd2, 0x3d,
  0xe8, 0x67, 0xb3, 0x3d, 0x5b, 0x1b, 0x88, 0x3b, 0xab, 0x29, 0x3a, 0x3d,
  0x87, 0x5b, 0xf9, 0x3d, 0xba, 0x5c, 0xc3, 0x3d, 0xef, 0x37, 0xa8, 0x3c,
  0x0d, 0x13, 0xf4, 0x3c, 0xd7, 0x99, 0x99, 0xbb, 0x7d, 0x0f, 0xc7, 0xbc,
  0xad, 0xb7, 0x94, 0xbd, 0x9c, 0xa1, 0x6d, 0xbd, 0xbd, 0x16, 0x4c, 0x3d,
  0xf7, 0x84, 0x77, 0x3d, 0xb3, 0x35, 0xe1, 0x3d, 0x6f, 0x83, 0xc4, 0xbd,
  0x0f, 0x2f, 0x12, 0x3e, 0xd1, 0x54, 0xfe, 0x3d, 0xe2, 0x9c, 0xaf, 0xbb,
  0x1a, 0x7f, 0x86, 0xbd, 0x43, 0xc6, 0xaa, 0xbd, 0xd7, 0x21, 0x52, 0xbd,
  0x46, 0x8a, 0xd7, 0x3d, 0x04, 0x9f, 0x33, 0x3e, 0xd2, 0x99, 0x10, 0x3e,
  0xfd, 0xaf, 0x46, 0xbe, 0x8e, 0xc3, 0xae, 0xbd, 0x5b, 0x64, 0x9d, 0xbd,
  0x02, 0xd2, 0xbc, 0x3d, 0x67, 0x38, 0xba, 0xbd, 0x88, 0x25, 0x3e, 0xbe,
  0x94, 0x55, 0x7a, 0xbd, 0xac, 0xd6, 0xbb, 0x3d, 0x8b, 0x90, 0xfd, 0xbc,
  0x18, 0x4b, 0x73, 0x3c, 0x58, 0x13, 0x1b, 0xbe, 0x25, 0xdc, 0x82, 0xbd,
  0x46, 0x73, 0x12, 0x3e, 0x1e, 0x73, 0x39, 0x3c, 0xcb, 0xe2, 0xc8, 0xbc,
  0xab, 0x95, 0xa6, 0xbd, 0x8f, 0x4d, 0x60, 0x3c, 0xd7, 0xd0, 0x38, 0x3e,
  0xc1, 0xc3, 0x01, 0x3e, 0x73, 0x00, 0xca, 0xbc, 0x00, 0x12, 0x55, 0xbb,
  0x8a, 0xed, 0x8d, 0x3a, 0xd1, 0x9f, 0x43, 0x3b, 0x2a, 0x52, 0xcb, 0xbd,
  0x8c, 0x4d, 0x91, 0xbc, 0x7f, 0x36, 0xfe, 0x3d, 0xc8, 0xdd, 0x51, 0x3d,
  0x7c, 0x79, 0xd6, 0xbd, 0x5d, 0x5d, 0x9a, 0x3c, 0xb0, 0xe3, 0x8f, 0xbd,
  0x70, 0x4c, 0x22, 0x3d, 0x0d, 0xba, 0x97, 0xbd, 0x8d, 0x83, 0x06, 0x3e,
  0xa0, 0xd8, 0x49, 0x3c, 0x35, 0xaf, 0xec, 0x3d, 0xed, 0xb5, 0xe1, 0xbc,
  0x57, 0x77, 0xbc, 0x3d, 0xa6, 0x6e, 0xd4, 0x3d, 0x2e, 0x12, 0xa7, 0xbb,
  0xd8, 0x8f, 0x7f, 0x3b, 0x37, 0x50, 0xf4, 0x3c, 0x20, 0x07, 0xcb, 0x3d,
  0x59, 0x97, 0x23, 0xbc, 0xa0, 0x9d, 0xdd, 0x3c, 0x1c, 0x02, 0xdb, 0xb8,
  0x34, 0xa3, 0xcf, 0x3d, 0x19, 0x4f, 0xce, 0x3d, 0x52, 0xdc, 0xba, 0x3d,
  0x19, 0xf6, 0x1f, 0x3c, 0xa3, 0x16, 0xd2, 0x3d, 0x84, 0x9b, 0x92, 0xba,
  0xeb, 0x60, 0xd8, 0x3d, 0x76, 0x71, 0x66, 0x3e, 0x55, 0xe4, 0xaa, 0x3c,
  0xdf, 0xed, 0xc6, 0xbd, 0x8c, 0x99, 0x6a, 0xbe, 0xa6, 0x29, 0x5d, 0xbd,
  0x61, 0xf5, 0xda, 0x3d, 0x1a, 0x10, 0x4c, 0x3e, 0xa3, 0xe8, 0xf2, 0x3c,
  0xb4, 0x6b, 0x17, 0xbe, 0xa2, 0x1d, 0xbe, 0xbd, 0x2b, 0x1f, 0x88, 0x3d,
  0xe4, 0x96, 0x04, 0x3c, 0xe8, 0x88, 0x2d, 0xbe, 0x28, 0x6a, 0xae, 0xbd,
  0x6c, 0xe2, 0x82, 0xbd, 0x2b, 0x08, 0x2e, 0xbc, 0xd0, 0x4a, 0x0b, 0xbc,
  0xba, 0xf9, 0xa0, 0x3c, 0xbb, 0xe1, 0xbc, 0xbd, 0x8c, 0x3d, 0x38, 0x3d,
  0xc1, 0xb5, 0x3f, 0x3d, 0xf2, 0x78, 0xc7, 0x3d, 0xc3, 0x4f, 0x96, 0xbb,
  0xf7, 0x92, 0x8e, 0xbd, 0xcf, 0x2e, 0x36, 0x3e, 0x50, 0xe0, 0x93, 0x3d,
  0xe7, 0xa6, 0xb2, 0x3c, 0xe3, 0xc5, 0x80, 0x3d, 0xa7, 0xc3, 0x17, 0x3d,
  0x8f, 0xe7, 0x30, 0x3d, 0x12, 0x69, 0x0c, 0x3d, 0xd5, 0x44, 0x2f, 0xbd,
  0x75, 0x45, 0x05, 0xbd, 0xad, 0x63, 0x05, 0x3e, 0x26, 0x38, 0x6b, 0xb9,
  0x3c, 0xdb, 0xeb, 0xbc, 0x62, 0xcd, 0x51, 0xbc, 0x5f, 0xad, 0x64, 0x3d,
  0xc8, 0xb4, 0x1f, 0x3d, 0x5b, 0x28, 0x0b, 0x3d, 0xe1, 0xd3, 0x5a, 0x3d,
  0x58, 0xa7, 0x17, 0x3e, 0x50, 0xbc, 0x74, 0x3d, 0x6a, 0xd8, 0xd4, 0x3d,
  0x0c, 0x2b, 0x63, 0x3d, 0xe5, 0xc2, 0xe7, 0xbb, 0x3e, 0x0d, 0xbf, 0xbb,
  0xc3, 0xba, 0xa1, 0x3c, 0x99, 0x4c, 0x8e, 0x3c, 0x53, 0x97, 0x01, 0x3e,
  0x30, 0xbc, 0x72, 0x3d, 0x41, 0x7e, 0xbf, 0x3d, 0x3c, 0x25, 0xfc, 0x3c,
  0x72, 0x9e, 0x43, 0x3d, 0xa4, 0x27, 0xd1, 0xbc, 0x72, 0x43, 0xc7, 0x3d,
  0x17, 0x55, 0x05, 0xbc, 0xa0, 0x59, 0xc2, 0xba, 0x5d, 0x61, 0x82, 0x3d,
  0x4f, 0xe2, 0xe9, 0x3d, 0xa9, 0x66, 0x3d, 0x3e, 0x13, 0x77, 0x0c, 0x3e,
  0x35, 0xb9, 0x9b, 0xbd, 0xf1, 0x65, 0x7e, 0xbd, 0xa2, 0xa7, 0x3f, 0xbc,
  0x14, 0xb9, 0xfe, 0x3d, 0x62, 0x58, 0x9d, 0x3d, 0x3c, 0xe5, 0x04, 0x3e,
  0x42, 0x76, 0xa7, 0xbd, 0x34, 0x27, 0x95, 0x3c, 0x6e, 0x93, 0xb2, 0x3d,
  0x74, 0x4f, 0x56, 0x3d, 0xf9, 0x1a, 0x8f, 0xbd, 0x74, 0xb6, 0x39, 0xbe,
  0x3c, 0x25, 0x25, 0xbc, 0x12, 0xf4, 0xce, 0x3d, 0xcd, 0x0e, 0x1e, 0x3c,
  0xa0, 0x1b, 0x46, 0xbd, 0xf9, 0x5f, 0x79, 0x3c, 0x39, 0xca, 0x6e, 0x3c,
  0x9d, 0x3f, 0x39, 0x3e, 0x02, 0xe8, 0x00, 0xbc, 0x57, 0x03, 0x16, 0xbd,
  0xb5, 0xf4, 0x05, 0xbd, 0x6a, 0x16, 0xeb, 0x3d, 0x86, 0x04, 0xd8, 0x3d,
  0x09, 0xc5, 0x6a, 0x3c, 0x4a, 0x46, 0xe1, 0x3d, 0xe3, 0x03, 0x4f, 0xbc,
  0x3d, 0x26, 0xdf, 0xbc, 0xd0, 0xbb, 0xb2, 0xbc, 0x61, 0x6e, 0xbe, 0x3d,
  0xda, 0x73, 0x88, 0xbd, 0x95, 0x25, 0xcc, 0x3d, 0xf7, 0x99, 0x9c, 0x3d,
  0x3f, 0xa1, 0x91, 0x3d, 0x3e, 0xf7, 0x3b, 0x3d, 0x5c, 0x25, 0x49, 0xbb,
  0xc7, 0x5b, 0x9d, 0x3d, 0x9a, 0x9d, 0x83, 0x3d, 0xe7, 0xf1, 0x52, 0xbc,
  0x56, 0x09, 0x13, 0xbb, 0x5a, 0x0d, 0xf8, 0xbc, 0x4f, 0xcc, 0x98, 0x3d,
  0xbc, 0x8f, 0x38, 0xbd, 0xbe, 0xc8, 0xb6, 0xbc, 0x34, 0x29, 0xb3, 0x3d,
  0x76, 0x5f, 0xf6, 0x3d, 0xa8, 0xee, 0x20, 0x3c, 0xf3, 0x5f, 0xb4, 0x3d,
  0x7a, 0x6b, 0x72, 0x3c, 0xec, 0xa9, 0x09, 0x3d, 0x9d, 0xa9, 0x22, 0x3d,
  0xc3, 0xc5, 0x81, 0x3d, 0x45, 0xff, 0xa1, 0x3d, 0x96, 0xf1, 0x9b, 0x3d,
  0x00, 0xff, 0x74, 0xbc, 0x81, 0x17, 0xdf, 0x3d, 0xb5, 0x4b, 0xb7, 0x3c,
  0x62, 0xd2, 0xff, 0x3d, 0x60, 0x35, 0x04, 0x3e, 0x40, 0xd1, 0x26, 0x3d,
  0xa9, 0x9e, 0x4c, 0x3d, 0x47, 0x7c, 0x2b, 0xbd, 0x19, 0xf1, 0x92, 0x3d,
  0x83, 0x95, 0x12, 0x3e, 0x1d, 0x88, 0x0e, 0x3e, 0xdd, 0xb6, 0x55, 0x3d,
  0xf9, 0x91, 0x6b, 0xbd, 0x63, 0x5d, 0x65, 0xbc, 0x8d, 0x8c, 0x1d, 0x3d,
  0xf0, 0x5f, 0x95, 0x3d, 0x4b, 0x03, 0x58, 0x3d, 0xe0, 0x9d, 0xdc, 0xbd,
  0xb7, 0xcd, 0xb8, 0xbc, 0xe4, 0x79, 0x43, 0x3d, 0xdf, 0x2a, 0xf0, 0x3c,
  0x5d, 0x02, 0xab, 0x3d, 0x30, 0x15, 0x03, 0xbd, 0x3d, 0xe7, 0xb9, 0x3b,
  0xf5, 0x6f, 0xc3, 0x3d, 0xb2, 0xad, 0xde, 0x3d, 0x57, 0x33, 0x95, 0xbd,
  0xe5, 0x21, 0xaa, 0xbc, 0x12, 0xd3, 0x59, 0xbb, 0x79, 0xfe, 0x65, 0x3b,
  0x19, 0x31, 0x78, 0xbc, 0x0b, 0x3c, 0xd7, 0x3d, 0xdf, 0xaf, 0xae, 0x3b,
  0x58, 0xc0, 0x76, 0x3d, 0x21, 0xe5, 0x9e, 0x3d, 0xcb, 0x0e, 0x59, 0x3d,
  0x86, 0xb2, 0xe8, 0xbc, 0xfa, 0x89, 0x07, 0xbc, 0x8d, 0x64, 0x62, 0x3d,
  0x9a, 0xbd, 0x43, 0x3c, 0x5e, 0x27, 0xf1, 0x3d, 0x2d, 0x8f, 0x2a, 0x3c,
  0x79, 0x08, 0x49, 0x3d, 0xeb, 0xbe, 0x23, 0xbd, 0xa1, 0xce, 0xe8, 0x3d,
  0x3f, 0x5f, 0x77, 0x3d, 0x7e, 0x14, 0xf4, 0x3c, 0xda, 0xc9, 0x14, 0x3e,
  0x50, 0x99, 0xd9, 0x3c, 0x7c, 0x35, 0xbb, 0x3d, 0xe1, 0x8a, 0x9c, 0x3d,
  0x88, 0xbf, 0x1f, 0x3e, 0xb8, 0x81, 0xd1, 0x3d, 0xf3, 0x17, 0xc2, 0x3d,
  0x8e, 0x77, 0xf2, 0x3d, 0x16, 0xbc, 0xcb, 0x3d, 0x4b, 0x9e, 0x83, 0x3d,
  0xb4, 0xda, 0x69, 0xbc, 0x39, 0x0a, 0xe2, 0xbc, 0x31, 0xa8, 0xdc, 0x3d,
  0xb8, 0x58, 0x8e, 0x3d, 0x45, 0xc8, 0x06, 0xbc, 0x47, 0xf6, 0xbd, 0x3c,
  0xd9, 0xd6, 0xbe, 0x3d, 0xde, 0x43, 0x97, 0x3d, 0x28, 0x6a, 0xbd, 0xbc,
  0xd0, 0x2f, 0x07, 0xbc, 0xf5, 0xf6, 0xda, 0xbc, 0xfa, 0x18, 0xe9, 0x3d,
  0xe2, 0xc1, 0x7b, 0x3d, 0xa6, 0x90, 0xce, 0x3d, 0x18, 0xf3, 0x6a, 0xbe,
  0x77, 0xf3, 0xc9, 0xbd, 0x93, 0xeb, 0xb6, 0xbd, 0x3e, 0x2c, 0xb4, 0x3d,
  0x1a, 0x47, 0x64, 0x3d, 0xe4, 0xac, 0x2f, 0xbd, 0x0e, 0xef, 0xf1, 0xbd,
  0x81, 0xd4, 0x88, 0xbd, 0xdc, 0x8e, 0xa0, 0x3d, 0x53, 0xa1, 0xd3, 0xbd,
  0x54, 0xdd, 0x05, 0xbd, 0x38, 0xd2, 0x69, 0x3c, 0x61, 0xc8, 0xf4, 0x3d,
  0x3a, 0xf5, 0x81, 0x3d, 0x5c, 0xa2, 0xc1, 0x3c, 0xd0, 0xdc, 0x87, 0xbd,
  0x1d, 0x2a, 0x32, 0x3d, 0x99, 0xea, 0xa2, 0x3c, 0xdf, 0x49, 0x95, 0x3d,
  0x74, 0x0e, 0xe6, 0x3d, 0x58, 0x83, 0x77, 0x3d, 0xe5, 0xc3, 0xa7, 0xbd,
  0x20, 0x46, 0x8e, 0x3d, 0x46, 0x20, 0xf3, 0x3d, 0xd4, 0xc4, 0x30, 0x3d,
  0xe9, 0x7c, 0xa4, 0x3c, 0xef, 0x65, 0x91, 0x3d, 0x0a, 0xd9, 0x45, 0xbd,
  0xf9, 0x8b, 0x25, 0xbc, 0xfc, 0x87, 0x93, 0x3c, 0x48, 0x0f, 0xb6, 0x3d,
  0x73, 0x69, 0xfd, 0xbc, 0x61, 0x69, 0x54, 0xbc, 0x3b, 0xa7, 0x8c, 0x3d,
  0xff, 0xa1, 0x86, 0x3b, 0x97, 0xc1, 0x83, 0x3d, 0x19, 0x94, 0xd5, 0x3d,
  0xed, 0xdc, 0x08, 0x3e, 0xc7, 0x2c, 0x00, 0xbd, 0x92, 0x26, 0x99, 0x3d,
  0x4d, 0x38, 0xad, 0x3d, 0xcd, 0x3f, 0x28, 0xbd, 0x59, 0x1f, 0xc9, 0x3b,
  0x93, 0xf9, 0x0f, 0x3d, 0xca, 0x3d, 0x1a, 0x3d, 0xd9, 0x80, 0x4a, 0x3d,
  0x83, 0x08, 0xf1, 0xbb, 0xb9, 0x21, 0x62, 0x3d, 0x93, 0xf7, 0x50, 0x3d,
  0xbf, 0xc7, 0x91, 0x3c, 0xd1, 0xdd, 0x28, 0x3d, 0xe0, 0xa4, 0xc7, 0xbc,
  0x69, 0x4d, 0xf1, 0x3c, 0x6b, 0x88, 0x84, 0x3d, 0x7d, 0x22, 0x04, 0xbd,
  0xcb, 0x36, 0x19, 0xbd, 0x19, 0x68, 0x9d, 0x3d, 0x28, 0x49, 0xa3, 0x3d,
  0x74, 0xf2, 0x24, 0xbd, 0x4e, 0x4b, 0xa9, 0x3d, 0x91, 0x95, 0x77, 0xbd,
  0xb6, 0xa4, 0x3a, 0xbe, 0x4b, 0x4d, 0x93, 0x3b, 0xe2, 0xba, 0x4c, 0x3d,
  0xe7, 0x0d, 0x05, 0x3e, 0x00, 0x85, 0x56, 0xbd, 0x33, 0x26, 0xfc, 0xbd,
  0xed, 0x10, 0x34, 0xbd, 0x09, 0xc5, 0x9f, 0x3d, 0xbf, 0x8d, 0x86, 0xbd,
  0xbe, 0x6e, 0x3c, 0xbd, 0xca, 0x75, 0xa5, 0xbd, 0xd5, 0xba, 0xc7, 0x3c,
  0xa2, 0xdc, 0x20, 0x3e, 0x17, 0x4f, 0x8c, 0x3d, 0xed, 0xd4, 0xa6, 0xbd,
  0x51, 0x58, 0xb1, 0x3d, 0xae, 0x55, 0x00, 0x3e, 0xb9, 0x04, 0xf1, 0x3d,
  0x5d, 0x7b, 0x71, 0xb9, 0x91, 0x12, 0x11, 0x3e, 0xd6, 0x7f, 0xa4, 0x3d,
  0xe8, 0x0b, 0xfc, 0x3c, 0x19, 0x7b, 0x47, 0x3d, 0xd7, 0x64, 0x1d, 0x3d,
  0xb4, 0xfa, 0x30, 0x3d, 0x94, 0xe0, 0xc6, 0x3d, 0x51, 0x2d, 0xcd, 0x3c,
  0x9e, 0x03, 0xb6, 0x3d, 0x80, 0x59, 0x68, 0x3d, 0xa3, 0xad, 0xdd, 0x3c,
  0xd6, 0xca, 0x28, 0x3d, 0x95, 0x99, 0xb9, 0x3d, 0x23, 0x5e, 0xb4, 0xbb,
  0x8e, 0xff, 0x8a, 0x3d, 0xa7, 0x23, 0x8a, 0x3d, 0x9a, 0x9d, 0x02, 0x3e,
  0x4f, 0xeb, 0xa7, 0x3d, 0x50, 0x5f, 0xbf, 0xbc, 0xac, 0x0b, 0xf6, 0xbb,
  0x59, 0x47, 0x7f, 0x3c, 0x98, 0xd1, 0xab, 0x3d, 0xe7, 0x68, 0x12, 0x3e,
  0xdb, 0xfc, 0x47, 0x3c, 0xe5, 0x48, 0xb4, 0x3c, 0x62, 0x42, 0x8f, 0xbb,
  0x0f, 0x79, 0xc1, 0x3c, 0x78, 0x6c, 0x91, 0xbd, 0x2c, 0x61, 0x62, 0x3d,
  0x02, 0x14, 0x11, 0xbd, 0x93, 0xe0, 0x83, 0x3d, 0x2a, 0x15, 0x6c, 0x3d,
  0xb1, 0xd9, 0xbe, 0x3c, 0xeb, 0x06, 0x53, 0x3e, 0xb2, 0x10, 0x58, 0x3d,
  0x40, 0xac, 0x22, 0x3d, 0x2f, 0x1d, 0xa0, 0x3d, 0x9c, 0x92, 0x66, 0x3d,
  0x84, 0xfc, 0xa2, 0xbd, 0xd6, 0x15, 0xb6, 0x3d, 0x6a, 0x4c, 0xf4, 0xbd,
  0x89, 0x83, 0x74, 0xbc, 0x10, 0x2f, 0x33, 0x3d, 0x52, 0x82, 0x81, 0x3d,
  0x09, 0x96, 0x8a, 0x3d, 0x37, 0x4b, 0x03, 0x3d, 0x0c, 0xcd, 0x93, 0xbd,
  0xb7, 0x74, 0x4e, 0x3d, 0xe7, 0x66, 0xf0, 0x3d, 0xbf, 0x28, 0x90, 0x3d,
  0x71, 0x88, 0x33, 0x3d, 0xc6, 0x44, 0x95, 0x3c, 0x68, 0xa7, 0x53, 0xbb,
  0x02, 0xf2, 0xcb, 0x3d, 0x8e, 0xde, 0xca, 0x3c, 0xb3, 0x09, 0xe3, 0x3d,
  0x9d, 0x94, 0xce, 0x3d, 0xaa, 0x71, 0xc6, 0x3d, 0x72, 0x13, 0x07, 0x3e,
  0xec, 0xdf, 0xf1, 0x3c, 0x3b, 0x51, 0xe4, 0x3d, 0x5e, 0xa3, 0x30, 0xbd,
  0x25, 0xe1, 0x16, 0x3c, 0x31, 0xb3, 0xc9, 0x3c, 0x34, 0x55, 0x0e, 0x3d,
  0xd1, 0x1a, 0xe2, 0xbc, 0xe0, 0xae, 0xfb, 0x3d, 0xe5, 0x42, 0xf7, 0x3d,
  0x73, 0x68, 0xd1, 0x3d, 0xdc, 0x6c, 0x05, 0x3e, 0x27, 0x10, 0x0a, 0xbd,
  0x2a, 0x02, 0xbb, 0x3d, 0xde, 0x46, 0x34, 0x3d, 0x35, 0x8a, 0x39, 0x3c,
  0x37, 0x49, 0x89, 0x3d, 0xbb, 0x7c, 0x63, 0xbc, 0xb0, 0xff, 0xe1, 0x3d,
  0xd2, 0xf9, 0xb7, 0x3d, 0x58, 0xae, 0xeb, 0x3b, 0xc6, 0x23, 0x88, 0x3d,
  0x46, 0xd6, 0x2d, 0x3e, 0xbd, 0xc4, 0x46, 0xbd, 0x7a, 0x1e, 0x3a, 0xbd,
  0x53, 0x72, 0x17, 0xbd, 0xc8, 0x15, 0x03, 0x3e, 0xfd, 0x2d, 0xa3, 0x3c,
  0xf4, 0xde, 0x9b, 0x3b, 0x4b, 0xf4, 0x8d, 0x3d, 0x04, 0x66, 0xf2, 0x3d,
  0x4f, 0x21, 0xdf, 0x3d, 0xf8, 0xff, 0x95, 0x3d, 0xe2, 0xf5, 0xfc, 0x3c,
  0x63, 0x59, 0x24, 0x3e, 0xf1, 0x31, 0x53, 0x3d, 0x2e, 0xd9, 0x54, 0x3d,
  0xc5, 0x85, 0x9b, 0x3d, 0x75, 0xd2, 0xde, 0xbc, 0xda, 0xd7, 0xcf, 0xbc,
  0xe5, 0xb3, 0xa8, 0xbd, 0xfc, 0x43, 0x47, 0x3c, 0xdb, 0x42, 0x03, 0xbe,
  0x64, 0x7e, 0x1b, 0xbe, 0x78, 0x89, 0x8d, 0xbd, 0x68, 0x3f, 0xcc, 0x3a,
  0x90, 0x86, 0xcb, 0x3d, 0x19, 0xcc, 0x80, 0xbc, 0x45, 0xdb, 0xd8, 0x3d,
  0xb1, 0x2c, 0x72, 0x3b, 0xab, 0x1a, 0x09, 0x3e, 0x39, 0x36, 0x2b, 0x3e,
  0x52, 0xb3, 0xde, 0x3d, 0xc9, 0x7d, 0x8f, 0x3d, 0xec, 0xb6, 0xbd, 0x3d,
  0x4f, 0x37, 0xb0, 0x3d, 0x46, 0x4a, 0xa1, 0x3d, 0x1c, 0x03, 0x5e, 0x3d,
  0x9f, 0x97, 0x04, 0x3e, 0xef, 0x49, 0x64, 0x3d, 0xeb, 0xbe, 0x99, 0x3c,
  0xbb, 0xb1, 0x83, 0x3d, 0x0f, 0xba, 0xe1, 0x3d, 0xf6, 0x9e, 0x1a, 0x3e,
  0x4d, 0x45, 0x0a, 0x3e, 0x3f, 0x27, 0xe6, 0x3d, 0x21, 0xba, 0x68, 0x3d,
  0x9c, 0x19, 0x2c, 0x3d, 0x71, 0xb8, 0x3e, 0x3d, 0x74, 0xe2, 0x5f, 0x3d,
  0x19, 0xdf, 0xc7, 0x3d, 0xde, 0x9d, 0x60, 0x3d, 0xab, 0x18, 0xcd, 0x3d,
  0xc3, 0x6d, 0xd7, 0x3d, 0xf5, 0x97, 0xd6, 0x3d, 0x29, 0xd1, 0x20, 0x3d,
  0x83, 0xc9, 0xfb, 0x3d, 0x93, 0xdd, 0x30, 0x3d, 0x8e, 0x33, 0x04, 0x3e,
  0x8b, 0x27, 0xcf, 0x3d, 0x27, 0x5d, 0xdc, 0x3d, 0x12, 0x3a, 0x55, 0xbb,
  0x8e, 0x41, 0x5b, 0x3d, 0x2f, 0x99, 0x35, 0xbb, 0x40, 0x2b, 0xd5, 0x3c,
  0xb1, 0x95, 0x3a, 0x3d, 0xb0, 0x39, 0x07, 0x3e, 0x4b, 0xf9, 0xba, 0x3c,
  0xc2, 0x6d, 0x98, 0x3d, 0x77, 0x95, 0x34, 0xbd, 0x4f, 0xdf, 0x00, 0x3e,
  0xea, 0x17, 0x73, 0x3d, 0xfc, 0xc7, 0x8a, 0x3d, 0xc5, 0x2e, 0x58, 0xbd,
  0x75, 0x58, 0x85, 0x3d, 0x63, 0x0f, 0x40, 0x3d, 0x24, 0xb1, 0xa5, 0xbd,
  0x1a, 0x87, 0x0b, 0x3c, 0x80, 0xa7, 0x52, 0xbd, 0x5a, 0x0f, 0x88, 0x3d,
  0x95, 0x9b, 0x07, 0xbe, 0x42, 0xb6, 0x70, 0x3d, 0x0e, 0x4a, 0xeb, 0xbd,
  0x90, 0x11, 0x10, 0xbe, 0x8b, 0x77, 0xb6, 0xbd, 0x88, 0x5b, 0x01, 0x3e,
  0xf5, 0x08, 0x6c, 0x3c, 0x68, 0x08, 0x25, 0x3c, 0x25, 0x29, 0xc5, 0x3c,
  0x64, 0x06, 0x57, 0xbc, 0xb3, 0xf4, 0xac, 0x3d, 0xe4, 0x16, 0x22, 0x3e,
  0xc9, 0x82, 0x16, 0x3e, 0x1a, 0xf8, 0x78, 0x3d, 0xac, 0xbd, 0x06, 0x3e,
  0x48, 0xcf, 0x4f, 0x3d, 0x9a, 0x7d, 0x33, 0x3c, 0xe6, 0xa3, 0xdb, 0x3d,
  0x7e, 0x4d, 0xbc, 0x3d, 0x58, 0x4e, 0x0d, 0x3d, 0x6a, 0xb4, 0x5b, 0x3d,
  0x1c, 0x79, 0xcc, 0x3c, 0x68, 0x35, 0xeb, 0x3d, 0x2a, 0x1c, 0x23, 0x3e,
  0x86, 0xb1, 0xa4, 0x3d, 0x0e, 0x8c, 0x3b, 0x3d, 0xe5, 0x50, 0x17, 0x3e,
  0xff, 0x1f, 0xb5, 0x3c, 0xa7, 0xd6, 0x0e, 0x3e, 0xd2, 0x8a, 0x2d, 0x3c,
  0x2c, 0x93, 0x15, 0x3d, 0x38, 0x7a, 0xfb, 0x3d, 0x13, 0xcf, 0x91, 0x3c,
  0xf8, 0x7e, 0x17, 0x3d, 0x5f, 0xdb, 0xa1, 0x3d, 0xea, 0x08, 0xfe, 0x3d,
  0x46, 0x86, 0xd3, 0xbb, 0x32, 0x3c, 0xd2, 0x3c, 0xf8, 0xa0, 0x1c, 0x3e,
  0x95, 0xc8, 0xa6, 0x3b, 0x4b, 0x5a, 0xa2, 0x3d, 0xf4, 0xec, 0x80, 0xbd,
  0xd8, 0x21, 0x2d, 0x3d, 0x0b, 0x8a, 0xb7, 0x3d, 0xbf, 0xf8, 0xc6, 0x3d,
  0x2d, 0xcb, 0x07, 0xbc, 0x60, 0x8d, 0x05, 0x3a, 0x88, 0xa7, 0xd1, 0x3b,
  0x8d, 0xce, 0x8a, 0x3d, 0xbb, 0xbc, 0x90, 0xbb, 0xa4, 0x4a, 0xb6, 0x3d,
  0xac, 0x07, 0x5d, 0xbd, 0x3a, 0xa9, 0x07, 0xbb, 0x53, 0x4c, 0x91, 0xbd,
  0x5e, 0x34, 0xf3, 0x3d, 0x3f, 0x02, 0x81, 0x3d, 0x2a, 0xda, 0x4d, 0xbd,
  0x87, 0xfc, 0xa8, 0xbc, 0xb0, 0x24, 0xae, 0xbc, 0xe9, 0x28, 0x73, 0x3d,
  0xcd, 0x92, 0x64, 0xbd, 0x8e, 0x71, 0x7a, 0x3d, 0xa3, 0xdf, 0x37, 0xbd,
  0x4f, 0x08, 0xba, 0xbd, 0x3d, 0x4b, 0x15, 0x3e, 0x12, 0xc3, 0x0f, 0x3e,
  0xc5, 0x1e, 0xa0, 0x3d, 0x5d, 0x64, 0x81, 0xbd, 0x39, 0xce, 0x93, 0xbd,
  0x5b, 0x48, 0xb2, 0xbc, 0xd8, 0xfb, 0x21, 0x3d, 0x90, 0x2f, 0x3b, 0x3e,
  0x17, 0x4f, 0x9b, 0x3d, 0xb0, 0x61, 0x18, 0x3d, 0x4c, 0xda, 0x64, 0xbc,
  0xcf, 0x2c, 0x00, 0x3e, 0xa2, 0xee, 0xfd, 0xbc, 0xb6, 0x16, 0xa8, 0x3d,
  0x7b, 0xb5, 0x75, 0x3d, 0x15, 0x0f, 0xbc, 0x3d, 0xb2, 0x94, 0xd6, 0x3d,
  0x51, 0xa8, 0xc3, 0x3d, 0xa2, 0x1e, 0x15, 0x3d, 0xfe, 0x3f, 0xd1, 0x3d,
  0x51, 0x28, 0x0e, 0x3e, 0x35, 0x69, 0xea, 0x3d, 0x4f, 0xa5, 0xf0, 0x3d,
  0xb0, 0xfe, 0x05, 0x3e, 0x61, 0xdb, 0x9d, 0x3d, 0xdc, 0xc6, 0xf3, 0x3c,
  0x46, 0xbd, 0x30, 0x3d, 0x80, 0xc1, 0xea, 0x3d, 0xe8, 0xbc, 0xf1, 0x3d,
  0xbe, 0x1d, 0x80, 0x3c, 0x0f, 0xb4, 0xc1, 0x3d, 0xa7, 0x28, 0xe3, 0x3d,
  0x01, 0x50, 0xc8, 0x3d, 0x0f, 0x44, 0xa4, 0x3d, 0xb2, 0xca, 0xea, 0x3d,
  0x90, 0x19, 0xd1, 0x3d, 0xe3, 0xa8, 0xa2, 0x3d, 0xff, 0x13, 0x46, 0x3c,
  0x3d, 0x5a, 0xa1, 0x3c, 0x5a, 0x4d, 0x3d, 0x3d, 0xae, 0x8e, 0xe7, 0x3d,
  0x61, 0xab, 0x6d, 0xbd, 0x4f, 0x0a, 0x53, 0xbc, 0x6f, 0x40, 0x29, 0x3d,
  0x5d, 0xb9, 0xce, 0x3b, 0x26, 0xd7, 0xbd, 0xbd, 0x8a, 0xa9, 0x91, 0x3d,
  0x87, 0x10, 0x13, 0x3d, 0xd6, 0x75, 0x80, 0xbc, 0xf4, 0x9a, 0xda, 0xbc,
  0x9f, 0xf1, 0x6e, 0x3d, 0xd7, 0x65, 0x04, 0x3e, 0x9f, 0xaa, 0xe5, 0xbd,
  0xf0, 0xd5, 0xf5, 0xbb, 0x61, 0x40, 0x3a, 0xbd, 0x08, 0xfb, 0xbf, 0x3d,
  0x1a, 0x53, 0x0d, 0xbc, 0x7b, 0x5c, 0x35, 0x3d, 0x3f, 0x94, 0x0c, 0xbc,
  0xd8, 0x8c, 0xa7, 0x3b, 0xa0, 0x6d, 0x82, 0x3d, 0xb1, 0x82, 0x12, 0x3d,
  0xaf, 0x64, 0xcb, 0x3d, 0xf8, 0x69, 0xaf, 0x3d, 0x92, 0xa9, 0x38, 0xbd,
  0xa8, 0x51, 0x1a, 0x3d, 0x8a, 0x88, 0x7a, 0x3d, 0x00, 0xe9, 0x14, 0x3e,
  0xe8, 0x32, 0x19, 0x3e, 0xc6, 0xea, 0xaf, 0xbd, 0xd1, 0x58, 0xbb, 0x3d,
  0x93, 0x0e, 0x71, 0x3d, 0x0a, 0x08, 0x05, 0x3e, 0x1b, 0xa9, 0x8b, 0x3d,
  0xff, 0x27, 0xdd, 0x3c, 0xf0, 0x02, 0xf8, 0x3d, 0xc9, 0xc5, 0x7e, 0x3d,
  0xd3, 0xe1, 0xc9, 0x3c, 0xcd, 0x5a, 0x91, 0x3b, 0x0d, 0x5f, 0x79, 0x3d,
  0x5f, 0xea, 0x43, 0x3d, 0x14, 0xa6, 0x99, 0x3d, 0xbf, 0xa3, 0x23, 0x3d,
  0xd5, 0xdb, 0x01, 0x3e, 0x74, 0xa5, 0x73, 0x3d, 0x8b, 0x24, 0x88, 0xbb,
  0xd7, 0xca, 0xeb, 0x3c, 0xc5, 0xef, 0x15, 0x3d, 0x68, 0x62, 0x20, 0x3d,
  0x06, 0x87, 0x96, 0x3d, 0x6c, 0x66, 0xaf, 0x3d, 0x20, 0x8f, 0xe9, 0x3c,
  0x6d, 0xf9, 0x94, 0x3d, 0x97, 0x88, 0xad, 0x3d, 0xd0, 0x9c, 0x97, 0x3d,
  0xb4, 0xa6, 0x88, 0x3b, 0x2e, 0x45, 0xaa, 0x3d, 0x65, 0xa9, 0x51, 0x3d,
  0x9e, 0x04, 0xbc, 0xbc, 0x9c, 0x68, 0x00, 0x3e, 0xcd, 0x81, 0xe3, 0x3c,
  0xdf, 0x6c, 0x82, 0x3d, 0x9c, 0x50, 0x19, 0x3e, 0x8d, 0x82, 0x68, 0x3d,
  0x65, 0x2e, 0x91, 0x3c, 0x17, 0x1f, 0x56, 0x3d, 0xb3, 0xc7, 0x91, 0x3d,
  0x4d, 0xf5, 0x65, 0x3d, 0xf6, 0x82, 0x87, 0x3d, 0xaf, 0x71, 0xb3, 0xbd,
  0xe0, 0xf6, 0x81, 0x3d, 0xd8, 0x70, 0x4c, 0x3d, 0x1f, 0x94, 0xa1, 0x3b,
  0x76, 0xed, 0x4a, 0xbd, 0xb8, 0x00, 0x68, 0xbd, 0xa2, 0x50, 0x16, 0x3e,
  0xa3, 0xaf, 0x4b, 0xbd, 0xf4, 0x56, 0xa8, 0x3b, 0xaf, 0x75, 0xb1, 0x3d,
  0xf1, 0x4b, 0x45, 0xbd, 0x16, 0x55, 0x89, 0x3d, 0xe5, 0xcd, 0xae, 0x3d,
  0x26, 0xab, 0x28, 0x3e, 0xb9, 0xd7, 0x9d, 0x3d, 0x24, 0xdb, 0x59, 0xbd,
  0xe6, 0xe1, 0x3e, 0xbc, 0x2f, 0xf2, 0xd1, 0x3d, 0xa7, 0x5c, 0x1a, 0x3e,
  0x44, 0x38, 0x89, 0x3d, 0x75, 0x86, 0xba, 0xbc, 0x60, 0xbc, 0x37, 0x3d,
  0x28, 0x99, 0x36, 0x3d, 0x49, 0xe4, 0x8f, 0x3d, 0x5d, 0x34, 0xb4, 0xbb,
  0x02, 0x68, 0x12, 0x3d, 0xec, 0x95, 0xdc, 0x3d, 0x64, 0x99, 0x7f, 0x3d,
  0x02, 0xd2, 0xb1, 0x3d, 0x54, 0xbc, 0x30, 0x3d, 0x0a, 0x6d, 0x67, 0xbc,
  0xa5, 0xfd, 0x3d, 0xbc, 0x5d, 0x4b, 0x0e, 0xbd, 0x46, 0x98, 0x2a, 0x3e,
  0xcd, 0x97, 0x2a, 0x3e, 0xee, 0x54, 0xbe, 0x3d, 0x2e, 0x72, 0xb5, 0x3c,
  0x04, 0xbe, 0x1a, 0x3e, 0xf7, 0x48, 0xcb, 0x3c, 0xe1, 0xcb, 0x95, 0x3d,
  0xec, 0x8c, 0xe5, 0xbc, 0x71, 0x8c, 0x06, 0x3e, 0x6e, 0xbe, 0xa4, 0x3d,
  0x32, 0x6c, 0x6d, 0x3d, 0xfb, 0xfc, 0x48, 0x3d, 0xbf, 0x66, 0xb6, 0x3d,
  0xd4, 0x64, 0x55, 0x3d, 0xb7, 0x98, 0x05, 0x3c, 0x87, 0x26, 0xa7, 0x3c,
  0xac, 0x27, 0x43, 0x3d, 0x30, 0xce, 0x4a, 0xbc, 0x39, 0x4b, 0xe1, 0x3d,
  0xfe, 0x2a, 0x66, 0xbd, 0x4a, 0x7d, 0x05, 0x3e, 0x8e, 0xec, 0x87, 0x3d,
  0x79, 0x6e, 0xc3, 0x3c, 0xc3, 0xef, 0xc3, 0xbd, 0x9c, 0x64, 0xb1, 0x3d,
  0x4e, 0xc2, 0x34, 0xbd, 0x36, 0x3f, 0x40, 0xbc, 0x66, 0x78, 0xca, 0xbd,
  0x59, 0xc8, 0xcf, 0x3d, 0x7a, 0xfe, 0xff, 0xff, 0x04, 0x00, 0x00, 0x00,
  0x30, 0x00, 0x00, 0x00, 0xa2, 0xf0, 0x02, 0x3f, 0x3f, 0x8b, 0x27, 0xbf,
  0x12, 0xd8, 0x32, 0xbf, 0x33, 0xe8, 0x99, 0x3e, 0x5e, 0x78, 0x92, 0x3d,
  0x03, 0xd4, 0x65, 0xbf, 0x26, 0x90, 0x10, 0x3e, 0x3d, 0xbf, 0xe7, 0xbd,
  0x0a, 0xbd, 0x66, 0x3d, 0x61, 0x70, 0xa1, 0xbd, 0x5e, 0x01, 0x53, 0xbf,
  0xda, 0xcb, 0x01, 0x3f, 0xb6, 0xfe, 0xff, 0xff, 0x04, 0x00, 0x00, 0x00,
  0x90, 0x00, 0x00, 0x00, 0xb7, 0xc4, 0xf4, 0xbc, 0xbb, 0x4f, 0x60, 0x3c,
  0xf8, 0xfa, 0xb3, 0x3e, 0xce, 0x1c, 0x89, 0xbd, 0xa2, 0xff, 0x50, 0xbe,
  0xbb, 0x07, 0x42, 0x3e, 0xdc, 0xdf, 0x28, 0xbe, 0x3e, 0x06, 0x60, 0xbd,
  0x96, 0x15, 0x3e, 0xbe, 0xa0, 0xe5, 0x99, 0xbe, 0xe2, 0x3d, 0x86, 0x3d,
  0x90, 0x79, 0x20, 0x3e, 0x84, 0xea, 0x43, 0xbb, 0x14, 0x12, 0xb7, 0x3e,
  0x25, 0x38, 0x72, 0xbe, 0x80, 0x54, 0x80, 0xbe, 0x4d, 0xbc, 0x49, 0xbd,
  0xbf, 0xec, 0x06, 0x3e, 0xa1, 0x42, 0xd2, 0x3e, 0x32, 0x6e, 0x66, 0x3d,
  0xf7, 0xcd, 0x9b, 0x3e, 0x51, 0x1e, 0xc3, 0x3d, 0xba, 0x5a, 0xe5, 0x3e,
  0x20, 0x18, 0xaf, 0xbd, 0xe1, 0x5f, 0xf2, 0xbd, 0x6c, 0xbb, 0xd8, 0x3e,
  0xce, 0xe7, 0x07, 0xbd, 0xb0, 0x61, 0xb3, 0x3d, 0x69, 0x8e, 0x98, 0xbe,
  0xff, 0xdd, 0x9b, 0xbe, 0x6b, 0x62, 0x7e, 0x3e, 0x19, 0x55, 0xf6, 0x3e,
  0x2e, 0x61, 0x81, 0x3d, 0xda, 0x2c, 0x9b, 0xbe, 0x42, 0xca, 0x95, 0xbe,
  0x42, 0x64, 0xbd, 0xbe, 0x52, 0xff, 0xff, 0xff, 0x04, 0x00, 0x00, 0x00,
  0x10, 0x00, 0x00, 0x00, 0x24, 0x0d, 0x1b, 0x3e, 0xe0, 0x71, 0x19, 0x3e,
  0x50, 0xaa, 0xc7, 0x3d, 0xe4, 0xae, 0x1d, 0x3e, 0xa8, 0xf7, 0xff, 0xff,
  0xac, 0xf7, 0xff, 0xff, 0x0f, 0x00, 0x00, 0x00, 0x4d, 0x4c, 0x49, 0x52,
  0x20, 0x43, 0x6f, 0x6e, 0x76, 0x65, 0x72, 0x74, 0x65, 0x64, 0x2e, 0x00,
  0x01, 0x00, 0x00, 0x00, 0x14, 0x00, 0x00, 0x00, 0x00, 0x00, 0x0e, 0x00,
  0x18, 0x00, 0x14, 0x00, 0x10, 0x00, 0x0c, 0x00, 0x08, 0x00, 0x04, 0x00,
  0x0e, 0x00, 0x00, 0x00, 0x14, 0x00, 0x00, 0x00, 0x1c, 0x00, 0x00, 0x00,
  0x10, 0x02, 0x00, 0x00, 0x14, 0x02, 0x00, 0x00, 0x18, 0x02, 0x00, 0x00,
  0x04, 0x00, 0x00, 0x00, 0x6d, 0x61, 0x69, 0x6e, 0x00, 0x00, 0x00, 0x00,
  0x07, 0x00, 0x00, 0x00, 0xb8, 0x01, 0x00, 0x00, 0x54, 0x01, 0x00, 0x00,
  0xf0, 0x00, 0x00, 0x00, 0xc8, 0x00, 0x00, 0x00, 0x78, 0x00, 0x00, 0x00,
  0x40, 0x00, 0x00, 0x00, 0x04, 0x00, 0x00, 0x00, 0xd2, 0xfe, 0xff, 0xff,
  0x1c, 0x00, 0x00, 0x00, 0x00, 0x00, 0x00, 0x09, 0x1c, 0x00, 0x00, 0x00,
  0x20, 0x00, 0x00, 0x00, 0x05, 0x00, 0x00, 0x00, 0x00, 0x00, 0x06, 0x00,
  0x08, 0x00, 0x04, 0x00, 0x06, 0x00, 0x00, 0x00, 0x00, 0x00, 0x80, 0x3f,
  0x01, 0x00, 0x00, 0x00, 0x0f, 0x00, 0x00, 0x00, 0x01, 0x00, 0x00, 0x00,
  0x0e, 0x00, 0x00, 0x00, 0x0a, 0xff, 0xff, 0xff, 0x14, 0x00, 0x00, 0x00,
  0x00, 0x00, 0x00, 0x08, 0x10, 0x00, 0x00, 0x00, 0x14, 0x00, 0x00, 0x00,
  0x04, 0x00, 0x00, 0x00, 0x70, 0xf8, 0xff, 0xff, 0x01, 0x00, 0x00, 0x00,
  0x0e, 0x00, 0x00, 0x00, 0x03, 0x00, 0x00, 0x00, 0x0d, 0x00, 0x00, 0x00,
  0x03, 0x00, 0x00, 0x00, 0x06, 0x00, 0x00, 0x00, 0x3e, 0xff, 0xff, 0xff,
  0x1c, 0x00, 0x00, 0x00, 0x00, 0x00, 0x00, 0x08, 0x1c, 0x00, 0x00, 0x00,
  0x20, 0x00, 0x00, 0x00, 0x04, 0x00, 0x00, 0x00, 0x00, 0x00, 0x06, 0x00,
  0x08, 0x00, 0x07, 0x00, 0x06, 0x00, 0x00, 0x00, 0x00, 0x00, 0x00, 0x01,
  0x01, 0x00, 0x00, 0x00, 0x0d, 0x00, 0x00, 0x00, 0x03, 0x00, 0x00, 0x00,
  0x0c, 0x00, 0x00, 0x00, 0x04, 0x00, 0x00, 0x00, 0x05, 0x00, 0x00, 0x00,
  0x00, 0x00, 0x0a, 0x00, 0x10, 0x00, 0x0c, 0x00, 0x08, 0x00, 0x04, 0x00,
  0x0a, 0x00, 0x00, 0x00, 0x0c, 0x00, 0x00, 0x00, 0x10, 0x00, 0x00, 0x00,
  0x03, 0x00, 0x00, 0x00, 0x01, 0x00, 0x00, 0x00, 0x0c, 0x00, 0x00, 0x00,
  0x02, 0x00, 0x00, 0x00, 0x0b, 0x00, 0x00, 0x00, 0x07, 0x00, 0x00, 0x00,
  0xae, 0xff, 0xff, 0xff, 0x24, 0x00, 0x00, 0x00, 0x00, 0x00, 0x00, 0x05,
  0x34, 0x00, 0x00, 0x00, 0x38, 0x00, 0x00, 0x00, 0x02, 0x00, 0x00, 0x00,
  0x00, 0x00, 0x0e, 0x00, 0x18, 0x00, 0x17, 0x00, 0x10, 0x00, 0x0c, 0x00,
  0x08, 0x00, 0x04, 0x00, 0x0e, 0x00, 0x00, 0x00, 0x02, 0x00, 0x00, 0x00,
  0x02, 0x00, 0x00, 0x00, 0x02, 0x00, 0x00, 0x00, 0x02, 0x00, 0x00, 0x00,
  0x00, 0x00, 0x00, 0x01, 0x01, 0x00, 0x00, 0x00, 0x0b, 0x00, 0x00, 0x00,
  0x01, 0x00, 0x00, 0x00, 0x0a, 0x00, 0x00, 0x00, 0x00, 0x00, 0x0e, 0x00,
  0x18, 0x00, 0x14, 0x00, 0x10, 0x00, 0x0c, 0x00, 0x0b, 0x00, 0x04, 0x00,
  0x0e, 0x00, 0x00, 0x00, 0x20, 0x00, 0x00, 0x00, 0x00, 0x00, 0x00, 0x01,
  0x2c, 0x00, 0x00, 0x00, 0x30, 0x00, 0x00, 0x00, 0x01, 0x00, 0x00, 0x00,
  0x0c, 0x00, 0x14, 0x00, 0x13, 0x00, 0x0c, 0x00, 0x08, 0x00, 0x07, 0x00,
  0x0c, 0x00, 0x00, 0x00, 0x00, 0x00, 0x00, 0x01, 0x01, 0x00, 0x00, 0x00,
  0x01, 0x00, 0x00, 0x00, 0x00, 0x00, 0x00, 0x01, 0x01, 0x00, 0x00, 0x00,
  0x0a, 0x00, 0x00, 0x00, 0x03, 0x00, 0x00, 0x00, 0x09, 0x00, 0x00, 0x00,
  0x02, 0x00, 0x00, 0x00, 0x01, 0x00, 0x00, 0x00, 0x00, 0x00, 0x0e, 0x00,
  0x14, 0x00, 0x00, 0x00, 0x10, 0x00, 0x0c, 0x00, 0x0b, 0x00, 0x04, 0x00,
  0x0e, 0x00, 0x00, 0x00, 0x1c, 0x00, 0x00, 0x00, 0x00, 0x00, 0x00, 0x0f,
  0x1c, 0x00, 0x00, 0x00, 0x20, 0x00, 0x00, 0x00, 0x0c, 0x00, 0x08, 0x00,
  0x00, 0x00, 0x00, 0x00, 0x00, 0x00, 0x07, 0x00, 0x0c, 0x00, 0x00, 0x00,
  0x00, 0x00, 0x00, 0x01, 0x01, 0x00, 0x00, 0x00, 0x09, 0x00, 0x00, 0x00,
  0x02, 0x00, 0x00, 0x00, 0x00, 0x00, 0x00, 0x00, 0x08, 0x00, 0x00, 0x00,
  0x01, 0x00, 0x00, 0x00, 0x0f, 0x00, 0x00, 0x00, 0x01, 0x00, 0x00, 0x00,
  0x00, 0x00, 0x00, 0x00, 0x10, 0x00, 0x00, 0x00, 0xc4, 0x05, 0x00, 0x00,
  0x70, 0x05, 0x00, 0x00, 0x10, 0x05, 0x00, 0x00, 0xd0, 0x04, 0x00, 0x00,
  0x90, 0x04, 0x00, 0x00, 0x54, 0x04, 0x00, 0x00, 0x18, 0x04, 0x00, 0x00,
  0xd8, 0x03, 0x00, 0x00, 0x6c, 0x03, 0x00, 0x00, 0xec, 0x02, 0x00, 0x00,
  0x44, 0x02, 0x00, 0x00, 0xcc, 0x01, 0x00, 0x00, 0x6c, 0x01, 0x00, 0x00,
  0xdc, 0x00, 0x00, 0x00, 0x60, 0x00, 0x00, 0x00, 0x04, 0x00, 0x00, 0x00,
  0x92, 0xfa, 0xff, 0xff, 0x00, 0x00, 0x00, 0x01, 0x14, 0x00, 0x00, 0x00,
  0x1c, 0x00, 0x00, 0x00, 0x1c, 0x00, 0x00, 0x00, 0x10, 0x00, 0x00, 0x00,
  0x34, 0x00, 0x00, 0x00, 0x02, 0x00, 0x00, 0x00, 0xff, 0xff, 0xff, 0xff,
  0x03, 0x00, 0x00, 0x00, 0x74, 0xfa, 0xff, 0xff, 0x1b, 0x00, 0x00, 0x00,
  0x53, 0x74, 0x61, 0x74, 0x65, 0x66, 0x75, 0x6c, 0x50, 0x61, 0x72, 0x74,
  0x69, 0x74, 0x69, 0x6f, 0x6e, 0x65, 0x64, 0x43, 0x61, 0x6c, 0x6c, 0x5f,
  0x31, 0x3a, 0x30, 0x00, 0x02, 0x00, 0x00, 0x00, 0x01, 0x00, 0x00, 0x00,
  0x03, 0x00, 0x00, 0x00, 0xea, 0xfa, 0xff, 0xff, 0x00, 0x00, 0x00, 0x01,
  0x14, 0x00, 0x00, 0x00, 0x1c, 0x00, 0x00, 0x00, 0x1c, 0x00, 0x00, 0x00,
  0x0f, 0x00, 0x00, 0x00, 0x54, 0x00, 0x00, 0x00, 0x02, 0x00, 0x00, 0x00,
  0xff, 0xff, 0xff, 0xff, 0x03, 0x00, 0x00, 0x00, 0xcc, 0xfa, 0xff, 0xff,
  0x38, 0x00, 0x00, 0x00, 0x73, 0x65, 0x71, 0x75, 0x65, 0x6e, 0x74, 0x69,
  0x61, 0x6c, 0x5f, 0x31, 0x2f, 0x64, 0x65, 0x6e, 0x73, 0x65, 0x5f, 0x31,
  0x5f, 0x32, 0x2f, 0x4d, 0x61, 0x74, 0x4d, 0x75, 0x6c, 0x3b, 0x73, 0x65,
  0x71, 0x75, 0x65, 0x6e, 0x74, 0x69, 0x61, 0x6c, 0x5f, 0x31, 0x2f, 0x64,
  0x65, 0x6e, 0x73, 0x65, 0x5f, 0x31, 0x5f, 0x32, 0x2f, 0x41, 0x64, 0x64,
  0x00, 0x00, 0x00, 0x00, 0x02, 0x00, 0x00, 0x00, 0x01, 0x00, 0x00, 0x00,
  0x03, 0x00, 0x00, 0x00, 0x62, 0xfb, 0xff, 0xff, 0x00, 0x00, 0x00, 0x01,
  0x14, 0x00, 0x00, 0x00, 0x1c, 0x00, 0x00, 0x00, 0x1c, 0x00, 0x00, 0x00,
  0x0e, 0x00, 0x00, 0x00, 0x68, 0x00, 0x00, 0x00, 0x02, 0x00, 0x00, 0x00,
  0xff, 0xff, 0xff, 0xff, 0x04, 0x00, 0x00, 0x00, 0x44, 0xfb, 0xff, 0xff,
